{
  "version": "1.0",
  "truncation": null,
  "padding": null,
  "added_tokens": [
    {
      "id": 0,
      "content": "<|endoftext|>",
      "single_word": false,
      "lstrip": false,
      "rstrip": false,
      "normalized": false,
      "special": true
    }
  ],
  "normalizer": null,
  "pre_tokenizer": {
    "type": "ByteLevel",
    "add_prefix_space": false,
    "trim_offsets": true,
    "use_regex": true
  },
  "post_processor": {
    "type": "ByteLevel",
    "add_prefix_space": true,
    "trim_offsets": false,
    "use_regex": true
  },
  "decoder": {
    "type": "ByteLevel",
    "add_prefix_space": true,
    "trim_offsets": true,
    "use_regex": true
  },
  "model": {
    "type": "BPE",
    "dropout": null,
    "unk_token": null,
    "continuing_subword_prefix": null,
    "end_of_word_suffix": null,
    "fuse_unk": false,
    "vocab": {
      "<|endoftext|>": 0,
      "!": 1,
      "%": 2,
      "&": 3,
      "'": 4,
      "(": 5,
      ")": 6,
      "+": 7,
      ",": 8,
      "-": 9,
      ".": 10,
      "/": 11,
      "0": 12,
      "1": 13,
      "2": 14,
      "3": 15,
      "4": 16,
      "5": 17,
      "6": 18,
      "7": 19,
      "8": 20,
      "9": 21,
      ":": 22,
      ";": 23,
      "=": 24,
      "?": 25,
      "A": 26,
      "B": 27,
      "C": 28,
      "D": 29,
      "E": 30,
      "F": 31,
      "G": 32,
      "H": 33,
      "I": 34,
      "J": 35,
      "K": 36,
      "L": 37,
      "M": 38,
      "N": 39,
      "O": 40,
      "P": 41,
      "Q": 42,
      "R": 43,
      "S": 44,
      "T": 45,
      "U": 46,
      "V": 47,
      "W": 48,
      "X": 49,
      "Y": 50,
      "Z": 51,
      "[": 52,
      "]": 53,
      "a": 54,
      "b": 55,
      "c": 56,
      "d": 57,
      "e": 58,
      "f": 59,
      "g": 60,
      "h": 61,
      "i": 62,
      "j": 63,
      "k": 64,
      "l": 65,
      "m": 66,
      "n": 67,
      "o": 68,
      "p": 69,
      "q": 70,
      "r": 71,
      "s": 72,
      "t": 73,
      "u": 74,
      "v": 75,
      "w": 76,
      "x": 77,
      "y": 78,
      "z": 79,
      "¡": 80,
      "¤": 81,
      "¥": 82,
      "¦": 83,
      "¨": 84,
      "©": 85,
      "«": 86,
      "°": 87,
      "²": 88,
      "³": 89,
      "¶": 90,
      "·": 91,
      "¸": 92,
      "º": 93,
      "¼": 94,
      "½": 95,
      "¾": 96,
      "Â": 97,
      "Ã": 98,
      "â": 99,
      "Ġ": 100,
      "Ģ": 101,
      "ģ": 102,
      "Ĩ": 103,
      "ī": 104,
      "į": 105,
      "ĵ": 106,
      "ĸ": 107,
      "ĺ": 108,
      "ļ": 109,
      "ľ": 110,
      "Ŀ": 111,
      "ŀ": 112,
      "ł": 113,
      "Ń": 114,
      "Ã°": 115,
      "ĠÃ": 116,
      "aÃ°": 117,
      "Ġs": 118,
      "ĠÃ¾": 119,
      "in": 120,
      "ar": 121,
      "Ġe": 122,
      "ĠaÃ°": 123,
      "Ġh": 124,
      "Ġv": 125,
      "um": 126,
      "Ġf": 127,
      "iÃ°": 128,
      "Ã¡": 129,
      "an": 130,
      "Ġm": 131,
      "Ã¦": 132,
      "ir": 133,
      "er": 134,
      "ur": 135,
      "st": 136,
      "Ġo": 137,
      "ÃŃ": 138,
      "ĠÃ¡": 139,
      "il": 140,
      "Ã³": 141,
      "Ġt": 142,
      "Ġog": 143,
      "ĠÃŃ": 144,
      "ĠÃ¾e": 145,
      "Ã¶": 146,
      "Ġer": 147,
      "eg": 148,
      "ing": 149,
      "tt": 150,
      "em": 151,
      "Ġl": 152,
      "un": 153,
      "am": 154,
      "kk": 155,
      "Ã©": 156,
      "Ġg": 157,
      "Ġsem": 158,
      "Ġa": 159,
      "inn": 160,
      "ss": 161,
      "Ġr": 162,
      "yr": 163,
      "Ġb": 164,
      "en": 165,
      "ag": 166,
      "ĠÃ¾aÃ°": 167,
      "jÃ³": 168,
      "Ã¡l": 169,
      "Ġum": 170,
      "ĠviÃ°": 171,
      "Ġn": 172,
      "Ġk": 173,
      "or": 174,
      "ef": 175,
      "Ġtil": 176,
      "Ãº": 177,
      "na": 178,
      "Ġfr": 179,
      "Ġst": 180,
      "ĠÃ¾ess": 181,
      "Ġver": 182,
      "al": 183,
      "and": 184,
      "et": 185,
      "Ã¦Ã°": 186,
      "af": 187,
      "Ġekk": 188,
      "ĠÃŀ": 189,
      "is": 190,
      "ig": 191,
      "leg": 192,
      "vÃŃ": 193,
      "Ġsk": 194,
      "Ġfyr": 195,
      "ann": 196,
      "Ġekki": 197,
      "Ġhv": 198,
      "Ã©r": 199,
      "ĠÃ¾vÃŃ": 200,
      "sk": 201,
      "re": 202,
      "ra": 203,
      "eÃ°": 204,
      "Ġfyrir": 205,
      "Ã¶g": 206,
      "nd": 207,
      "ri": 208,
      "ja": 209,
      "ins": 210,
      "ll": 211,
      "ÃŃk": 212,
      "Ã½": 213,
      "nar": 214,
      "Ġsam": 215,
      "sl": 216,
      "tta": 217,
      "Ġfram": 218,
      "Ġaf": 219,
      "ĠmeÃ°": 220,
      "Ã°a": 221,
      "ors": 222,
      "Ã°i": 223,
      "ei": 224,
      "Ġhef": 225,
      "ĠmÃ¡l": 226,
      "el": 227,
      "Ġen": 228,
      "jÃ³r": 229,
      "Ġko": 230,
      "jÃ¡": 231,
      "Ġhaf": 232,
      "ĠÃ©": 233,
      "ĠÃ©g": 234,
      "Ġef": 235,
      "enn": 236,
      "Ã¡Ã°": 237,
      "ta": 238,
      "Ġvar": 239,
      "und": 240,
      "orset": 241,
      "īg": 242,
      "ĠÃīg": 243,
      "ĠÃŀaÃ°": 244,
      "ĠÃ¾ing": 245,
      "lu": 246,
      "lega": 247,
      "Ã°u": 248,
      "var": 249,
      "ning": 250,
      "orseti": 251,
      "ĠhÃ¦": 252,
      "ik": 253,
      "ĠH": 254,
      "inu": 255,
      "pp": 256,
      "ak": 257,
      "ĠsÃ©": 258,
      "ver": 259,
      "Ġu": 260,
      "Ġkom": 261,
      "ey": 262,
      "ĠÃ¾etta": 263,
      "Ã¾": 264,
      "ĠE": 265,
      "ti": 266,
      "kv": 267,
      "Ã¶r": 268,
      "ĠÃº": 269,
      "la": 270,
      "Ġger": 271,
      "andi": 272,
      "ĠveriÃ°": 273,
      "Ġhefur": 274,
      "Ġeru": 275,
      "ald": 276,
      "ĠV": 277,
      "jÃ³Ã°": 278,
      "ĠÃ¾Ã¡": 279,
      "ĠS": 280,
      "Ġd": 281,
      "end": 282,
      "Ġein": 283,
      "ĠrÃŃk": 284,
      "num": 285,
      "ni": 286,
      "Ġveg": 287,
      "ug": 288,
      "Ġsv": 289,
      "li": 290,
      "Ġupp": 291,
      "ĠÃ¾eir": 292,
      "lag": 293,
      "Ã¦r": 294,
      "ĠhÃ©r": 295,
      "ingar": 296,
      "uÃ°": 297,
      "ek": 298,
      "ara": 299,
      "ĠF": 300,
      "her": 301,
      "Ġmik": 302,
      "ld": 303,
      "ĠsÃ©r": 304,
      "efnd": 305,
      "Ġforseti": 306,
      "ĠÃ¾ar": 307,
      "rÃ¦Ã°": 308,
      "Ġhafa": 309,
      "jÃ¡r": 310,
      "tir": 311,
      "ĠstjÃ³r": 312,
      "ĠÃį": 313,
      "mÃ¡l": 314,
      "rey": 315,
      "Ġall": 316,
      "okk": 317,
      "yg": 318,
      "inni": 319,
      "Ã¡Ã°her": 320,
      "gar": 321,
      "ĠA": 322,
      "ĠsÃŃ": 323,
      "ĠÃ¾ingm": 324,
      "ĠÃ¶": 325,
      "sins": 326,
      "ĠfjÃ¡r": 327,
      "Ã°ur": 328,
      "ĠrÃŃkis": 329,
      "ĠÃ³": 330,
      "Ã°ar": 331,
      "Ġhver": 332,
      "ygg": 333,
      "eiÃ°": 334,
      "Ã¡Ã°herra": 335,
      "im": 336,
      "Ġokk": 337,
      "Ã¶f": 338,
      "anna": 339,
      "Ġal": 340,
      "Ġsvo": 341,
      "stv": 342,
      "Ġget": 343,
      "Ã¡lf": 344,
      "ka": 345,
      "ang": 346,
      "eng": 347,
      "au": 348,
      "Ġat": 349,
      "ĠÃ¾essu": 350,
      "stjÃ³r": 351,
      "ĠÃ¾eim": 352,
      "Ġeig": 353,
      "varp": 354,
      "Ġvil": 355,
      "ip": 356,
      "ĠnÃº": 357,
      "ĠeÃ°a": 358,
      "Ã¦m": 359,
      "ĠÃºt": 360,
      "Ġeins": 361,
      "umvarp": 362,
      "Ã©tt": 363,
      "ĠÃŀe": 364,
      "Ġvegna": 365,
      "Ġeftir": 366,
      "it": 367,
      "aÃ°ur": 368,
      "Ġund": 369,
      "Ġhlu": 370,
      "ĠrÃ¦Ã°": 371,
      "jÃ¡lf": 372,
      "lokk": 373,
      "arf": 374,
      "ÃŃm": 375,
      "ĠfrÃ¡": 376,
      "rÃ¡": 377,
      "nu": 378,
      "ĠhÃ¦stv": 379,
      "Ã¦k": 380,
      "Ġinn": 381,
      "stÃ¦Ã°": 382,
      "eld": 383,
      "Ġsp": 384,
      "ĠÃ¾egar": 385,
      "ĠÃ¾jÃ³Ã°": 386,
      "Ġmenn": 387,
      "jÃ¶g": 388,
      "Ġbrey": 389,
      "Ġlag": 390,
      "ĠÃįsl": 391,
      "ĠM": 392,
      "rÃ³": 393,
      "Ġfrumvarp": 394,
      "itt": 395,
      "unum": 396,
      "tti": 397,
      "ast": 398,
      "ĠÃ¦": 399,
      "ĠmjÃ¶g": 400,
      "fir": 401,
      "Ġgr": 402,
      "ild": 403,
      "Ã¾ing": 404,
      "Ã¦ri": 405,
      "ist": 406,
      "eim": 407,
      "ileg": 408,
      "ĠÃ¾ann": 409,
      "Ãºn": 410,
      "gt": 411,
      "reiÃ°": 412,
      "lÃ¶g": 413,
      "Ġhann": 414,
      "sam": 415,
      "ĠlÃ¶g": 416,
      "Ġtek": 417,
      "ĠG": 418,
      "hver": 419,
      "Ġy": 420,
      "Ġ2": 421,
      "Ġtak": 422,
      "eir": 423,
      "ĠrÃŃkisstjÃ³r": 424,
      "ĠstjÃ³rnar": 425,
      "Ã³l": 426,
      "ĠverÃ°i": 427,
      "jar": 428,
      "nir": 429,
      "Ġyfir": 430,
      "iss": 431,
      "âĢ": 432,
      "slu": 433,
      "Ġseg": 434,
      "ĠViÃ°": 435,
      "ĠÃ¡r": 436,
      "est": 437,
      "ĠÃºr": 438,
      "Ġ1": 439,
      "Ã¦t": 440,
      "Ġhr": 441,
      "ĠB": 442,
      "rÃº": 443,
      "sa": 444,
      "Ġor": 445,
      "ĠstaÃ°": 446,
      "iÃ°ur": 447,
      "innar": 448,
      "ĠÃ¡kv": 449,
      "ands": 450,
      "Ġheld": 451,
      "ĠnÃ¡": 452,
      "Ġhafi": 453,
      "ĠtÃŃm": 454,
      "of": 455,
      "ort": 456,
      "ĠAl": 457,
      "oÃ°": 458,
      "ina": 459,
      "Ġsku": 460,
      "ĠhvaÃ°": 461,
      "unar": 462,
      "Ġmikil": 463,
      "Ġhug": 464,
      "ĠumrÃ¦Ã°": 465,
      "innu": 466,
      "Ã³k": 467,
      "ĠnÃ½": 468,
      "ĠsjÃ¡lf": 469,
      "Ġnefnd": 470,
      "jÃ¶": 471,
      "ju": 472,
      "Ã°um": 473,
      "Ġvera": 474,
      "Ġokkur": 475,
      "ram": 476,
      "Ġundir": 477,
      "menn": 478,
      "ĠlÃ¡": 479,
      "ĠlÃŃk": 480,
      "jum": 481,
      "Ġgera": 482,
      "stu": 483,
      "veg": 484,
      "Ã°an": 485,
      "ind": 486,
      "Ġmil": 487,
      "ĠvÃ¦ri": 488,
      "Ġtal": 489,
      "fi": 490,
      "Ġmun": 491,
      "Ã¶n": 492,
      "Ġfara": 493,
      "Ã°uleg": 494,
      "all": 495,
      "ĠÃ¾essum": 496,
      "ĠÃ¾annig": 497,
      "irÃ°uleg": 498,
      "ĠstjÃ³rn": 499,
      "Ġska": 500,
      "ags": 501,
      "yn": 502,
      "Ġhvort": 503,
      "skrÃ¡": 504,
      "Ġend": 505,
      "Ã¦Ã°i": 506,
      "ari": 507,
      "ĠhÃ¶f": 508,
      "Ġmar": 509,
      "Ã¶Ã°u": 510,
      "00": 511,
      "Ġhe": 512,
      "Ġtaka": 513,
      "stak": 514,
      "erÃ°": 515,
      "Ġann": 516,
      "Ġbreyt": 517,
      "Ġrey": 518,
      "Ġeinhver": 519,
      "ensk": 520,
      "Ġkoma": 521,
      "Ã©lag": 522,
      "tan": 523,
      "ĠForseti": 524,
      "tur": 525,
      "kvÃ¦m": 526,
      "rein": 527,
      "Ã³r": 528,
      "ĠmÃ¡li": 529,
      "naÃ°": 530,
      "Ġj": 531,
      "ĠrÃ©tt": 532,
      "flokk": 533,
      "ĠÃ¦t": 534,
      "ĠÃŀetta": 535,
      "ingu": 536,
      "lÃ½": 537,
      "sta": 538,
      "Ġheim": 539,
      "ĠÃ¾m": 540,
      "on": 541,
      "inna": 542,
      "nig": 543,
      "Ġtel": 544,
      "Ġallt": 545,
      "gja": 546,
      "Ġvel": 547,
      "ĠÃ¾essa": 548,
      "ĠleiÃ°": 549,
      "vÃ¦": 550,
      "eit": 551,
      "Ã¶k": 552,
      "Ġland": 553,
      "Ġp": 554,
      "jÃ¶r": 555,
      "Ġdag": 556,
      "ĠÃ¾ur": 557,
      "ĠÃ¾au": 558,
      "Ġsamning": 559,
      "ĠAlÃ¾ing": 560,
      "slensk": 561,
      "ĠÃŃslensk": 562,
      "ĠniÃ°ur": 563,
      "Ġskil": 564,
      "ĠlÃŃka": 565,
      "tÃ¦k": 566,
      "irÃ°ulegi": 567,
      "Ġhring": 568,
      "ĠfÃ¡": 569,
      "legt": 570,
      "Ã¦tt": 571,
      "ĠtÃŃma": 572,
      "rygg": 573,
      "Ã½r": 574,
      "Ġsl": 575,
      "Ġvor": 576,
      "ĠverÃ°ur": 577,
      "ĠrÃŃkisstjÃ³rn": 578,
      "ĠrÃ¡Ã°": 579,
      "Ġkr": 580,
      "Ġhringir": 581,
      "ĠmÃ©r": 582,
      "Ġmeir": 583,
      "ĠN": 584,
      "inga": 585,
      "ĠÃ¾Ã¦r": 586,
      "skip": 587,
      "Ġokkar": 588,
      "ĠÃ¾essi": 589,
      "ull": 590,
      "ĠEn": 591,
      "Ġhvernig": 592,
      "Ġley": 593,
      "ko": 594,
      "Ġfor": 595,
      "ĠkomiÃ°": 596,
      "Ġsag": 597,
      "afn": 598,
      "ĠfjÃ¡rmÃ¡l": 599,
      "lit": 600,
      "ĠlÃŃ": 601,
      "miÃ°": 602,
      "isr": 603,
      "ĠmÃ¡": 604,
      "Ġskip": 605,
      "ĠÃ¶ll": 606,
      "unni": 607,
      "Ġhald": 608,
      "rÃ³p": 609,
      "una": 610,
      "ĠhÃºn": 611,
      "vrÃ³p": 612,
      "ĠbÃº": 613,
      "aÃ°i": 614,
      "anda": 615,
      "ĠrÃ¦Ã°a": 616,
      "jald": 617,
      "Ġgert": 618,
      "ĠorÃ°": 619,
      "rar": 620,
      "at": 621,
      "ank": 622,
      "Ã¡tt": 623,
      "ĠÃ¾eirra": 624,
      "Ġfl": 625,
      "ynd": 626,
      "ĠEvrÃ³p": 627,
      "br": 628,
      "Ġstarf": 629,
      "emur": 630,
      "aun": 631,
      "Ġfull": 632,
      "anefnd": 633,
      "ĠauÃ°": 634,
      "Ġatv": 635,
      "ĠmikilvÃ¦": 636,
      "ĠÃ¡h": 637,
      "Ġskuld": 638,
      "fram": 639,
      "endur": 640,
      "sÃ³k": 641,
      "Ġsegja": 642,
      "piÃ°": 643,
      "ĠÃ¾Ã³": 644,
      "ĠhjÃ¡": 645,
      "Ġvoru": 646,
      "Ġleg": 647,
      "Ġ-": 648,
      "fa": 649,
      "ĠVirÃ°ulegi": 650,
      "yl": 651,
      "ve": 652,
      "Ã³lk": 653,
      "Ġerum": 654,
      "Ġbara": 655,
      "lum": 656,
      "agn": 657,
      "gu": 658,
      "byr": 659,
      "Ġsig": 660,
      "eyr": 661,
      "ripiÃ°": 662,
      "lei": 663,
      "ert": 664,
      "ĠhÃ¶fum": 665,
      "ĠEvrÃ³pu": 666,
      "ga": 667,
      "Ġverk": 668,
      "ĠI": 669,
      "riÃ°": 670,
      "Ġfar": 671,
      "nt": 672,
      "Ã°r": 673,
      "ĠsÃ©rstak": 674,
      "kka": 675,
      "Ġjafn": 676,
      "Ġmill": 677,
      "Ġeitt": 678,
      "Ġefna": 679,
      "ĠGripiÃ°": 680,
      "ĠstjÃ³rnarskrÃ¡": 681,
      "Ġvegar": 682,
      "ofn": 683,
      "ana": 684,
      "Ġnokk": 685,
      "Ġalveg": 686,
      "fum": 687,
      "ĠhÃ¦gt": 688,
      "stÃ¦Ã°is": 689,
      "Ġefnah": 690,
      "arÃ¡Ã°herra": 691,
      "urinn": 692,
      "ĠÃ¾ingmaÃ°ur": 693,
      "Ġbr": 694,
      "ingum": 695,
      "ĠAlÃ¾ingi": 696,
      "Ġskatt": 697,
      "ĠÃ¶Ã°r": 698,
      "Ġhlut": 699,
      "ĠâĢ": 700,
      "Ġvir": 701,
      "ĠÃģ": 702,
      "isrÃ¡Ã°herra": 703,
      "si": 704,
      "ĠsjÃ¡": 705,
      "Ã¶nd": 706,
      "Ġfors": 707,
      "ska": 708,
      "ĠljÃ³": 709,
      "Ġendur": 710,
      "Ġse": 711,
      "sem": 712,
      "Ġkemur": 713,
      "ĠÃ¾ingmann": 714,
      "kom": 715,
      "band": 716,
      "dd": 717,
      "ĠmÃŃ": 718,
      "ĠgreiÃ°": 719,
      "ĠfÃ³lk": 720,
      "ĠslÃŃk": 721,
      "efni": 722,
      "ĠÃ¾ingmenn": 723,
      "gur": 724,
      "vit": 725,
      "ĠvarÃ°": 726,
      "ĠÃ¾arf": 727,
      "fiÃ°": 728,
      "byrg": 729,
      "ĠR": 730,
      "ans": 731,
      "lÃŃ": 732,
      "vaÃ°": 733,
      "Ġgrein": 734,
      "ĠhefÃ°i": 735,
      "ĠmÃ¡liÃ°": 736,
      "Ġbreytingar": 737,
      "Ġatvinnu": 738,
      "ĠFrÃº": 739,
      "ĠL": 740,
      "Ġau": 741,
      "ĠumrÃ¦Ã°u": 742,
      "stÃ¶Ã°u": 743,
      "Ġraun": 744,
      "Ã³m": 745,
      "ilega": 746,
      "ykk": 747,
      "Ġfund": 748,
      "ust": 749,
      "ĠrÃ¡Ã°herra": 750,
      "Ã³tt": 751,
      "ĠvÃŃ": 752,
      "ĠsÃ©u": 753,
      "Ġkann": 754,
      "eig": 755,
      "vitaÃ°": 756,
      "ĠsÃº": 757,
      "ĠhÃ¦tti": 758,
      "ĠÃ¡kveÃ°": 759,
      "ĠEvrÃ³pusam": 760,
      "ĠÃ¾eirri": 761,
      "Ġbor": 762,
      "Ġber": 763,
      "esa": 764,
      "Ġgeg": 765,
      "Ã³t": 766,
      "lut": 767,
      "lÃ½s": 768,
      "tiÃ°": 769,
      "Ġof": 770,
      "rif": 771,
      "Ġekkert": 772,
      "yrÃ°i": 773,
      "Ã¾ykk": 774,
      "Ġspur": 775,
      "enda": 776,
      "ĠnÃºna": 777,
      "ein": 778,
      "bÃº": 779,
      "ĠsamÃ¾ykk": 780,
      "ĠskÃ½r": 781,
      "ĠlÃ½": 782,
      "aÃ°a": 783,
      "ski": 784,
      "ĠfjÃ¡rlag": 785,
      "Ġmeiri": 786,
      "Ġbet": 787,
      "ĠfyrirtÃ¦k": 788,
      "ĠJ": 789,
      "arinnar": 790,
      "Ġsaman": 791,
      "Ġgang": 792,
      "Ġath": 793,
      "ĠÃ¾essari": 794,
      "fÃ©lag": 795,
      "issjÃ³Ã°": 796,
      "ĠEvrÃ³pusamband": 797,
      "Ġlig": 798,
      "Ġheldur": 799,
      "sÃ³knar": 800,
      "ĠSam": 801,
      "jÃº": 802,
      "ĠskoÃ°": 803,
      "vÃ¶": 804,
      "Ġset": 805,
      "ĠÃįslend": 806,
      "jÃ¶l": 807,
      "kvÃ¦Ã°": 808,
      "Ġforset": 809,
      "uney": 810,
      "ĠIc": 811,
      "Ġhins": 812,
      "ĠverÃ°": 813,
      "mynd": 814,
      "ĠfariÃ°": 815,
      "alla": 816,
      "ĠnÃ¦": 817,
      "mÃ¡la": 818,
      "Ġannar": 819,
      "ĠÃ¦tla": 820,
      "ber": 821,
      "ark": 822,
      "byrgÃ°": 823,
      "ĠÃŀess": 824,
      "unn": 825,
      "Ġminni": 826,
      "ĠtekiÃ°": 827,
      "liÃ°": 828,
      "ĠÃ¾essar": 829,
      "Ġfer": 830,
      "Ġhalda": 831,
      "Ġutan": 832,
      "ĠverÃ°a": 833,
      "esave": 834,
      "ĠIcesave": 835,
      "amÃ¡l": 836,
      "Ġefnahags": 837,
      "Ġgagn": 838,
      "ĠsÃ©rstaklega": 839,
      "Ġgeng": 840,
      "Ġ200": 841,
      "Ġkannski": 842,
      "Ġforseta": 843,
      "ĠauÃ°vitaÃ°": 844,
      "Ġeinn": 845,
      "sson": 846,
      "âĢľ": 847,
      "ĠÃįslands": 848,
      "ĠâĢŀ": 849,
      "ĠmikiÃ°": 850,
      "ĠtillÃ¶g": 851,
      "Ġheil": 852,
      "Ġlo": 853,
      "uga": 854,
      "Ġbygg": 855,
      "Ġenn": 856,
      "Ġgeta": 857,
      "Ġundan": 858,
      "Ġvinnu": 859,
      "Ġtrygg": 860,
      "Ġspyr": 861,
      "Ġflokk": 862,
      "nn": 863,
      "rei": 864,
      "tum": 865,
      "ĠstÃ³r": 866,
      "ĠrÃŃkisstjÃ³rnar": 867,
      "Ġkost": 868,
      "leiÃ°": 869,
      "anir": 870,
      "Ġeigi": 871,
      "Ġlagt": 872,
      "manna": 873,
      "Ġheimil": 874,
      "sÃ¶g": 875,
      "Ã¦ti": 876,
      "ĠgÃ³": 877,
      "ĠSjÃ¡lf": 878,
      "Ġhag": 879,
      "ĠannaÃ°": 880,
      "innst": 881,
      "Ġgeti": 882,
      "ĠÃ½": 883,
      "Ã¶nnum": 884,
      "ilegt": 885,
      "Ãºs": 886,
      "Ã¦n": 887,
      "ĠBr": 888,
      "ĠK": 889,
      "gerÃ°": 890,
      "ĠSjÃ¡lfstÃ¦Ã°is": 891,
      "pa": 892,
      "tar": 893,
      "ĠmikilvÃ¦gt": 894,
      "Ġeng": 895,
      "Ġtala": 896,
      "Ġgef": 897,
      "unnar": 898,
      "Ġbank": 899,
      "ĠSjÃ¡lfstÃ¦Ã°isflokk": 900,
      "ĠÃ¾r": 901,
      "Ġleggja": 902,
      "laga": 903,
      "stri": 904,
      "ĠfjÃ¡rmÃ¡larÃ¡Ã°herra": 905,
      "Ġsagt": 906,
      "ĠÃ¡g": 907,
      "kvÃ¦md": 908,
      "til": 909,
      "ĠÃ¡Ã°ur": 910,
      "ki": 911,
      "eita": 912,
      "ĠEf": 913,
      "Ġmilli": 914,
      "ĠaÃ°il": 915,
      "dÃ³tt": 916,
      "Ġmiklu": 917,
      "Ġalmenn": 918,
      "rÃŃk": 919,
      "Ġspurning": 920,
      "gi": 921,
      "nefnd": 922,
      "ulag": 923,
      "ĠstÃ¶Ã°u": 924,
      "Ġaftur": 925,
      "ĠmÃ¦": 926,
      "gj": 927,
      "ĠÃŀÃ¡": 928,
      "Ã¶gu": 929,
      "Ġ3": 930,
      "ger": 931,
      "ĠvarÃ°andi": 932,
      "ĠrÃ¦Ã°u": 933,
      "Ġmund": 934,
      "Ġsn": 935,
      "Ġgetur": 936,
      "oÃ°a": 937,
      "ĠsÃŃÃ°an": 938,
      "efna": 939,
      "auÃ°": 940,
      "Ã¦mi": 941,
      "greiÃ°": 942,
      "Ġkyn": 943,
      "anka": 944,
      "ĠforsÃ¦t": 945,
      "Ġsett": 946,
      "Ġleng": 947,
      "Ġreyna": 948,
      "ÃŃÃ°ar": 949,
      "Ã¶Ã°": 950,
      "lar": 951,
      "Ġvinna": 952,
      "ĠÃ¾a": 953,
      "ĠsagÃ°i": 954,
      "ĠÃŀar": 955,
      "ĠHÃ¦": 956,
      "ĠeÃ°": 957,
      "yld": 958,
      "Ġfinnst": 959,
      "Ġeinf": 960,
      "sp": 961,
      "ĠO": 962,
      "Ġstanda": 963,
      "ĠT": 964,
      "ĠsjÃ³": 965,
      "yk": 966,
      "Ġsvar": 967,
      "ĠsÃ½": 968,
      "eitt": 969,
      "Ġform": 970,
      "Ġsegir": 971,
      "gang": 972,
      "ĠfjÃ¶l": 973,
      "Ġgjald": 974,
      "ĠlÃ¶gum": 975,
      "mun": 976,
      "Ġsama": 977,
      "Ġvit": 978,
      "Ġsum": 979,
      "hald": 980,
      "ĠyrÃ°i": 981,
      "ker": 982,
      "ĠÃ½m": 983,
      "ĠsÃ¡": 984,
      "ÃŃÃ°": 985,
      "Ġveru": 986,
      "ĠupplÃ½s": 987,
      "su": 988,
      "haf": 989,
      "Ġhluta": 990,
      "Ġdr": 991,
      "ĠÃ¶Ã°rum": 992,
      "ĠmÃ¶r": 993,
      "yrir": 994,
      "ot": 995,
      "Ġeiga": 996,
      "Ã°ist": 997,
      "nis": 998,
      "jur": 999,
      "Ã¾jÃ³Ã°": 1000,
      "frÃ¦Ã°": 1001,
      "lÃ¡": 1002,
      "Ġlandinu": 1003,
      "jÃ³nu": 1004,
      "ĠÃ¡fram": 1005,
      "Ãºt": 1006,
      "brig": 1007,
      "ĠÃ¾akka": 1008,
      "ĠÃ¡tt": 1009,
      "Ġsinni": 1010,
      "ĠhvaÃ°a": 1011,
      "ley": 1012,
      "oll": 1013,
      "ĠframkvÃ¦md": 1014,
      "vald": 1015,
      "Ġfj": 1016,
      "ĠsÃŃnum": 1017,
      "Ġmeg": 1018,
      "ĠorÃ°iÃ°": 1019,
      "Ġstofn": 1020,
      "aÃ°ar": 1021,
      "ĠlÃ¡n": 1022,
      "ĠHÃ¦stv": 1023,
      "eik": 1024,
      "Ġmarg": 1025,
      "Ġgild": 1026,
      "rÃ©tt": 1027,
      "ĠÃ¡n": 1028,
      "ĠÃ¾urfum": 1029,
      "Ġauk": 1030,
      "Ġfeng": 1031,
      "riÃ°i": 1032,
      "Ġhluti": 1033,
      "ĠeÃ°l": 1034,
      "Ġfyrr": 1035,
      "Ġsetja": 1036,
      "ndar": 1037,
      "ĠÃ¡Ã°an": 1038,
      "sning": 1039,
      "Ġmilljar": 1040,
      "ĠlÃ¦": 1041,
      "Ġfyrst": 1042,
      "ferÃ°": 1043,
      "Ã¶m": 1044,
      "ĠmiÃ°": 1045,
      "ku": 1046,
      "ĠforsÃ¦tisrÃ¡Ã°herra": 1047,
      "ĠhÃ¡": 1048,
      "ljÃ³": 1049,
      "verandi": 1050,
      "Ã°ir": 1051,
      "Ġhor": 1052,
      "starf": 1053,
      "fest": 1054,
      "Ġhags": 1055,
      "Ġop": 1056,
      "ĠviÃ°skip": 1057,
      "ĠdÃ³m": 1058,
      "Ġbetur": 1059,
      "Ã°ast": 1060,
      "lutning": 1061,
      "Ġlok": 1062,
      "Ġlang": 1063,
      "fÃ¦r": 1064,
      "ĠfjÃ¡rlaganefnd": 1065,
      "ĠNÃº": 1066,
      "heim": 1067,
      "Ġtv": 1068,
      "Ġreg": 1069,
      "Ġhugs": 1070,
      "samning": 1071,
      "fyl": 1072,
      "gum": 1073,
      "ĠBret": 1074,
      "ell": 1075,
      "vel": 1076,
      "lend": 1077,
      "Ġlaga": 1078,
      "ott": 1079,
      "Ġgetum": 1080,
      "brey": 1081,
      "bank": 1082,
      "Ġmig": 1083,
      "Ġmeira": 1084,
      "ĠHÃ©r": 1085,
      "agreiÃ°": 1086,
      "Ġeinstak": 1087,
      "ĠrÃŃkisstjÃ³rnin": 1088,
      "Ġganga": 1089,
      "ĠlÃŃf": 1090,
      "Ãºr": 1091,
      "Ġfyl": 1092,
      "tu": 1093,
      "Ġmark": 1094,
      "ĠbÃ¦Ã°i": 1095,
      "ĠÃ¾inginu": 1096,
      "Ġliggur": 1097,
      "Ã¦ta": 1098,
      "naÃ°ar": 1099,
      "inum": 1100,
      "Ã¡Ã°uney": 1101,
      "Ġhugmynd": 1102,
      "eiri": 1103,
      "Ã¶rÃ°": 1104,
      "Ġ20": 1105,
      "arnir": 1106,
      "ĠtÃ¶": 1107,
      "sm": 1108,
      "Ġeinfald": 1109,
      "Ġsveit": 1110,
      "Ġald": 1111,
      "eyrissjÃ³Ã°": 1112,
      "hvaÃ°": 1113,
      "Ġeigum": 1114,
      "ĠÃ¶llum": 1115,
      "trÃº": 1116,
      "fylk": 1117,
      "isins": 1118,
      "eins": 1119,
      "ĠvarÃ°ar": 1120,
      "laÃ°": 1121,
      "Ġsann": 1122,
      "Ġheilbrig": 1123,
      "Ġrek": 1124,
      "jÃ¶ld": 1125,
      "Ġgrund": 1126,
      "kvÃ¦mt": 1127,
      "ji": 1128,
      "ĠeitthvaÃ°": 1129,
      "ĠfÃ³r": 1130,
      "ĠsamfÃ©lag": 1131,
      "ĠÃ¡byrgÃ°": 1132,
      "sla": 1133,
      "ĠutanrÃŃk": 1134,
      "ĠÃįslandi": 1135,
      "ĠHv": 1136,
      "vert": 1137,
      "Ġsvona": 1138,
      "tek": 1139,
      "eÃ°la": 1140,
      "ĠtÃ¦k": 1141,
      "Ġfrek": 1142,
      "ildar": 1143,
      "ĠmÃ¡lum": 1144,
      "Ġfyrirvar": 1145,
      "ĠMÃ©r": 1146,
      "Ġspyrja": 1147,
      "Ġkv": 1148,
      "Ġminn": 1149,
      "ĠSt": 1150,
      "ĠÃ¾Ã¡tt": 1151,
      "ĠbÃºiÃ°": 1152,
      "kvÃ¦Ã°agreiÃ°": 1153,
      "Ġvand": 1154,
      "Ġfrumvarpinu": 1155,
      "Ġalla": 1156,
      "ĠAÃ°": 1157,
      "arat": 1158,
      "sÃ½": 1159,
      "Ġskuli": 1160,
      "ĠheilbrigÃ°": 1161,
      "far": 1162,
      "ĠÃ¡stÃ¦Ã°": 1163,
      "ĠSamfylk": 1164,
      "viÃ°": 1165,
      "ĠhÃ¡lf": 1166,
      "Ã¶rf": 1167,
      "ĠnauÃ°": 1168,
      "Ġveit": 1169,
      "ĠAlÃ¾ingis": 1170,
      "Ġve": 1171,
      "Ġkosning": 1172,
      "ĠljÃ³st": 1173,
      "semd": 1174,
      "jÃºk": 1175,
      "ĠHann": 1176,
      "ĠFram": 1177,
      "ĠhÃ¡tt": 1178,
      "leika": 1179,
      "angar": 1180,
      "kja": 1181,
      "Ã¦ru": 1182,
      "Ġlands": 1183,
      "ĠÃ¶Ã°ru": 1184,
      "boÃ°": 1185,
      "Ġstendur": 1186,
      "ĠskoÃ°a": 1187,
      "ĠEr": 1188,
      "Ġlagi": 1189,
      "stjÃ³rn": 1190,
      "verk": 1191,
      "ĠsjÃ¡var": 1192,
      "bygg": 1193,
      "Ġleyfi": 1194,
      ".âĢľ": 1195,
      "komulag": 1196,
      "ĠaÃ°eins": 1197,
      "Ġinnan": 1198,
      "vÃ¶ld": 1199,
      "tal": 1200,
      "Ġnefndar": 1201,
      "Ġgegn": 1202,
      "ĠÃ¾ings": 1203,
      "ĠmÃ¶gu": 1204,
      "vÃ¶r": 1205,
      "Ġheyr": 1206,
      "Ġmuni": 1207,
      "Ġhans": 1208,
      "org": 1209,
      "syn": 1210,
      "instri": 1211,
      "ĠfÃ©lag": 1212,
      "ningu": 1213,
      "Ġeinfaldlega": 1214,
      "nast": 1215,
      "Ġleyti": 1216,
      "staÃ°a": 1217,
      "ĠÃ¡kvÃ¦Ã°i": 1218,
      "ĠmaÃ°ur": 1219,
      "ĠHvaÃ°": 1220,
      "Ġsamr": 1221,
      "Ġlangar": 1222,
      "Ġannars": 1223,
      "allaÃ°": 1224,
      "Ġbreyta": 1225,
      "anlega": 1226,
      "ĠHoll": 1227,
      "Ã¶ndum": 1228,
      "finu": 1229,
      "ĠkrÃ¶f": 1230,
      "Ġde": 1231,
      "ĠÃ¡ri": 1232,
      "narmiÃ°": 1233,
      "lind": 1234,
      "Ġfrumvarpi": 1235,
      "bÃºn": 1236,
      "hÃ¦": 1237,
      "Ã³lit": 1238,
      "ĠfrÃº": 1239,
      "vart": 1240,
      "ĠrÃ¶k": 1241,
      "lur": 1242,
      "if": 1243,
      "Ġalls": 1244,
      "Ġspar": 1245,
      "ĠrÃŃkisstjÃ³rnarinnar": 1246,
      "Ġfag": 1247,
      "Ã¦tl": 1248,
      "ĠgreiÃ°a": 1249,
      "anum": 1250,
      "erra": 1251,
      "ĠÃ³sk": 1252,
      "gjÃ¶r": 1253,
      "agjald": 1254,
      "Ġnem": 1255,
      "ĠrÃŃkisins": 1256,
      "ĠOg": 1257,
      "sti": 1258,
      "ĠnauÃ°syn": 1259,
      "mitt": 1260,
      "ĠsammÃ¡la": 1261,
      "ĠÃ¡rum": 1262,
      "ĠHver": 1263,
      "Ġjafnvel": 1264,
      "ĠÃ¾jÃ³Ã°arinnar": 1265,
      "Ġvilja": 1266,
      "Ġhverju": 1267,
      "Ġvi": 1268,
      "ĠÃ¾ingiÃ°": 1269,
      "Ġeinmitt": 1270,
      "Ġallir": 1271,
      "ĠgrÃŃÃ°ar": 1272,
      "legu": 1273,
      "ĠerfiÃ°": 1274,
      "enni": 1275,
      "efn": 1276,
      "ota": 1277,
      "ĠmÃ¡linu": 1278,
      "ĠÃŃslenska": 1279,
      "Ġteng": 1280,
      "bind": 1281,
      "Ġmundi": 1282,
      "Ġverkefni": 1283,
      "ĠfrumvarpiÃ°": 1284,
      "ax": 1285,
      "Ġhaft": 1286,
      "legar": 1287,
      "Ġframt": 1288,
      "Ġerlend": 1289,
      "rÃ¡tt": 1290,
      "ent": 1291,
      "Ġmann": 1292,
      "ĠnÃ¡tt": 1293,
      "ĠÃ¡ra": 1294,
      "ĠÃ¡hrif": 1295,
      "Ġ5": 1296,
      "Ġvo": 1297,
      "ĠÃįslendinga": 1298,
      "Ġnokkur": 1299,
      "ĠfÃ¦": 1300,
      "ĠÃ¾urfa": 1301,
      "Ġsumar": 1302,
      "Ãºtveg": 1303,
      "arÃ°": 1304,
      "ĠmÃ³": 1305,
      "Ġathyg": 1306,
      "Ġeinnig": 1307,
      "rum": 1308,
      "ĠnÃ¡ttÃºr": 1309,
      "kvÃ¦Ã°i": 1310,
      "Ã©lÃ¶g": 1311,
      "Ġgegnum": 1312,
      "aga": 1313,
      "ĠstjÃ³rnarand": 1314,
      "allar": 1315,
      "Ġstarfs": 1316,
      "ĠU": 1317,
      "issu": 1318,
      "Ġaug": 1319,
      "ĠÃ¾ingmanni": 1320,
      "ĠsjÃ¡varÃºtveg": 1321,
      "Ġathuga": 1322,
      "ĠtalaÃ°": 1323,
      "ĠfÃ¦r": 1324,
      "ĠsamkvÃ¦mt": 1325,
      "ĠÃ¶r": 1326,
      "ĠsjÃ¡lfsÃ¶g": 1327,
      "ĠÃ¾urfi": 1328,
      "nni": 1329,
      "mÃ¦": 1330,
      "ĠÃ¡kvÃ¶rÃ°": 1331,
      "Ġ4": 1332,
      "aus": 1333,
      "ĠÃ¾ekk": 1334,
      "Ġbyr": 1335,
      "ĠÃ¾ingsins": 1336,
      "yrirtÃ¦k": 1337,
      "ĠJÃ³": 1338,
      "Ġopin": 1339,
      "mi": 1340,
      "ĠvÃ¦n": 1341,
      "Ġsveitarf": 1342,
      "ĠatvinnulÃŃ": 1343,
      "ĠsjÃ¡lfsÃ¶gÃ°u": 1344,
      "uÃ°um": 1345,
      "Ġvik": 1346,
      "ĠsjÃ³narmiÃ°": 1347,
      "ĠgÃ¦ti": 1348,
      "ĠtÃ³k": 1349,
      "ĠatriÃ°i": 1350,
      "ĠSig": 1351,
      "Ġlandi": 1352,
      "Ġker": 1353,
      "Ġfleiri": 1354,
      "ft": 1355,
      "Ġbak": 1356,
      "ttu": 1357,
      "Ġaldrei": 1358,
      "Ġreyndar": 1359,
      "ĠupplÃ½singar": 1360,
      "ĠÃŀeir": 1361,
      "ĠhaldiÃ°": 1362,
      "lau": 1363,
      "ĠÃ¾jÃ³Ã°arat": 1364,
      "nnan": 1365,
      "jÃ³nustu": 1366,
      "rumvarp": 1367,
      "dÃ³ttir": 1368,
      "ĠsjÃ¡lfstÃ¦Ã°is": 1369,
      "sku": 1370,
      "ĠvÃ¦ru": 1371,
      "ĠFramsÃ³knar": 1372,
      "tillÃ¶g": 1373,
      "ĠhÃ³": 1374,
      "ĠSeÃ°la": 1375,
      "Ġeinu": 1376,
      "ĠstaÃ°iÃ°": 1377,
      "stÃ¦Ã°ur": 1378,
      "Ã¶mu": 1379,
      "Ġnema": 1380,
      "Ã³litÃŃ": 1381,
      "ĠÃ¾arna": 1382,
      "erk": 1383,
      "ĠÃ¾ennan": 1384,
      "Ġumhver": 1385,
      "Ġskyld": 1386,
      "ĠÃ¦tti": 1387,
      "legum": 1388,
      "jÃ³Ã°a": 1389,
      "ĠmilljarÃ°a": 1390,
      "brÃ¶g": 1391,
      "lagaÃ¾ing": 1392,
      "Ġeinstakl": 1393,
      "staÃ°": 1394,
      "Ã°ustu": 1395,
      "mark": 1396,
      "ĠrÃ¡Ã°her": 1397,
      "Ġvald": 1398,
      "rÃ¦Ã°i": 1399,
      "Ã¦tti": 1400,
      "Ġfel": 1401,
      "rÃ½": 1402,
      "Ġvon": 1403,
      "ĠmÃ¡lsins": 1404,
      "Ġkomi": 1405,
      "tÃ¶k": 1406,
      "trygg": 1407,
      "ĠÃŀvÃŃ": 1408,
      "Ġgott": 1409,
      "flutning": 1410,
      "ennar": 1411,
      "ĠlÃ½Ã°": 1412,
      "ĠfulltrÃº": 1413,
      "ĠrÃ¦tt": 1414,
      "sag": 1415,
      "ĠHollend": 1416,
      "Ã¶ngu": 1417,
      "Ġhenni": 1418,
      "Ġumr": 1419,
      "Ġvinn": 1420,
      "gr": 1421,
      "ĠFramsÃ³knarflokk": 1422,
      "Ġumf": 1423,
      "ĠverÃ°um": 1424,
      "slur": 1425,
      "Ġsinn": 1426,
      "ĠstjÃ³rnlagaÃ¾ing": 1427,
      "Ã¶ll": 1428,
      "Ġathugasemd": 1429,
      "egar": 1430,
      "Ġvill": 1431,
      "Ġtryggja": 1432,
      "ĠÃ¾jÃ³Ã°aratkvÃ¦Ã°agreiÃ°": 1433,
      "fis": 1434,
      "ĠAlÃ¾jÃ³Ã°": 1435,
      "ĠNor": 1436,
      "ingin": 1437,
      "Ġfyrsta": 1438,
      "ĠstaÃ°ar": 1439,
      "Ġho": 1440,
      "Ġenda": 1441,
      "ĠsÃŃÃ°ustu": 1442,
      "Ġsamb": 1443,
      "ĠVinstri": 1444,
      "agjaldeyrissjÃ³Ã°": 1445,
      "ĠmiÃ°ur": 1446,
      "Ġopinber": 1447,
      "ĠAlÃ¾jÃ³Ã°agjaldeyrissjÃ³Ã°": 1448,
      "Ġpen": 1449,
      "ĠÃįslendingar": 1450,
      "Ġeigin": 1451,
      "Ġstyr": 1452,
      "ĠstjÃ³rnarskrÃ¡r": 1453,
      "ĠÃ¾Ã½": 1454,
      "ĠhafÃ°i": 1455,
      "leik": 1456,
      "hlut": 1457,
      "ĠgreiÃ°slu": 1458,
      "ĠhÃ¡lfu": 1459,
      "ĠÃ¶llu": 1460,
      "ĠEvrÃ³pusambandiÃ°": 1461,
      "Ġstef": 1462,
      "Ġupphaf": 1463,
      "Ġfrekar": 1464,
      "ĠrÃŃkissjÃ³Ã°": 1465,
      "Ġrann": 1466,
      "vÃŃk": 1467,
      "Ġallra": 1468,
      "Ġhana": 1469,
      "ĠsamÃ¾ykkt": 1470,
      "Ġauka": 1471,
      "semi": 1472,
      "Ġunn": 1473,
      "Ġhel": 1474,
      "stÃ¶Ã°": 1475,
      "Ġbein": 1476,
      "Ġgagnvart": 1477,
      "breyt": 1478,
      "Ġmest": 1479,
      "tÃŃm": 1480,
      "aust": 1481,
      "Ġuppi": 1482,
      "sjÃ³Ã°": 1483,
      "ĠÃįsland": 1484,
      "ĠmÃ³ti": 1485,
      "yni": 1486,
      "ĠtrÃº": 1487,
      "Ã¡Ã°uneyt": 1488,
      "Ġbest": 1489,
      "aker": 1490,
      "yÃ°": 1491,
      "ĠlÃ¡ta": 1492,
      "ĠvÃŃs": 1493,
      "Ġalltaf": 1494,
      "ĠstjÃ³rnmÃ¡l": 1495,
      "ĠrÃ¦Ã°um": 1496,
      "ĠEins": 1497,
      "ĠÃ¡kvÃ¶rÃ°un": 1498,
      "Ġheimild": 1499,
      "ĠmÃŃn": 1500,
      "ĠRey": 1501,
      "jast": 1502,
      "ĠmÃŃnu": 1503,
      "ung": 1504,
      "ma": 1505,
      "Ã³la": 1506,
      "ĠSv": 1507,
      "ĠkjÃ¶r": 1508,
      "Ġvax": 1509,
      "ĠmÃ¡ls": 1510,
      "ĠhÃ¦kk": 1511,
      "Ġskuldbind": 1512,
      "Ġmikla": 1513,
      "ĠfyrirtÃ¦ki": 1514,
      "Ġhonum": 1515,
      "ĠÃ¡her": 1516,
      "enna": 1517,
      "Ġsit": 1518,
      "nnur": 1519,
      "Ġfis": 1520,
      "ĠheilbrigÃ°is": 1521,
      "set": 1522,
      "Ã¶ld": 1523,
      "ĠfjÃ¡rm": 1524,
      "ĠSjÃ¡lfstÃ¦Ã°isflokksins": 1525,
      "Ġmynd": 1526,
      "ĠljÃ³si": 1527,
      "ĠsjÃºk": 1528,
      "ĠÃŀÃ³r": 1529,
      "lÃŃk": 1530,
      "ĠfÃ©": 1531,
      "orm": 1532,
      "dÃ³ttur": 1533,
      "Ġvild": 1534,
      "ĠÃŀegar": 1535,
      "Ġmat": 1536,
      "ĠÃ¡hygg": 1537,
      "ĠtillÃ¶gur": 1538,
      "gerÃ°ir": 1539,
      "ĠlandbÃºn": 1540,
      "skur": 1541,
      "ĠMeÃ°": 1542,
      "Ġhuga": 1543,
      "ĠfengiÃ°": 1544,
      "Ã¦dd": 1545,
      "ĠstjÃ³rnarskrÃ¡nni": 1546,
      "skoÃ°": 1547,
      "Ġkonar": 1548,
      "ĠÃ¡k": 1549,
      "ingur": 1550,
      "Ã¦g": 1551,
      "jÃ¡l": 1552,
      "ĠnÃ¦stu": 1553,
      "ĠgengiÃ°": 1554,
      "ingarinnar": 1555,
      "Ġbanka": 1556,
      "aÃ°il": 1557,
      "ĠsÃ¶mu": 1558,
      "Ã¶p": 1559,
      "Ġbar": 1560,
      "ĠSÃŃ": 1561,
      "ĠalgjÃ¶r": 1562,
      "fer": 1563,
      "Ġma": 1564,
      "Ġmis": 1565,
      "ĠskoÃ°un": 1566,
      "âĢĵ": 1567,
      "tre": 1568,
      "Ã¶gn": 1569,
      "Ġ6": 1570,
      "ĠaÃ°ila": 1571,
      "naÃ°i": 1572,
      "jÃ¶ll": 1573,
      "Ġflu": 1574,
      "framt": 1575,
      "Ġskiptir": 1576,
      "ĠnokkuÃ°": 1577,
      "ĠÃ¾essara": 1578,
      "Ġvan": 1579,
      "Ã¡byrgÃ°": 1580,
      "ĠHerra": 1581,
      "ĠdagskrÃ¡": 1582,
      "ĠÃ¾eirrar": 1583,
      "ĠÃŃslensku": 1584,
      "Ġfari": 1585,
      "Ġfrumvarpsins": 1586,
      "ĠrÃ¡Ã°uney": 1587,
      "ĠkrÃ³": 1588,
      "Ġskatta": 1589,
      "ĠÃ¾jÃ³Ã°in": 1590,
      "Ġnefndarinnar": 1591,
      "ĠÃ¡lit": 1592,
      "Ġsamstarf": 1593,
      "ĠstÃ¦r": 1594,
      "aleg": 1595,
      "ĠrÃŃkiÃ°": 1596,
      "ĠrÃ¡": 1597,
      "ĠmeÃ°al": 1598,
      "Ġefnis": 1599,
      "ĠP": 1600,
      "ĠstÃ³": 1601,
      "Ġgrundv": 1602,
      "ĠsÃŃna": 1603,
      "lÃ¶nd": 1604,
      "ĠliÃ°": 1605,
      "ĠÃ¶nnur": 1606,
      "ĠstuÃ°": 1607,
      "ĠÃ¡riÃ°": 1608,
      "Ġenginn": 1609,
      "Ġefnahag": 1610,
      "emst": 1611,
      "ĠfjÃ¡rfest": 1612,
      "ĠpÃ³litÃŃ": 1613,
      "ĠÃ¾ingmanna": 1614,
      "ĠLands": 1615,
      "tanlega": 1616,
      "Ġhversu": 1617,
      "ĠAf": 1618,
      "Ġmunu": 1619,
      "ĠvirÃ°ulegi": 1620,
      "lt": 1621,
      "ĠafgreiÃ°": 1622,
      "Ġvex": 1623,
      "ĠÃŃtre": 1624,
      "ĠvirÃ°ist": 1625,
      "endum": 1626,
      "Ġvita": 1627,
      "ĠEvrÃ³pusambandinu": 1628,
      "fjÃ¡r": 1629,
      "slum": 1630,
      "ĠMig": 1631,
      "ĠauÃ°lind": 1632,
      "ĠÃ³v": 1633,
      "brÃ¶gÃ°": 1634,
      "alli": 1635,
      "Ġstund": 1636,
      "smÃ¡l": 1637,
      "Ã³ta": 1638,
      "ĠaÃ°stÃ¦Ã°ur": 1639,
      "Ġgerir": 1640,
      "ĠgÃ³Ã°": 1641,
      "Ġhennar": 1642,
      "epp": 1643,
      "ĠHÃºn": 1644,
      "Ġdraga": 1645,
      "ĠsÃ¡tt": 1646,
      "ĠjÃ¡": 1647,
      "Ġtekju": 1648,
      "afa": 1649,
      "Ã¦tur": 1650,
      "ĠmÃ³t": 1651,
      "ĠlÃ¶ggj": 1652,
      "ĠniÃ°urstÃ¶Ã°u": 1653,
      "ĠtillÃ¶gu": 1654,
      "ĠÃ½ms": 1655,
      "Ġ7": 1656,
      "stofn": 1657,
      "ĠiÃ°": 1658,
      "spur": 1659,
      "ĠeÃ°lilegt": 1660,
      "ĠnefndarÃ¡l": 1661,
      "gir": 1662,
      "aflokk": 1663,
      "ĠhefÃ°u": 1664,
      "Ġallar": 1665,
      "ĠÃ¾jÃ³Ã°ar": 1666,
      "run": 1667,
      "bund": 1668,
      "Ġborga": 1669,
      "ĠnÃ½tt": 1670,
      "ĠSeÃ°labank": 1671,
      "ĠutanrÃŃkisrÃ¡Ã°herra": 1672,
      "es": 1673,
      "reg": 1674,
      "ĠSÃŃÃ°an": 1675,
      "ĠhlÃ½": 1676,
      "Ã¶kum": 1677,
      "ĠSvo": 1678,
      "stÃ³l": 1679,
      "Ġlaun": 1680,
      "Ġlit": 1681,
      "Ġvanda": 1682,
      "Ġhagsmun": 1683,
      "ĠgrÃŃÃ°arlega": 1684,
      "ĠD": 1685,
      "Ġbl": 1686,
      "ĠgÃ¦t": 1687,
      "Ġgefa": 1688,
      "ĠmiÃ°aÃ°": 1689,
      "ĠupplÃ½": 1690,
      "uÃ°u": 1691,
      "ĠunniÃ°": 1692,
      "ĠgerÃ°": 1693,
      "sv": 1694,
      "ĠslÃŃkt": 1695,
      "Ã©tta": 1696,
      "indi": 1697,
      "Ã¶gum": 1698,
      "ĠÃģr": 1699,
      "Ġmargir": 1700,
      "ĠÃ¾rÃ³": 1701,
      "Ġbera": 1702,
      "fÃ¶r": 1703,
      "rir": 1704,
      "Ġeinhverjum": 1705,
      "Ġhugsanlega": 1706,
      "Ġmillj": 1707,
      "banka": 1708,
      "hags": 1709,
      "Ġfremst": 1710,
      "Ġminna": 1711,
      "endi": 1712,
      "ykt": 1713,
      "ĠmarkmiÃ°": 1714,
      "Ġengin": 1715,
      "Ġathygli": 1716,
      "ĠumrÃ¦Ã°unni": 1717,
      "Ġsparis": 1718,
      "Ġgreinar": 1719,
      "jan": 1720,
      "Ġefnum": 1721,
      "ĠÃ¡l": 1722,
      "onar": 1723,
      "ĠUm": 1724,
      "Ġgildi": 1725,
      "veld": 1726,
      "Ġ19": 1727,
      "Ġhagsm": 1728,
      "ĠrÃŃkisÃ¡byrgÃ°": 1729,
      "Ġsamninga": 1730,
      "Ġmati": 1731,
      "stof": 1732,
      "Ġlaus": 1733,
      "hlu": 1734,
      "Ġsamkomulag": 1735,
      "ningar": 1736,
      "ĠvÃ¦ntanlega": 1737,
      "Ġfinna": 1738,
      "Ġkalla": 1739,
      "ĠÃ¡tti": 1740,
      "ĠnÃ¡kvÃ¦m": 1741,
      "lli": 1742,
      "ĠstÃ¶rf": 1743,
      "Ġnefndi": 1744,
      "ĠljÃ³s": 1745,
      "Ġfundi": 1746,
      "ĠsamÃ¾ykkja": 1747,
      "ĠgagnrÃ½": 1748,
      "Ġkomin": 1749,
      "Ã¦tlun": 1750,
      "ĠÃ¾Ãºs": 1751,
      "ĠGuÃ°": 1752,
      "ÃŃf": 1753,
      "Ġoft": 1754,
      "Ġhrun": 1755,
      "ĠbrÃ½": 1756,
      "ĠaÃ°ild": 1757,
      "urk": 1758,
      "ĠnÃ³": 1759,
      "Ã¶fn": 1760,
      "komandi": 1761,
      "ĠfÃ¦ra": 1762,
      "ĠÃ¡f": 1763,
      "Ġgeri": 1764,
      "ĠnÃºverandi": 1765,
      "Ġskyn": 1766,
      "ttum": 1767,
      "kki": 1768,
      "hÃ¦Ã°": 1769,
      "naÃ°ur": 1770,
      "orgun": 1771,
      "ĠklÃ¡": 1772,
      "ĠÃŀann": 1773,
      "ĠgrÃ¦n": 1774,
      "ĠÃ¾ingmÃ¶nnum": 1775,
      "Ġvek": 1776,
      "ĠsÃŃnu": 1777,
      "ĠSigur": 1778,
      "Ġfell": 1779,
      "skatt": 1780,
      "skap": 1781,
      "ĠumfjÃ¶ll": 1782,
      "ĠfjÃ¡rlaganefndar": 1783,
      "fund": 1784,
      "ifÃ¦ri": 1785,
      "ĠsÃ©rfrÃ¦Ã°": 1786,
      "ĠhÃºs": 1787,
      "ĠÃ¡hyggjur": 1788,
      "ĠaÃ°ildar": 1789,
      "asta": 1790,
      "Ġsamh": 1791,
      "ĠskÃ½rt": 1792,
      "ĠmÃ¶rg": 1793,
      "irk": 1794,
      "Ġ201": 1795,
      "ĠÃ³h": 1796,
      "Ã¶rfum": 1797,
      "ĠRÃŃk": 1798,
      "stur": 1799,
      "Ġfjalla": 1800,
      "Ġsitt": 1801,
      "ĠsÃŃst": 1802,
      "Ġeink": 1803,
      "Ġalvar": 1804,
      "bÃ³t": 1805,
      "eiÃ°i": 1806,
      "skyld": 1807,
      "ĠMenn": 1808,
      "Ġ10": 1809,
      "Ġskuldir": 1810,
      "ĠkjÃ³": 1811,
      "Ã½ra": 1812,
      "Ġmet": 1813,
      "vik": 1814,
      "Ġsambandi": 1815,
      "Ġnefna": 1816,
      "ĠÃ¾ingflokk": 1817,
      "Ġlangt": 1818,
      "laus": 1819,
      "fell": 1820,
      "ĠÃºti": 1821,
      "ĠsÃŃÃ°ar": 1822,
      "Ġskulda": 1823,
      "Ġbre": 1824,
      "Ġframhald": 1825,
      "tak": 1826,
      "ĠsÃŃn": 1827,
      "Ġliggja": 1828,
      "ĠÃ¾yr": 1829,
      "ĠlÃ¡na": 1830,
      "Ġnefndinni": 1831,
      "eina": 1832,
      "ĠalgjÃ¶rlega": 1833,
      "ĠsÃ©Ã°": 1834,
      "Ġleita": 1835,
      "Ġorku": 1836,
      "sÃ³kn": 1837,
      "ĠtÃ¦kifÃ¦ri": 1838,
      "ĠnauÃ°synlegt": 1839,
      "reyf": 1840,
      "irÃ°ulegur": 1841,
      "Ġfrest": 1842,
      "ĠstjÃ³rnvÃ¶ld": 1843,
      "ĠformaÃ°ur": 1844,
      ".,": 1845,
      "engi": 1846,
      "ĠTil": 1847,
      "Ġands": 1848,
      "ĠÃŀessi": 1849,
      "ĠtÃ¶lu": 1850,
      "ssyni": 1851,
      "Ġskrif": 1852,
      "ĠÃ¾Ã³tt": 1853,
      "ĠhÃ¶fuÃ°": 1854,
      "Ġkomu": 1855,
      "ĠsvÃ¶r": 1856,
      "ĠÃ¾ingi": 1857,
      "Ġtrey": 1858,
      "Ġlandsins": 1859,
      "ĠnÃ¡kvÃ¦mlega": 1860,
      "de": 1861,
      "Ġerf": 1862,
      "ĠsviÃ°": 1863,
      "Ã°asta": 1864,
      "Ġreglu": 1865,
      "ĠsÃ¦k": 1866,
      "Ġmunum": 1867,
      "ismÃ¡l": 1868,
      "ĠnÃ½ta": 1869,
      "issulega": 1870,
      "rÃ¦Ã°ur": 1871,
      "Ġnota": 1872,
      "ĠbÃºa": 1873,
      "Ġ2009": 1874,
      "nuÃ°i": 1875,
      "Ġmiss": 1876,
      "Ġhvers": 1877,
      "Ġmanna": 1878,
      "ĠleiÃ°ir": 1879,
      "ĠfÃ¡i": 1880,
      "ĠbÃŃ": 1881,
      "Ġskulum": 1882,
      "ĠÃŀannig": 1883,
      "Ġneitt": 1884,
      "ĠsÃŃÃ°ur": 1885,
      "Ġreyn": 1886,
      "Ġjafnframt": 1887,
      "Ġrauninni": 1888,
      "ĠÃ¡huga": 1889,
      "Ġvirk": 1890,
      "Ġskal": 1891,
      "ĠgÃ¦r": 1892,
      "ĠgerÃ°i": 1893,
      "dÃ³m": 1894,
      "Ġsm": 1895,
      "ĠÃ¡gÃ¦t": 1896,
      "Ġsegi": 1897,
      "Ġfagna": 1898,
      "Ġhrein": 1899,
      "Ġreik": 1900,
      "ĠframtÃŃÃ°": 1901,
      "Ġvildi": 1902,
      "Ġbreytingum": 1903,
      "repp": 1904,
      "veru": 1905,
      "anefndar": 1906,
      "Ġsker": 1907,
      "Ġannarra": 1908,
      "ĠleiÃ°a": 1909,
      "Ġhugmyndir": 1910,
      "ĠaÃ°rir": 1911,
      "stjÃ³": 1912,
      "Ġheyra": 1913,
      "ĠnÃ¡Ã°": 1914,
      "ĠafstÃ¶Ã°u": 1915,
      "rÃŃ": 1916,
      "Ġgre": 1917,
      "liti": 1918,
      "Ġtelur": 1919,
      "ĠÃ¾ingmanns": 1920,
      "Ġmennt": 1921,
      "ĠÃ¾yrf": 1922,
      "Ġefni": 1923,
      "afrumvarp": 1924,
      "Ġalger": 1925,
      "Ġinni": 1926,
      "Ġmargt": 1927,
      "ĠEvrÃ³pusambandsins": 1928,
      "Ġmiklar": 1929,
      "Ġfyrirvara": 1930,
      "ĠJÃ³n": 1931,
      "ĠsjÃ³Ã°": 1932,
      "ĠaÃ°ra": 1933,
      "ĠlÃ¶gÃ°": 1934,
      "mÃ¶r": 1935,
      "Ġgangi": 1936,
      "unin": 1937,
      "Ġney": 1938,
      "ĠsÃŃÃ°asta": 1939,
      "ĠÃºtg": 1940,
      "Ġupphafi": 1941,
      "ĠhljÃ³": 1942,
      "Ġflest": 1943,
      "sf": 1944,
      "ĠkrÃ¶fu": 1945,
      "ĠÃ¡stÃ¦Ã°a": 1946,
      "bil": 1947,
      "ĠsnÃº": 1948,
      "ĠbiÃ°": 1949,
      "ĠviÃ°komandi": 1950,
      "Ġfly": 1951,
      "heimild": 1952,
      "sÃ³": 1953,
      "Ġatvinnuley": 1954,
      "ĠaÃ°gerÃ°ir": 1955,
      "Ġskila": 1956,
      "ĠsjÃ¡lfstÃ¦Ã°ismenn": 1957,
      "rÃ¡Ã°": 1958,
      "Ġkomast": 1959,
      "Ġeinhvern": 1960,
      "Ġdeil": 1961,
      "Ġstra": 1962,
      "Ġgjaldeyr": 1963,
      "ĠstyÃ°": 1964,
      "Ġlof": 1965,
      "angi": 1966,
      "Ġstu": 1967,
      "ĠvinnubrÃ¶gÃ°": 1968,
      "eiÃ°ar": 1969,
      "ĠÃ¡herslu": 1970,
      "ĠaÃ°ilar": 1971,
      "mar": 1972,
      "Ġsvara": 1973,
      "Ġfundar": 1974,
      "arvald": 1975,
      "ĠvÃ¶r": 1976,
      "Ġlegg": 1977,
      "ĠÃ¡kveÃ°iÃ°": 1978,
      "tÃŃma": 1979,
      "Ġgengur": 1980,
      "Ã¦nd": 1981,
      "Ġfrum": 1982,
      "Ã¶lu": 1983,
      "ĠdÃ¦mi": 1984,
      "Ġtekur": 1985,
      "kost": 1986,
      "Ġatvinn": 1987,
      "Ġbenda": 1988,
      "verÃ°": 1989,
      "Ġsak": 1990,
      "ĠaÃ°rar": 1991,
      "ĠÃ¡kvÃ¦Ã°": 1992,
      "staÃ°an": 1993,
      "Ġtekjur": 1994,
      "ĠbreytingartillÃ¶g": 1995,
      "Ġhaust": 1996,
      "Ġafar": 1997,
      "jir": 1998,
      "Ġeinhvers": 1999,
      "ĠsveitarfÃ©lag": 2000,
      "Ġgl": 2001,
      "Ġhorfa": 2002,
      "rau": 2003,
      "ersÃ³": 2004,
      "varÃ°an": 2005,
      "ssonar": 2006,
      "Ġfyrirspur": 2007,
      "ĠmÃ¶rgum": 2008,
      "Ġla": 2009,
      "Ġformann": 2010,
      "Ġtiltek": 2011,
      "Ġvilji": 2012,
      "ĠÃ¾jÃ³nustu": 2013,
      "Ġskor": 2014,
      "stjÃ³rnar": 2015,
      "Ġ8": 2016,
      "ru": 2017,
      "ĠnÃ¡m": 2018,
      "Ġerfitt": 2019,
      "ĠlandbÃºnaÃ°ar": 2020,
      "Ġhl": 2021,
      "Ġfylgja": 2022,
      "ĠnÃ½ju": 2023,
      "Ġalmennt": 2024,
      "kt": 2025,
      "ingaÃ°": 2026,
      "rÃ¦Ã°um": 2027,
      "ĠÃ¾jÃ³Ã°ina": 2028,
      "ĠboÃ°": 2029,
      "Ġhin": 2030,
      "Ġsvok": 2031,
      "Ġviljum": 2032,
      "ĠhÃ³p": 2033,
      "son": 2034,
      "Ġeftirlit": 2035,
      "ĠrÃ¡Ã°st": 2036,
      "ĠfyrirtÃ¦kja": 2037,
      "kun": 2038,
      "ĠumrÃ¦Ã°a": 2039,
      "jÃ³Ã°i": 2040,
      "rÃ¡Ã°herra": 2041,
      "Ġmiklum": 2042,
      "ĠÃ¾jÃ³Ã°aratkvÃ¦Ã°agreiÃ°slu": 2043,
      "Ġmegi": 2044,
      "tist": 2045,
      "Ġnot": 2046,
      "ĠfjallaÃ°": 2047,
      "raust": 2048,
      "ĠendurskoÃ°": 2049,
      "ĠviÃ°urk": 2050,
      "Ġskap": 2051,
      "Ġalmenning": 2052,
      "reidd": 2053,
      "ĠSjÃ¡lfstÃ¦Ã°isflokkurinn": 2054,
      "ĠlÃŃtiÃ°": 2055,
      "ĠlÃ¦kk": 2056,
      "ĠÃ³lÃŃk": 2057,
      "hug": 2058,
      "ĠbÃ¦ta": 2059,
      "ĠskoÃ°unar": 2060,
      "Ã¡lykt": 2061,
      "ĠVarÃ°": 2062,
      "ĠkveÃ°": 2063,
      "ĠhliÃ°": 2064,
      "Ġraf": 2065,
      "ĠferÃ°": 2066,
      "ĠrÃ¦dd": 2067,
      "Ġskipta": 2068,
      "Ġleggur": 2069,
      "ekk": 2070,
      "Ġveita": 2071,
      "legur": 2072,
      "Ġlist": 2073,
      "legri": 2074,
      "ĠfÃ³lki": 2075,
      "Ġeina": 2076,
      "ĠmikilvÃ¦g": 2077,
      "Ġathugasemdir": 2078,
      "ĠVarÃ°andi": 2079,
      "rÃ¦Ã°is": 2080,
      "fr": 2081,
      "gre": 2082,
      "mÃ¡lum": 2083,
      "Ġbreytt": 2084,
      "ĠrÃŃkissjÃ³Ã°s": 2085,
      "ĠRÃŃkis": 2086,
      "ĠmÃ¡n": 2087,
      "Ġgrundvallar": 2088,
      "ĠnÃ¡ttÃºrlega": 2089,
      "reis": 2090,
      "Ġsamt": 2091,
      "ningi": 2092,
      "ĠsparisjÃ³Ã°": 2093,
      "hrun": 2094,
      "ĠframsÃ³knar": 2095,
      "ĠatkvÃ¦Ã°i": 2096,
      "ĠsjÃ¡lfu": 2097,
      "ĠÃ¾rÃ¡tt": 2098,
      "Ġbyggja": 2099,
      "ĠÃ¡kvarÃ°an": 2100,
      "ersÃ³nu": 2101,
      "Ġnr": 2102,
      "Ġvitum": 2103,
      "Ġil": 2104,
      "Ġengu": 2105,
      "Ġvona": 2106,
      "tirlit": 2107,
      "Ġtaki": 2108,
      "ĠnÃ¦sta": 2109,
      "ĠnÃ¦r": 2110,
      "ĠHins": 2111,
      "jun": 2112,
      "ĠhÃ¦kka": 2113,
      "Ġnein": 2114,
      "indum": 2115,
      "ĠsÃ©um": 2116,
      "Ġstefnu": 2117,
      "amenn": 2118,
      "Ġumsag": 2119,
      "ferÃ°ar": 2120,
      "ĠSamfylkingarinnar": 2121,
      "Ġstrax": 2122,
      "ĠÃĵ": 2123,
      "fall": 2124,
      "ĠstjÃ³rnarliÃ°": 2125,
      "ĠborÃ°": 2126,
      "Ġfall": 2127,
      "ĠhingaÃ°": 2128,
      "ttv": 2129,
      "lÃ¶gum": 2130,
      "ĠaÃ°ger": 2131,
      "Ġsal": 2132,
      "Ġgerist": 2133,
      "ĠrÃŃkisstjÃ³rninni": 2134,
      "Ġhygg": 2135,
      "ĠtÃŃÃ°": 2136,
      "Ġbir": 2137,
      "Ġbreytingu": 2138,
      "ĠÃ¾ingsÃ¡lykt": 2139,
      "ĠÃ¾Ã½Ã°ir": 2140,
      "ningur": 2141,
      "ĠES": 2142,
      "Ġbankanna": 2143,
      "ĠorÃ°um": 2144,
      "ĠundirbÃº": 2145,
      "Ġeignar": 2146,
      "sÃ¶gn": 2147,
      "ĠsjÃ¡varÃºtvegs": 2148,
      "Ġskynsam": 2149,
      "kaÃ°": 2150,
      "Ã©f": 2151,
      "ĠmÃŃnum": 2152,
      "Ġkosningar": 2153,
      "ĠatvinnulÃŃf": 2154,
      "Ġflutning": 2155,
      "Ġgrunn": 2156,
      "ĠBreta": 2157,
      "Ġframmi": 2158,
      "ĠfÃ©lags": 2159,
      "ĠFjÃ¡r": 2160,
      "ĠbÃºin": 2161,
      "Ġalgerlega": 2162,
      "ĠstÃ¶rfum": 2163,
      "skÃ¶p": 2164,
      "Ġfiskv": 2165,
      "ĠsÃ¦kja": 2166,
      "Ġfyrri": 2167,
      "Ġreglur": 2168,
      "ĠÃ¦tlum": 2169,
      "iti": 2170,
      "mann": 2171,
      "ĠEkki": 2172,
      "Ġstarfa": 2173,
      "nefndar": 2174,
      "kerfi": 2175,
      "hluta": 2176,
      "ĠvirÃ°": 2177,
      "skuld": 2178,
      "veit": 2179,
      "arlega": 2180,
      "ĠBlÃ¶nd": 2181,
      "ĠframtÃŃÃ°ar": 2182,
      "000": 2183,
      "mb": 2184,
      "ĠsamrÃ¦mi": 2185,
      "jÃ³n": 2186,
      "ĠsamfÃ©laginu": 2187,
      "Ã¡r": 2188,
      "landi": 2189,
      "Ġvissulega": 2190,
      "ĠgÃ¶gn": 2191,
      "Ġmikill": 2192,
      "Ġraunveru": 2193,
      "ĠiÃ°naÃ°ar": 2194,
      "Ġflyt": 2195,
      "lis": 2196,
      "Ġbent": 2197,
      "Ġheild": 2198,
      "Ã½st": 2199,
      "Ġtelja": 2200,
      "Ġendurreis": 2201,
      "ĠÃ½mis": 2202,
      "smenn": 2203,
      "ĠÃ¡tta": 2204,
      "velli": 2205,
      "ĠpersÃ³nu": 2206,
      "Ġbetri": 2207,
      "vinnu": 2208,
      "Ġmorgun": 2209,
      "ĠhÃ¶fÃ°u": 2210,
      "Ġhvet": 2211,
      "ĠtaliÃ°": 2212,
      "Ġand": 2213,
      "taka": 2214,
      "Ã¾r": 2215,
      "Ġlengi": 2216,
      "ĠpÃ³litÃŃsk": 2217,
      "ref": 2218,
      "Ġdreg": 2219,
      "ĠÃ¾essir": 2220,
      "ĠmeÃ°an": 2221,
      "Ġskapa": 2222,
      "Ġpening": 2223,
      "ĠhÃ©": 2224,
      "reynd": 2225,
      "jÃ³nust": 2226,
      "ĠrÃ¡Ã°herrar": 2227,
      "stand": 2228,
      "Ġhvor": 2229,
      "ĠBlÃ¶ndal": 2230,
      "hÃ³": 2231,
      "Ġemb": 2232,
      "ĠhiÃ°": 2233,
      "ĠinnstÃ¦Ã°": 2234,
      "ĠniÃ°urskur": 2235,
      "arÃ¡Ã°uneyt": 2236,
      "Ġmegin": 2237,
      "ĠÃ¾jÃ³Ã°fÃ©lag": 2238,
      "Ġhvert": 2239,
      "ĠnÃ¡ttÃºru": 2240,
      "Ãºl": 2241,
      "bur": 2242,
      "inda": 2243,
      "ĠÃŃslenskra": 2244,
      "eftirlit": 2245,
      "reik": 2246,
      "ĠAll": 2247,
      "Ġnokkrum": 2248,
      "Ġ9": 2249,
      "ĠnÃ½ja": 2250,
      "ĠÃŃtreka": 2251,
      "Ġsameig": 2252,
      "Ġhlutaf": 2253,
      "Ġyr": 2254,
      "ĠfÃ¶r": 2255,
      "ĠGunnar": 2256,
      "ĠskilyrÃ°i": 2257,
      "afyrirtÃ¦k": 2258,
      "ĠgerÃ°ar": 2259,
      "ĠHvernig": 2260,
      "ĠstaÃ°fest": 2261,
      "ĠundanfÃ¶r": 2262,
      "ap": 2263,
      "ĠljÃº": 2264,
      "Ġheildar": 2265,
      "ĠsveitarfÃ©lÃ¶g": 2266,
      "ĠNorÃ°ur": 2267,
      "ĠÃ¾ingsal": 2268,
      "Ġ15": 2269,
      "ĠHel": 2270,
      "Ġtekin": 2271,
      "Ġreynt": 2272,
      "ĠPÃ©": 2273,
      "ĠÃĸ": 2274,
      "Ġhugsa": 2275,
      "Ġvelta": 2276,
      "nan": 2277,
      "ĠyfirlÃ½s": 2278,
      "ĠÃ¾ingsÃ¡lyktunar": 2279,
      "ĠReykja": 2280,
      "gÃ¶n": 2281,
      "irnar": 2282,
      "ĠâĢ¦": 2283,
      "ĠÃ¾riÃ°": 2284,
      "Ġvak": 2285,
      "skil": 2286,
      "ĠBjar": 2287,
      "Ġfyrrverandi": 2288,
      "Ġstyrkja": 2289,
      "Ġnei": 2290,
      "tanefnd": 2291,
      "ĠESB": 2292,
      "ĠstjÃ³rnarandstÃ¶Ã°": 2293,
      "ĠprÃ³": 2294,
      "ttvangi": 2295,
      "eignar": 2296,
      "aup": 2297,
      "Ġkerfi": 2298,
      "ĠEin": 2299,
      "ĠmÃ¡nuÃ°i": 2300,
      "ĠmÃ¶guleika": 2301,
      "kerfinu": 2302,
      "ĠhÃ©rna": 2303,
      "ĠrÃ¦Ã°ust": 2304,
      "Ġnefndin": 2305,
      "ĠlÃ¦kka": 2306,
      "ĠkvÃ¶ld": 2307,
      "dag": 2308,
      "ĠmilljarÃ°ar": 2309,
      "ĠskÃ½rslu": 2310,
      "Ġeinhverju": 2311,
      "ĠrÃº": 2312,
      "ĠsjÃºkra": 2313,
      "jÃ³ta": 2314,
      "ĠÃ¾jÃ³Ã°inni": 2315,
      "Ã¾jÃ³nustu": 2316,
      "kerfiÃ°": 2317,
      "yll": 2318,
      "Ġallan": 2319,
      "ĠviÃ°skiptanefnd": 2320,
      "ĠÃ¾essarar": 2321,
      "Ġafla": 2322,
      "ĠBretar": 2323,
      "ĠgÃ¦tu": 2324,
      "ĠgrÃ¦nna": 2325,
      "ĠfjÃ¶lmiÃ°": 2326,
      "ĠÃ¦tlar": 2327,
      "Ġbreyting": 2328,
      "Ã¦ttu": 2329,
      "Ġandsvar": 2330,
      "ĠsÃ¶g": 2331,
      "Ġstarfsemi": 2332,
      "dr": 2333,
      "ungis": 2334,
      "kepp": 2335,
      "ĠÃŃbÃº": 2336,
      "Ġskref": 2337,
      "ĠaÃ°st": 2338,
      "ĠstÃ¶ndum": 2339,
      "ĠVirÃ°ulegur": 2340,
      "ĠnÃ¡nast": 2341,
      "ĠkallaÃ°": 2342,
      "ĠÃ¡rang": 2343,
      "Ġeinhverja": 2344,
      "imm": 2345,
      "flu": 2346,
      "Ġval": 2347,
      "ĠtÃŃmi": 2348,
      "ĠstjÃ³rnmÃ¡laflokk": 2349,
      "Ġgam": 2350,
      "ĠFramsÃ³knarflokksins": 2351,
      "skrif": 2352,
      "ĠeÃ°lileg": 2353,
      "ĠstaÃ°a": 2354,
      "Ġhagsmuna": 2355,
      "gri": 2356,
      "ĠÃ¾Ã¦tti": 2357,
      "mÃ¦li": 2358,
      "ĠviÃ°bÃ³t": 2359,
      "rist": 2360,
      "Ġmundu": 2361,
      "ĠHollendinga": 2362,
      "Ġskuldbindingar": 2363,
      "Ġefnahagsl": 2364,
      "hÃºs": 2365,
      "Ġfast": 2366,
      "ĠgrÃ¦": 2367,
      "ĠhlÃ½tur": 2368,
      "kil": 2369,
      "ĠmÃ¡la": 2370,
      "Ġheimilanna": 2371,
      "Ġvinnum": 2372,
      "jaÃ°": 2373,
      "ĠÃŃtar": 2374,
      "efnum": 2375,
      "Ġhlutan": 2376,
      "ĠdÃ¦m": 2377,
      "ĠÃ¦tl": 2378,
      "Ġhlutinn": 2379,
      "leiÃ°slu": 2380,
      "Ġ2008": 2381,
      "Ã¶Ã°um": 2382,
      "uÃ°ur": 2383,
      "200": 2384,
      "agi": 2385,
      "ĠtalaÃ°i": 2386,
      "ĠdÃ³mstÃ³l": 2387,
      "ĠÃ¾Ãºsund": 2388,
      "Ġeinungis": 2389,
      "ĠLandsbank": 2390,
      "ĠlÃ¶ggjaf": 2391,
      "Ġsinna": 2392,
      "ĠSÃº": 2393,
      "ĠÃ¡kvarÃ°anir": 2394,
      "Ġsameigin": 2395,
      "Ġfimm": 2396,
      "Ġtillaga": 2397,
      "Ġflutt": 2398,
      "ĠÃŃslenskum": 2399,
      "Ġsemja": 2400,
      "ĠgreinargerÃ°": 2401,
      "skÃ³la": 2402,
      "Ġkynna": 2403,
      "Ġbyrja": 2404,
      "ĠmÃ¦tti": 2405,
      "ĠyrÃ°u": 2406,
      "ĠutanrÃŃkismÃ¡l": 2407,
      "Ġben": 2408,
      "Ġuppbygg": 2409,
      "ĠnefndarÃ¡lit": 2410,
      "grein": 2411,
      "Ġfalla": 2412,
      "anlegt": 2413,
      "lÃŃtiÃ°": 2414,
      "ĠfjÃ¶ld": 2415,
      "Ġspurningu": 2416,
      "ĠvandamÃ¡l": 2417,
      "breytingar": 2418,
      "bÃ¦r": 2419,
      "Ġtraust": 2420,
      "ĠmÃ¡lflutning": 2421,
      "Ġkomist": 2422,
      "ĠaugljÃ³": 2423,
      "byggÃ°": 2424,
      "Ã¦ra": 2425,
      "Ġleik": 2426,
      "Ġtrygging": 2427,
      "ĠgÃ¦ta": 2428,
      "ĠÃ¾yrfti": 2429,
      "ĠrÃŃki": 2430,
      "Ġbeita": 2431,
      "sÃ½slu": 2432,
      "Ġsitja": 2433,
      "Ġfalli": 2434,
      "Ġtilvik": 2435,
      "Ġun": 2436,
      "Ġefla": 2437,
      "Ġstandi": 2438,
      "ĠlÃŃfeyrissjÃ³Ã°": 2439,
      "ĠframkvÃ¦mdarvald": 2440,
      "ĠsannfÃ¦r": 2441,
      "Ġnef": 2442,
      "ĠfjÃ¶lskyld": 2443,
      "Ġsannarlega": 2444,
      "ĠnÃ©": 2445,
      "ĠAuÃ°": 2446,
      "Ġbeint": 2447,
      "Ġvexti": 2448,
      "skipti": 2449,
      "Ġhlutverk": 2450,
      "ĠinnstÃ¦Ã°u": 2451,
      "Ġmerk": 2452,
      "Ġhvar": 2453,
      "frv": 2454,
      "sÃ¦": 2455,
      "issa": 2456,
      "rri": 2457,
      "ĠÃ¡byrg": 2458,
      "ĠsamrÃ¡Ã°": 2459,
      "Ġfyrirspurn": 2460,
      "Ġlengur": 2461,
      "oÃ°i": 2462,
      "mik": 2463,
      "ĠÃ³ska": 2464,
      "ĠviÃ°skipt": 2465,
      "ĠaÃ°al": 2466,
      "Ã¡n": 2467,
      "Ġvettvangi": 2468,
      "ĠmÃ¡lefna": 2469,
      "valda": 2470,
      "Ġilla": 2471,
      "lenda": 2472,
      "ember": 2473,
      "Ġforgang": 2474,
      "ĠÃ¡nÃ¦g": 2475,
      "ĠafgreiÃ°slu": 2476,
      "Ġeinka": 2477,
      "ĠniÃ°urstaÃ°a": 2478,
      "Ġbjar": 2479,
      "ĠmÃ¦li": 2480,
      "ĠsviÃ°i": 2481,
      "ĠvÃŃsa": 2482,
      "leiÃ°is": 2483,
      "ÃŃu": 2484,
      "ĠafleiÃ°": 2485,
      "fisins": 2486,
      "irnir": 2487,
      "ĠnÃ¡l": 2488,
      "ĠstaÃ°reynd": 2489,
      "bor": 2490,
      "stÃ¶k": 2491,
      "Ġgerast": 2492,
      "ĠÃ¡kveÃ°in": 2493,
      "ĠgÃ³Ã°a": 2494,
      "ĠkrÃ³n": 2495,
      "ĠrÃ¦Ã°ustÃ³l": 2496,
      "vÃ¦Ã°": 2497,
      "ĠkjÃ¶l": 2498,
      "Ġtveim": 2499,
      "ĠtvÃ¶": 2500,
      "ĠfjÃ¡rmagn": 2501,
      "Ġeing": 2502,
      "ĠtÃºl": 2503,
      "ĠÃ¡rinu": 2504,
      "Ġeinhverjar": 2505,
      "Ġskipti": 2506,
      "ĠrÃ¡Ã°uneyt": 2507,
      "Ġvega": 2508,
      "riÃ°um": 2509,
      "kum": 2510,
      "ĠkjÃ³s": 2511,
      "ĠhÃ¶nd": 2512,
      "ĠsÃ½na": 2513,
      "Ġverulega": 2514,
      "siÃ°": 2515,
      "ĠljÃºka": 2516,
      "ĠlagÃ°i": 2517,
      "ĠlÃ¶gfrÃ¦Ã°": 2518,
      "Ġkynnt": 2519,
      "Ġumhverfis": 2520,
      "hÃ³p": 2521,
      "ĠAuÃ°vitaÃ°": 2522,
      "star": 2523,
      "ĠkrÃ¶fur": 2524,
      "Ġbreg": 2525,
      "Ġfylg": 2526,
      "tals": 2527,
      "Ġne": 2528,
      "ĠsÃŃnar": 2529,
      "Ġflytja": 2530,
      "Ġofan": 2531,
      "ĠÃ¡rat": 2532,
      "Ġlyk": 2533,
      "ĠÃŀau": 2534,
      "Ġrekst": 2535,
      "Ġgrundvelli": 2536,
      "aÃ°ila": 2537,
      "Ġey": 2538,
      "sdÃ³ttir": 2539,
      "Ġleit": 2540,
      "ĠlÃŃfeyr": 2541,
      "hÃ¦kk": 2542,
      "ĠsmÃ¡": 2543,
      "rann": 2544,
      "ĠundanfÃ¶rnum": 2545,
      "Ġ2007": 2546,
      "Ġsamhengi": 2547,
      "kjÃ¶r": 2548,
      "ugi": 2549,
      "mÃ¶nnum": 2550,
      "ĠÃ¾Ã¶rf": 2551,
      "ĠfrÃ©tt": 2552,
      "rifa": 2553,
      "ĠmeÃ°ferÃ°": 2554,
      "ĠfjÃ¡rlagafrumvarp": 2555,
      "Ġleysa": 2556,
      "ĠeingÃ¶ngu": 2557,
      "ĠReykjavÃŃk": 2558,
      "Ġsamkepp": 2559,
      "ĠalÃ¾ing": 2560,
      "ingunni": 2561,
      "samt": 2562,
      "nÃ½": 2563,
      "ĠstjÃ³rnarskrÃ¡na": 2564,
      "vÃ¶rp": 2565,
      "Ġhagsmuni": 2566,
      "ĠlÃŃta": 2567,
      "ĠIn": 2568,
      "ĠalÃ¾ingis": 2569,
      "slan": 2570,
      "ĠSk": 2571,
      "Ġkraf": 2572,
      "Ġra": 2573,
      "maÃ°ur": 2574,
      "ĠÃ¡rs": 2575,
      "Ġumhverf": 2576,
      "sÃ¡tt": 2577,
      "sir": 2578,
      "Ġverja": 2579,
      "Ġfullyr": 2580,
      "amanna": 2581,
      "Ġeinstaklinga": 2582,
      "amark": 2583,
      "alÃ¶g": 2584,
      "ĠmÃŃna": 2585,
      "lukk": 2586,
      "Ã¾jÃ³nust": 2587,
      "ĠsÃ¶gu": 2588,
      "legra": 2589,
      "ĠÃŀÃ¦r": 2590,
      "ĠAt": 2591,
      "ĠÃ¦tlaÃ°": 2592,
      "raÃ°": 2593,
      "ĠfjÃ³r": 2594,
      "herjar": 2595,
      "Ġspurningar": 2596,
      "ĠÃģrna": 2597,
      "lÃ¡n": 2598,
      "amm": 2599,
      "ĠÃ¡grein": 2600,
      "ĠÃ¶rug": 2601,
      "ĠÃ³brey": 2602,
      "auka": 2603,
      "ĠMar": 2604,
      "ĠgjaldÃ¾r": 2605,
      "tÃ¶ku": 2606,
      "gv": 2607,
      "sdÃ³ttur": 2608,
      "ĠfjÃ¡rmÃ¡lafyrirtÃ¦k": 2609,
      "ĠgrÃŃ": 2610,
      "Ġ12": 2611,
      "ĠHollendingar": 2612,
      "ĠPÃ©tur": 2613,
      "ĠÃ¾yk": 2614,
      "ĠfÃ¡um": 2615,
      "ĠaÃ°gang": 2616,
      "greiÃ°slu": 2617,
      "Ã¡Ã°uneytiÃ°": 2618,
      "endir": 2619,
      "ĠfulltrÃºar": 2620,
      "stjÃ³ra": 2621,
      "Ġhinu": 2622,
      "ÃŃtiÃ°": 2623,
      "Ġfyrirkomulag": 2624,
      "jÃ¶rÃ°um": 2625,
      "Ġathyglis": 2626,
      "ĠstyÃ°ja": 2627,
      "ĠmÃ¡nuÃ°um": 2628,
      "Ġheimila": 2629,
      "ĠSamfylkingin": 2630,
      "ustu": 2631,
      "virk": 2632,
      "Ġvinnumark": 2633,
      "Ġlesa": 2634,
      "ĠumrÃ¦Ã°una": 2635,
      "Ġfrekari": 2636,
      "kur": 2637,
      "ĠrÃŃkiss": 2638,
      "ĠfÃ³lks": 2639,
      "skaplega": 2640,
      "ĠfÃ¦ri": 2641,
      "ĠdÃ¶gum": 2642,
      "ĠnÃ¦g": 2643,
      "ĠÃ½msum": 2644,
      "Ġkringum": 2645,
      "ĠdÃ¡l": 2646,
      "Ã¡Ã¦tlun": 2647,
      "Ġtveimur": 2648,
      "enÃ¦r": 2649,
      "nÃ¡": 2650,
      "ĠstjÃ³rnarflokk": 2651,
      "Ġ18": 2652,
      "ĠviÃ°skiptarÃ¡Ã°herra": 2653,
      "ĠmenntamÃ¡l": 2654,
      "efnu": 2655,
      "reikning": 2656,
      "yf": 2657,
      "Ġallsherjar": 2658,
      "Ġeiginlega": 2659,
      "ĠatkvÃ¦Ã°agreiÃ°": 2660,
      "Ġ100": 2661,
      "ĠkostnaÃ°": 2662,
      "ĠkjÃ¶lfar": 2663,
      "ĠrÃ¡Ã°a": 2664,
      "Ġveitt": 2665,
      "Ã³ber": 2666,
      "Ġhinn": 2667,
      "Ġhendi": 2668,
      "ĠlÃ¡g": 2669,
      "Ġflokka": 2670,
      "ĠupphÃ¦Ã°": 2671,
      "smÃ¡larÃ¡Ã°herra": 2672,
      "Ġhra": 2673,
      "Ġskattanefnd": 2674,
      "ĠferÃ°a": 2675,
      "att": 2676,
      "gleika": 2677,
      "ĠÃ¡lver": 2678,
      "ĠmÃ¶nnum": 2679,
      "umÃ¡l": 2680,
      "ĠsÃŃÃ°ast": 2681,
      "egi": 2682,
      "alag": 2683,
      "ĠframboÃ°": 2684,
      "rÃ¡Ã°a": 2685,
      "gjandi": 2686,
      "Ġmynda": 2687,
      "Ġev": 2688,
      "Ġtillit": 2689,
      "ktÃ³ber": 2690,
      "Ġkrepp": 2691,
      "Ġlausn": 2692,
      "stig": 2693,
      "ol": 2694,
      "Ġdrei": 2695,
      "komu": 2696,
      "Ġbankaker": 2697,
      "aÃ°s": 2698,
      "Ġviss": 2699,
      "ill": 2700,
      "ĠmilljÃ³": 2701,
      "Ġskyldi": 2702,
      "ĠvÃŃsaÃ°": 2703,
      "kyn": 2704,
      "ĠoktÃ³ber": 2705,
      "Ġreynd": 2706,
      "Ġmismun": 2707,
      "ĠverÃ°trygg": 2708,
      "fl": 2709,
      "Ġkjar": 2710,
      "ĠÃ¦ttu": 2711,
      "ĠlÃ½Ã°rÃ¦Ã°is": 2712,
      "Ġhvorki": 2713,
      "ĠumsÃ¶gn": 2714,
      "istÃ¶k": 2715,
      "Ġheima": 2716,
      "Ġsner": 2717,
      "Ġtald": 2718,
      "ĠrÃŃkisfjÃ¡r": 2719,
      "ĠhjÃ¡l": 2720,
      "ĠbÃ¶n": 2721,
      "Ġklukk": 2722,
      "Ġvekja": 2723,
      "ĠÃŀÃ³": 2724,
      "ĠhefÃ°um": 2725,
      "Ġstof": 2726,
      "ugt": 2727,
      "ingarsjÃ³Ã°": 2728,
      "ĠlÃ½st": 2729,
      "ĠtÃ¦ki": 2730,
      "Ġnor": 2731,
      "Ġgat": 2732,
      "Ġhlusta": 2733,
      "ĠvÃŃÃ°": 2734,
      "ĠtilbÃº": 2735,
      "ĠsÃ©reignar": 2736,
      "ĠfjÃ¡rhags": 2737,
      "Ġbetra": 2738,
      "Ġundanfar": 2739,
      "ĠsveitarfÃ©laga": 2740,
      "mund": 2741,
      "ĠumrÃ¦Ã°um": 2742,
      "Ġstofnun": 2743,
      "ĠrannsÃ³knar": 2744,
      "Ã³Ã°": 2745,
      "hvert": 2746,
      "ĠlÃ¶ggjÃ¶f": 2747,
      "ĠumfjÃ¶llun": 2748,
      "ĠnÃ¡nar": 2749,
      "Ġbaka": 2750,
      "ĠNefnd": 2751,
      "Ġmgr": 2752,
      "Ġtilefni": 2753,
      "dÃ¦mi": 2754,
      "tingu": 2755,
      "Ġherra": 2756,
      "fyrirtÃ¦k": 2757,
      "Ġopinbera": 2758,
      "Ġsveitar": 2759,
      "ĠsvÃ¦Ã°": 2760,
      "ĠKrist": 2761,
      "ĠlitiÃ°": 2762,
      "Ġeigna": 2763,
      "Ġeitthvert": 2764,
      "ĠFjÃ¡rmÃ¡la": 2765,
      "sal": 2766,
      "ĠupplÃ½st": 2767,
      "ES": 2768,
      "vÃŃs": 2769,
      "ĠFyrir": 2770,
      "Ġhverjum": 2771,
      "Ġeignir": 2772,
      "mÃ¡liÃ°": 2773,
      "eiÃ°a": 2774,
      "jarnan": 2775,
      "ĠNei": 2776,
      "ĠstjÃ³rnarandstÃ¶Ã°u": 2777,
      "Ġannan": 2778,
      "Ġjaf": 2779,
      "Ġvaxta": 2780,
      "Ġskipulag": 2781,
      "spar": 2782,
      "ĠnefndarÃ¡liti": 2783,
      "astofn": 2784,
      "Ġ30": 2785,
      "ĠsnÃ½st": 2786,
      "Ġtilskip": 2787,
      "Ġlokum": 2788,
      "Ġkaf": 2789,
      "ĠdÃ½r": 2790,
      "Ġheimilin": 2791,
      "ĠAlÃ¾jÃ³Ã°agjaldeyrissjÃ³Ã°sins": 2792,
      "ĠhÃ¶ndum": 2793,
      "Ġsterk": 2794,
      "aÃ°ir": 2795,
      "legan": 2796,
      "ĠFjÃ¡rmÃ¡laeftirlit": 2797,
      "Ġhendur": 2798,
      "ĠstÃ¶Ã°": 2799,
      "Ġvelti": 2800,
      "Ġdaga": 2801,
      "Ġgerum": 2802,
      "ĠÃ³Ã¾": 2803,
      "ĠalÃ¾jÃ³Ã°": 2804,
      "ĠBjÃ¶r": 2805,
      "eign": 2806,
      "ĠSeÃ°labankans": 2807,
      "bend": 2808,
      "ĠEES": 2809,
      "Ã¶nn": 2810,
      "ĠhÃ¦tta": 2811,
      "Ġ199": 2812,
      "hÃ¶f": 2813,
      "aÃ°lÃ¶g": 2814,
      "ĠrÃ©ttar": 2815,
      "ĠÃ¦tli": 2816,
      "ĠfulltrÃºa": 2817,
      "Ġman": 2818,
      "urnar": 2819,
      "ĠfyrirtÃ¦kjum": 2820,
      "glega": 2821,
      "Ġverkum": 2822,
      "Ġviti": 2823,
      "ĠÃ¶rygg": 2824,
      "ĠslÃŃkum": 2825,
      "Ġnokkurn": 2826,
      "drÃ¡tt": 2827,
      "ĠÃŀing": 2828,
      "ĠÃºtgjÃ¶ld": 2829,
      "ĠdÃ¡lÃŃtiÃ°": 2830,
      "blaÃ°": 2831,
      "ĠsjÃ¡lfstÃ¦Ã°": 2832,
      "janna": 2833,
      "Ġskera": 2834,
      "Ġgjaldeyris": 2835,
      "gun": 2836,
      "Ġhinum": 2837,
      "Ġveginn": 2838,
      "Ġgjarnan": 2839,
      "Ġstr": 2840,
      "Ġgerst": 2841,
      "ĠumfjÃ¶llunar": 2842,
      "Ġhlutans": 2843,
      "ĠbregÃ°ast": 2844,
      "laust": 2845,
      "leikum": 2846,
      "Ġgley": 2847,
      "Ġeinum": 2848,
      "Ġsamningum": 2849,
      "Ġberi": 2850,
      "Ġlengri": 2851,
      "ĠupplÃ½singum": 2852,
      "Ġvorum": 2853,
      "ĠviÃ°skipta": 2854,
      "ĠÃ¾ingsÃ¡lyktunartillÃ¶g": 2855,
      "ĠbÃºinn": 2856,
      "ĠverÃ°b": 2857,
      "ĠviÃ°bÃ³tar": 2858,
      "ĠSigurÃ°": 2859,
      "Ġhreyf": 2860,
      "ĠsamstÃ¶Ã°u": 2861,
      "ĠsamgÃ¶n": 2862,
      "ĠâĢĵ": 2863,
      "ĠJÃº": 2864,
      "Ġgreidd": 2865,
      "auÃ°lind": 2866,
      "Ġtelji": 2867,
      "Ġhaga": 2868,
      "nist": 2869,
      "etur": 2870,
      "ĠÃ¦ttum": 2871,
      "ĠJafn": 2872,
      "ĠvelferÃ°ar": 2873,
      "alega": 2874,
      "ĠjÃ¡kvÃ¦Ã°": 2875,
      "ĠheilbrigÃ°isrÃ¡Ã°herra": 2876,
      "ĠÃ¡Ã¦tl": 2877,
      "liÃ°a": 2878,
      "ĠgefiÃ°": 2879,
      "gjÃ¶f": 2880,
      "ett": 2881,
      "Ġkominn": 2882,
      "ĠGr": 2883,
      "ĠlÃ¡tiÃ°": 2884,
      "ĠlÃ½sa": 2885,
      "ĠÃ¡liti": 2886,
      "Ġborg": 2887,
      "Ġkl": 2888,
      "Ġfyrstu": 2889,
      "ĠlandiÃ°": 2890,
      "par": 2891,
      "ĠseÃ°la": 2892,
      "emm": 2893,
      "ĠhÃºsn": 2894,
      "ĠframsÃ³knarmenn": 2895,
      "Ġnefnt": 2896,
      "amÃ³t": 2897,
      "ĠEinn": 2898,
      "ĠGÃŃ": 2899,
      "ĠsjÃºkl": 2900,
      "svÃ¦Ã°": 2901,
      "Ġ25": 2902,
      "ennt": 2903,
      "ĠrÃ¦Ã°ur": 2904,
      "ĠorÃ°a": 2905,
      "ĠsjÃ¡um": 2906,
      "inguna": 2907,
      "ĠstjÃ³rnvalda": 2908,
      "ess": 2909,
      "ĠsvolÃŃtiÃ°": 2910,
      "Ã¾ingi": 2911,
      "ĠlÃ¶gin": 2912,
      "ĠtÃŃmann": 2913,
      "ĠfriÃ°": 2914,
      "slunni": 2915,
      "ĠÃ¾jÃ³Ã°ir": 2916,
      "ĠlÃŃtil": 2917,
      "Ġ2010": 2918,
      "Ġkosninga": 2919,
      "vinn": 2920,
      "ĠfjÃ¡rlaga": 2921,
      "ĠklÃ¡ra": 2922,
      "geng": 2923,
      "skÃ³l": 2924,
      "urÃ°u": 2925,
      "stjÃ³rnin": 2926,
      "ĠÃ¾riÃ°ja": 2927,
      "Ġvei": 2928,
      "ĠbÃ¡": 2929,
      "veggja": 2930,
      "Ġsamnings": 2931,
      "ĠstuÃ°ning": 2932,
      "ĠafgreiÃ°a": 2933,
      "ĠÃ¾rÃ³un": 2934,
      "hor": 2935,
      "ĠsÃ¦ti": 2936,
      "Ã¶ngum": 2937,
      "ĠGÃŃsla": 2938,
      "Ġmargar": 2939,
      "ĠtÃ¶kum": 2940,
      "pt": 2941,
      "ĠvÃ¦": 2942,
      "Ġtveggja": 2943,
      "orku": 2944,
      "ĠsjÃ¡lfstÃ¦Ã°ismanna": 2945,
      "ĠsamstaÃ°a": 2946,
      "kunum": 2947,
      "finn": 2948,
      "fÃ¦ri": 2949,
      "ssk": 2950,
      "sÃ¦tt": 2951,
      "Ġveik": 2952,
      "ĠÃ¡Ã¦tlun": 2953,
      "arÃŃk": 2954,
      "Ġfjar": 2955,
      "alt": 2956,
      "ĠÃºtsk": 2957,
      "Ġforsendur": 2958,
      "ĠverÃ°m": 2959,
      "Ġstyrk": 2960,
      "ĠfÃ©kk": 2961,
      "Ġbla": 2962,
      "Ġreynslu": 2963,
      "ĠÃ¾Ã¡verandi": 2964,
      "sember": 2965,
      "ĠtillÃ¶gum": 2966,
      "Ġfrumvarps": 2967,
      "Ġendurreisn": 2968,
      "fu": 2969,
      "Ġforsendum": 2970,
      "ĠlandsbyggÃ°": 2971,
      "ĠbÃŃÃ°a": 2972,
      "ĠaÃ°ferÃ°": 2973,
      "leitt": 2974,
      "ĠÃ¡stÃ¦Ã°u": 2975,
      "ĠBjarna": 2976,
      "ĠprÃ³f": 2977,
      "Ġbeina": 2978,
      "Ġstig": 2979,
      "vÃ¶rum": 2980,
      "Ġdesember": 2981,
      "ĠembÃ¦tt": 2982,
      "Ġlengra": 2983,
      "ĠmÃ¡lin": 2984,
      "ĠlokiÃ°": 2985,
      "ĠStjÃ³r": 2986,
      "efnilega": 2987,
      "Ġnefnilega": 2988,
      "ĠkÃ¦mi": 2989,
      "vÃŃsi": 2990,
      "ĠÃ¡samt": 2991,
      "Ġteljum": 2992,
      "Ġuppf": 2993,
      "Ġstarfi": 2994,
      "ĠÃ¡byrgÃ°ar": 2995,
      "Ġhratt": 2996,
      "dÃ¦m": 2997,
      "ĠhvenÃ¦r": 2998,
      "ugrein": 2999,
      "Ã¶ldum": 3000,
      "Ġstundum": 3001,
      "ĠslÃŃkar": 3002,
      "Ġsvip": 3003,
      "nur": 3004,
      "Ġrang": 3005,
      "Ġstefna": 3006,
      "ĠsÃ½nt": 3007,
      "Ġbenti": 3008,
      "enju": 3009,
      "Ġflokks": 3010,
      "ĠTrygg": 3011,
      "ĠNefndin": 3012,
      "gild": 3013,
      "Ġumtals": 3014,
      "Ġumfram": 3015,
      "ĠgetaÃ°": 3016,
      "ĠveÃ°": 3017,
      "Ġbeitt": 3018,
      "Ġhverjir": 3019,
      "Ġvinstri": 3020,
      "ĠjÃºn": 3021,
      "ĠtÃŃmabund": 3022,
      "Ġumsagnar": 3023,
      "ĠAn": 3024,
      "Ġendursk": 3025,
      "ĠgrÃŃpa": 3026,
      "ĠflÃ³k": 3027,
      "ĠfjÃ¡rmun": 3028,
      "ĠmÃ¦ta": 3029,
      "ĠÃ³vissu": 3030,
      "kr": 3031,
      "Ġsel": 3032,
      "ĠhÃ¦kkun": 3033,
      "bÃ¦tur": 3034,
      "ĠVest": 3035,
      "jal": 3036,
      "Ġ50": 3037,
      "verki": 3038,
      "auk": 3039,
      "ĠÃŀarna": 3040,
      "Ġtakast": 3041,
      "ĠstÃ³ra": 3042,
      "rra": 3043,
      "Ġtaldi": 3044,
      "agerÃ°": 3045,
      "ĠÃ¾urft": 3046,
      "ĠVeg": 3047,
      "ĠfljÃ³": 3048,
      "Ġrekstri": 3049,
      "Ġvonandi": 3050,
      "Ġmestu": 3051,
      "ĠsnÃºa": 3052,
      "ĠbÃºn": 3053,
      "jÃ³l": 3054,
      "Ġtilgang": 3055,
      "Ġbankahrun": 3056,
      "Ġgengi": 3057,
      "arÃ¡Ã°": 3058,
      "ĠbjÃ³Ã°a": 3059,
      "ĠendurskoÃ°un": 3060,
      "ĠsjÃ¡lfsag": 3061,
      "ĠfjÃ¡rmÃ¡larÃ¡Ã°uneyt": 3062,
      "Ġskilja": 3063,
      "ĠspurÃ°i": 3064,
      "Ġrekstrar": 3065,
      "Ġfal": 3066,
      "ĠbÃ½": 3067,
      "agna": 3068,
      "Ġhorf": 3069,
      "Ġmeta": 3070,
      "Ãºst": 3071,
      "Ġvikum": 3072,
      "ĠhÃ¦ttu": 3073,
      "Ġ13": 3074,
      "ĠnÃ¦st": 3075,
      "ĠfrumvÃ¶rp": 3076,
      "ĠaÃ°gerÃ°a": 3077,
      "ĠrÃºm": 3078,
      "ĠsjÃºkraskrÃ¡": 3079,
      "ĠvarÃ°a": 3080,
      "ĠÃ³s": 3081,
      "vÃ¶ll": 3082,
      "Ġfelst": 3083,
      "Ġskrifa": 3084,
      "Ġhlutfall": 3085,
      "ĠskoÃ°anir": 3086,
      "anleg": 3087,
      "ĠtÃ¦": 3088,
      "leggja": 3089,
      "Ġhn": 3090,
      "Ġskattlag": 3091,
      "ĠskattahÃ¦kk": 3092,
      "ĠverÃ°bÃ³l": 3093,
      "ĠgerÃ°u": 3094,
      "ÃŃma": 3095,
      "ĠÃ¡kveÃ°num": 3096,
      "ĠgÃ¦tum": 3097,
      "ĠkveÃ°iÃ°": 3098,
      "Ġmitt": 3099,
      "ĠÃ¶rugglega": 3100,
      "mat": 3101,
      "raun": 3102,
      "Ġafskaplega": 3103,
      "ĠrÃŃkisstjÃ³rnarflokk": 3104,
      "uss": 3105,
      "Ġskamm": 3106,
      "ĠslÃŃka": 3107,
      "ĠskoÃ°aÃ°": 3108,
      "ĠĠ": 3109,
      "Ġlei": 3110,
      "%.": 3111,
      "gjald": 3112,
      "lir": 3113,
      "orÃ°": 3114,
      "ĠFyr": 3115,
      "Ġstutt": 3116,
      "jandi": 3117,
      "Ġmikinn": 3118,
      "Ġloka": 3119,
      "Ġgilda": 3120,
      "bands": 3121,
      "Ã¦rum": 3122,
      "ĠÃºtfÃ¦r": 3123,
      "ĠFramsÃ³knarflokkurinn": 3124,
      "ĠÃ¾ykir": 3125,
      "ĠmÃ³ts": 3126,
      "atriÃ°i": 3127,
      "ĠfÃ¶rum": 3128,
      "eÃ°ferÃ°": 3129,
      "ĠlagÃ°ar": 3130,
      "ĠÃŃslenskt": 3131,
      "ĠÃ¡gÃ¦tt": 3132,
      "Ġraunar": 3133,
      "rÃ¦": 3134,
      "ĠbÃ¦nd": 3135,
      "Ġtekist": 3136,
      "ĠfjÃ¡rfestingar": 3137,
      "deild": 3138,
      "ĠjÃºnÃŃ": 3139,
      "Ġbresk": 3140,
      "ĠfundarstjÃ³rn": 3141,
      "vember": 3142,
      "viÃ°rÃ¦Ã°ur": 3143,
      "Ġhelst": 3144,
      "Ġgreina": 3145,
      "sh": 3146,
      "Ġeinasta": 3147,
      "Ġsamstarfi": 3148,
      "Ġatvinnuleysi": 3149,
      "ĠÃ¡hÃ¦ttu": 3150,
      "Ġheimildir": 3151,
      "Ã¡na": 3152,
      "Ġefa": 3153,
      "smaÃ°ur": 3154,
      "ĠsjÃ¡lfur": 3155,
      "ok": 3156,
      "oÃ°ar": 3157,
      "Ġmyn": 3158,
      "ĠSuÃ°ur": 3159,
      "Ġviku": 3160,
      "ussel": 3161,
      "ĠÃ¾or": 3162,
      "ĠÃ¡bend": 3163,
      "vÃ¶x": 3164,
      "Ġfann": 3165,
      "Ġbund": 3166,
      "Ġsamein": 3167,
      "ĠslÃ¦m": 3168,
      "ddi": 3169,
      "ĠBrussel": 3170,
      "Ġmisskil": 3171,
      "ĠÃ¾jÃ³Ã°fÃ©laginu": 3172,
      "Ġkomum": 3173,
      "Ã¾jÃ³Ã°a": 3174,
      "Ġfullkom": 3175,
      "ustum": 3176,
      "ĠkostnaÃ°ur": 3177,
      "hÃ¦f": 3178,
      "Ġtengslum": 3179,
      "ĠnÃ³vember": 3180,
      "ĠatvinnulÃŃfsins": 3181,
      "Ġrak": 3182,
      "ĠstaÃ°an": 3183,
      "Ġsamningur": 3184,
      "Ġsamninganefnd": 3185,
      "ĠstÃ³Ã°": 3186,
      "vil": 3187,
      "ĠgerÃ°ist": 3188,
      "Ġstofnf": 3189,
      "ĠÃ¾jÃ³Ã°arbÃº": 3190,
      "Ġhitt": 3191,
      "astefn": 3192,
      "Ġvextir": 3193,
      "Ġalmennings": 3194,
      "rit": 3195,
      "unda": 3196,
      "ĠÃ¶flu": 3197,
      "ĠviljaÃ°": 3198,
      "Ġtveir": 3199,
      "ĠfiskveiÃ°i": 3200,
      "lan": 3201,
      "Ġalm": 3202,
      "vex": 3203,
      "ĠfyrirtÃ¦kin": 3204,
      "ĠÃ¶Ã°ruvÃŃsi": 3205,
      "Ã¡kvÃ¦Ã°i": 3206,
      "rek": 3207,
      "ĠfÃ³ru": 3208,
      "Ġhagsmunum": 3209,
      "ita": 3210,
      "Ġlyf": 3211,
      "ĠmÃ¡lefni": 3212,
      "ĠgreiÃ°sluaÃ°lÃ¶g": 3213,
      "ĠumhverfisrÃ¡Ã°herra": 3214,
      "Ġtagi": 3215,
      "ĠviÃ°miÃ°": 3216,
      "ĠumrÃ¦Ã°ur": 3217,
      "ĠstÃ³ru": 3218,
      "ĠaÃ°ilum": 3219,
      "Ġheyrt": 3220,
      "Ġmismunandi": 3221,
      "bjar": 3222,
      "fÃ¦ra": 3223,
      "land": 3224,
      "Ġenga": 3225,
      "Ġkosti": 3226,
      "Ġfisk": 3227,
      "ĠbrÃ½nt": 3228,
      "ĠÃ¡form": 3229,
      "lands": 3230,
      "ĠsÃ©rstÃ¶k": 3231,
      "fÃ³lk": 3232,
      "Ġengar": 3233,
      "Ġlaganna": 3234,
      "Ġleyfa": 3235,
      "ĠÃ¾ingmaÃ°urinn": 3236,
      "Ġpeninga": 3237,
      "Ġatvinnuleys": 3238,
      "Ġtals": 3239,
      "ĠrannsÃ³k": 3240,
      "Ġgrundvall": 3241,
      "ĠLandsbankans": 3242,
      "ĠsamfÃ©lagi": 3243,
      "junum": 3244,
      "va": 3245,
      "Ġleitt": 3246,
      "ĠbrÃ¡Ã°a": 3247,
      "ĠviÃ°rÃ¦Ã°ur": 3248,
      "ĠorÃ°in": 3249,
      "Ġheimili": 3250,
      "gef": 3251,
      "sluna": 3252,
      "Ġsamninginn": 3253,
      "brÃ©f": 3254,
      "ĠbÃºum": 3255,
      "ĠlÃ½Ã°veld": 3256,
      "ĠvÃ¶": 3257,
      "ĠÃ½mislegt": 3258,
      "gÃ¦": 3259,
      "rÃ¦Ã°a": 3260,
      "lÃ¶gin": 3261,
      "Ġtreysti": 3262,
      "ĠÃ¡rangri": 3263,
      "Ġfyrra": 3264,
      "ĠmilljÃ¶rÃ°um": 3265,
      "ĠsvaraÃ°": 3266,
      "Ġforgangs": 3267,
      "ĠhÃ¦rri": 3268,
      "ĠfjÃ¡rlÃ¶gum": 3269,
      "ĠlÃ¶gunum": 3270,
      "Ġbankarnir": 3271,
      "Ġstofnanir": 3272,
      "ĠÃ¡stand": 3273,
      "Ãºar": 3274,
      "ingi": 3275,
      "skiptum": 3276,
      "brÃº": 3277,
      "ĠbÃ¦": 3278,
      "Ġkunn": 3279,
      "ĠskÃ½ra": 3280,
      "ĠatvinnulÃŃfiÃ°": 3281,
      "ĠstjÃ³rnarskrÃ¡rinnar": 3282,
      "setningu": 3283,
      "ĠframtÃŃÃ°inni": 3284,
      "ĠÃ³lÃŃkindum": 3285,
      "ĠÃ³breytt": 3286,
      "rÃºm": 3287,
      "ĠjÃº": 3288,
      "heimildir": 3289,
      "sna": 3290,
      "Ã©ttar": 3291,
      "hafa": 3292,
      "Ġhreinlega": 3293,
      "afar": 3294,
      "Ġtalar": 3295,
      "ĠstÃ³rt": 3296,
      "drag": 3297,
      "ex": 3298,
      "ĠbÃ¶r": 3299,
      "ĠstjÃ³rnskip": 3300,
      "Ġhund": 3301,
      "Ġrif": 3302,
      "Ġsvig": 3303,
      "Ġskilyr": 3304,
      "Ġuppfyll": 3305,
      "ÃŃr": 3306,
      "ĠmÃ¡laflokk": 3307,
      "ĠsvÃ¦Ã°i": 3308,
      "eira": 3309,
      "Ġmanns": 3310,
      "ĠSeÃ°labanka": 3311,
      "gerÃ°ar": 3312,
      "ĠneyÃ°ar": 3313,
      "ÃŃs": 3314,
      "ÃŃtal": 3315,
      "Ġsamkomulagi": 3316,
      "Ġ14": 3317,
      "ĠtÃŃmum": 3318,
      "endurskoÃ°": 3319,
      "Ġspurningum": 3320,
      "ĠrÃ¡Ã°staf": 3321,
      "ĠtÃŃmabil": 3322,
      "ĠnÃ¦gilega": 3323,
      "upp": 3324,
      "ĠMÃ¡l": 3325,
      "leiki": 3326,
      "ĠgjaldmiÃ°": 3327,
      "ĠmilljÃ³nir": 3328,
      "lun": 3329,
      "anÃºar": 3330,
      "ĠrÃ©ttl": 3331,
      "ĠfjÃ¡rmÃ¡laker": 3332,
      "ĠÃ¡kveÃ°inn": 3333,
      "ĠfalliÃ°": 3334,
      "ĠjanÃºar": 3335,
      "ĠfrjÃ¡l": 3336,
      "ĠvÃŃÃ°a": 3337,
      "Ġgreitt": 3338,
      "Ġhlutir": 3339,
      "Ġendilega": 3340,
      "borgar": 3341,
      "Ġholl": 3342,
      "ĠtjÃ¡": 3343,
      "ĠÃŀor": 3344,
      "Ġ16": 3345,
      "ĠmikilvÃ¦ga": 3346,
      "Ġuppbyggingu": 3347,
      "ĠÃ¡nÃ¦gju": 3348,
      "ĠendurskoÃ°a": 3349,
      "ĠsjÃ¡lfsagt": 3350,
      "Ġfarin": 3351,
      "sak": 3352,
      "Ġ11": 3353,
      "ĠvÃŃsu": 3354,
      "skÃ¶pun": 3355,
      "gÃ¶ngu": 3356,
      "irg": 3357,
      "ĠhefÃ°": 3358,
      "ĠboriÃ°": 3359,
      "Ġbaki": 3360,
      "angaÃ°": 3361,
      "Ġkref": 3362,
      "ĠsnÃ½r": 3363,
      "slega": 3364,
      "Ġles": 3365,
      "Ġtakmark": 3366,
      "ĠiÃ°naÃ°arrÃ¡Ã°herra": 3367,
      "ĠhÃ©lt": 3368,
      "ĠbrÃ©f": 3369,
      "Ġ40": 3370,
      "ĠsÃ©reignarspar": 3371,
      "Ġmynt": 3372,
      "Ġhand": 3373,
      "Ã¦kk": 3374,
      "ĠÃ¡rsins": 3375,
      "Ġstarfsmanna": 3376,
      "Ġbarna": 3377,
      "ĠskilaboÃ°": 3378,
      "Ġraunverulega": 3379,
      "ĠaÃ°drag": 3380,
      "Ġkanna": 3381,
      "ĠniÃ°urstaÃ°an": 3382,
      "sÃ½n": 3383,
      "ĠafleiÃ°ingar": 3384,
      "ĠumboÃ°": 3385,
      "ĠÃ³trÃº": 3386,
      "ĠslÃŃku": 3387,
      "Ġminnsta": 3388,
      "ĠsÃ©rfrÃ¦Ã°inga": 3389,
      "Ġsenn": 3390,
      "smanna": 3391,
      "ĠgjÃ¶r": 3392,
      "ĠHÃ¡": 3393,
      "Ġfullu": 3394,
      "Ġfannst": 3395,
      "borg": 3396,
      "ĠlÃ¶ngu": 3397,
      "ĠÃ³skaÃ°": 3398,
      "ĠEinnig": 3399,
      "Ġforustum": 3400,
      "ĠsambÃ¦r": 3401,
      "ĠlÃ¡gmark": 3402,
      "ĠsjÃ¶": 3403,
      "Ġtilkyn": 3404,
      "ĠbiÃ°ja": 3405,
      "ĠtvÃ¦r": 3406,
      "ĠbÃ¶nkunum": 3407,
      "Ġkeyr": 3408,
      "ĠÃºrrÃ¦Ã°i": 3409,
      "Ġliggi": 3410,
      "ĠkostnaÃ°ar": 3411,
      "Ġgrundvallarat": 3412,
      "Ġskemm": 3413,
      "Ã¾Ã³": 3414,
      "Ġferli": 3415,
      "ĠEftir": 3416,
      "ĠviÃ°urkenna": 3417,
      "Ġmargra": 3418,
      "ĠÃŃtrekaÃ°": 3419,
      "Ġathyglisvert": 3420,
      "ĠAllt": 3421,
      "ĠbÃºnir": 3422,
      "gjar": 3423,
      "vir": 3424,
      "Ġhre": 3425,
      "amik": 3426,
      "isrÃ¡Ã°uneyt": 3427,
      "efniÃ°": 3428,
      "ĠhÃ¦tt": 3429,
      "Ġkar": 3430,
      "ĠÃ¾urf": 3431,
      "ĠÃ¡gÃºst": 3432,
      "ĠeÃ°lis": 3433,
      "ĠmatvÃ¦": 3434,
      "ĠÃ½msar": 3435,
      "ĠÃ¡kveÃ°na": 3436,
      "stofnun": 3437,
      "Ġbendir": 3438,
      "tingar": 3439,
      "Ã¶ng": 3440,
      "Ġkostur": 3441,
      "ĠtÃ¶lur": 3442,
      "ĠgagnrÃ½ni": 3443,
      "ĠklÃ¡r": 3444,
      "Ã°al": 3445,
      "ĠfÃ¶": 3446,
      "Ġkaup": 3447,
      "Ã½ri": 3448,
      "ĠVer": 3449,
      "stofu": 3450,
      "Ġfremur": 3451,
      "ĠsÃ©rstakt": 3452,
      "Ġeinstaklingar": 3453,
      "Ġbesta": 3454,
      "ĠupplÃ½sa": 3455,
      "ĠseÃ°labanka": 3456,
      "ĠsÃ©rstaka": 3457,
      "ldu": 3458,
      "ĠÃºtflutning": 3459,
      "allaÃ°i": 3460,
      "ĠHelgu": 3461,
      "ĠÃŃtarlega": 3462,
      "ĠleitaÃ°": 3463,
      "ns": 3464,
      "ĠaÃ°gerÃ°": 3465,
      "isk": 3466,
      "eldi": 3467,
      "Ġverkefnum": 3468,
      "ĠrÃ¡Ã°ast": 3469,
      "ĠÃ¡ratug": 3470,
      "ĠÃ¡rin": 3471,
      "Ġfyrirvarar": 3472,
      "ĠtÃ³ku": 3473,
      "Ġtr": 3474,
      "Ġerlendis": 3475,
      "ĠsaksÃ³knar": 3476,
      "sÃŃ": 3477,
      "Ã¶gnum": 3478,
      "anga": 3479,
      "ĠauÃ°veld": 3480,
      "ĠÃ¡gÃ¦ta": 3481,
      "ĠtÃ¶luvert": 3482,
      "ĠÃ¾angaÃ°": 3483,
      "iggja": 3484,
      "ĠFrumvarp": 3485,
      "Ġsamningi": 3486,
      "Ġefnislega": 3487,
      "stjÃ³ri": 3488,
      "ĠÃ¾ingfund": 3489,
      "ĠrÃŃkisstjÃ³rnina": 3490,
      "Ġskipa": 3491,
      "ĠkjÃ³sa": 3492,
      "Ġtilvikum": 3493,
      "Ãŀ": 3494,
      "ĠsÃ½nir": 3495,
      "Ġbil": 3496,
      "Ġfela": 3497,
      "nÃ¡m": 3498,
      "Ġmikilli": 3499,
      "Ã¾rÃ³": 3500,
      "Ġvitni": 3501,
      "Ġkvik": 3502,
      "Ġstarfsmenn": 3503,
      "Ġfelur": 3504,
      "Ġfella": 3505,
      "Ġyfirleitt": 3506,
      "ĠstÃ¶Ã°ugleika": 3507,
      "Ġeftirlits": 3508,
      "Ġsalnum": 3509,
      "ĠÃ¾ingsÃ¡lyktunartillÃ¶gu": 3510,
      "nin": 3511,
      "ĠgÃ¡": 3512,
      "ĠmarkaÃ°": 3513,
      "ĠnÃ¡ttÃºruauÃ°lind": 3514,
      "..": 3515,
      "yfir": 3516,
      "Ġhar": 3517,
      "alaust": 3518,
      "ĠÃ³sam": 3519,
      "ĠsjÃ³narmiÃ°um": 3520,
      "Ã¶llum": 3521,
      "setning": 3522,
      "ĠÃ¡ttu": 3523,
      "Ġreglum": 3524,
      "ĠsamrÃ¦m": 3525,
      "ĠHelguvÃŃk": 3526,
      "ĠvÃŃk": 3527,
      "Ġfe": 3528,
      "Ġheimilt": 3529,
      "ĠÃ¾remur": 3530,
      "Ġskylda": 3531,
      "Ġhelstu": 3532,
      "ĠembÃ¦ttis": 3533,
      "erÃ°ar": 3534,
      "Ġleig": 3535,
      "ĠmannrÃ©tt": 3536,
      "rauk": 3537,
      "ĠmikilvÃ¦gi": 3538,
      "runar": 3539,
      "aupa": 3540,
      "Ġmars": 3541,
      "Ġhaldi": 3542,
      "Ġgreinilega": 3543,
      "ĠgÃ³Ã°u": 3544,
      "ĠfjÃ¶lmiÃ°lum": 3545,
      "Ġandsvari": 3546,
      "ĠVegna": 3547,
      "brÃºar": 3548,
      "Ġhve": 3549,
      "Ġuppli": 3550,
      "Ġeinhverjir": 3551,
      "Ġbrot": 3552,
      "ĠlandsbyggÃ°inni": 3553,
      "Ġvegum": 3554,
      "Ġsex": 3555,
      "Ġsenda": 3556,
      "Ġhei": 3557,
      "ĠvÃ¦rum": 3558,
      "Ã¶lum": 3559,
      "afi": 3560,
      "ĠstaÃ°inn": 3561,
      "Ġ17": 3562,
      "kosning": 3563,
      "ĠLand": 3564,
      "ĠdÃ³mst": 3565,
      "ĠBretlandi": 3566,
      "ĠaÃ°gerÃ°um": 3567,
      "ĠleiÃ°andi": 3568,
      "Ġvitna": 3569,
      "ormaÃ°ur": 3570,
      "Ġfresta": 3571,
      "str": 3572,
      "ĠstÃŃ": 3573,
      "Ã¡h": 3574,
      "kkur": 3575,
      "Ġskattanefndar": 3576,
      "smÃ¶nnum": 3577,
      "rÃŃl": 3578,
      "ĠefnahagslÃŃ": 3579,
      "Ġeld": 3580,
      "ĠsamÃ¾ykki": 3581,
      "ĠundanÃ¾": 3582,
      "ĠsvokÃ¶ll": 3583,
      "ĠvirÃ°ingu": 3584,
      "bl": 3585,
      "ĠtÃŃ": 3586,
      "ĠaugljÃ³st": 3587,
      "ĠtryggingamÃ¡l": 3588,
      "ĠmistÃ¶k": 3589,
      "ĠmÃ¶rgu": 3590,
      "otiÃ°": 3591,
      "up": 3592,
      "Ã°in": 3593,
      "stÃ¶kum": 3594,
      "starfsemi": 3595,
      "ĠAlÃ¾jÃ³Ã°agjaldeyrissjÃ³Ã°urinn": 3596,
      "aÃ°ilar": 3597,
      "Ġleggjum": 3598,
      "ĠfebrÃºar": 3599,
      "bÃ³ta": 3600,
      "ĠlÃŃklega": 3601,
      "ĠrÃŃkja": 3602,
      "ĠrÃ¦Ã°ir": 3603,
      "ĠsjÃ¡lft": 3604,
      "Ġverkefna": 3605,
      "ĠlÃ½sti": 3606,
      "ĠhÃ¡r": 3607,
      "ĠhlutafÃ©lag": 3608,
      "nÃ¦": 3609,
      "Ã¾Ã¡tt": 3610,
      "ĠstÃ³riÃ°": 3611,
      "ĠInga": 3612,
      "ĠgjaldÃ¾rota": 3613,
      "bjÃ¶r": 3614,
      "ĠbÃ¡Ã°": 3615,
      "ĠfrÃ¦Ã°": 3616,
      "ĠÃįslendingum": 3617,
      "Ãį": 3618,
      "ĠfÃ³lkiÃ°": 3619,
      "ĠÃ¡kveÃ°nar": 3620,
      "Ġengan": 3621,
      "ĠÃ³skÃ¶p": 3622,
      "Ġsitur": 3623,
      "deil": 3624,
      "Ġvirkilega": 3625,
      "Ġeignarhald": 3626,
      "ĠkrÃ³nunnar": 3627,
      "ĠrÃŃkissjÃ³Ã°i": 3628,
      "gjÃ¶ld": 3629,
      "slunnar": 3630,
      "ĠnÃ½jar": 3631,
      "ĠJÃ¡": 3632,
      "Ġrangt": 3633,
      "Ġvara": 3634,
      "verÃ°u": 3635,
      "ĠvirÃ°ast": 3636,
      "Ġfundum": 3637,
      "Ġtekjuskatt": 3638,
      "ĠbeÃ°": 3639,
      "sker": 3640,
      "ĠinnleiÃ°": 3641,
      "ĠBanka": 3642,
      "ĠframkvÃ¦mda": 3643,
      "marka": 3644,
      "ĠaÃ°stÃ¦Ã°": 3645,
      "Ġgey": 3646,
      "Ġkaupa": 3647,
      "framleiÃ°slu": 3648,
      "ĠJÃ³h": 3649,
      "ĠvÃ¶x": 3650,
      "ĠlÃ¶ndum": 3651,
      "Ġmarga": 3652,
      "eil": 3653,
      "ĠmÃ¡lsm": 3654,
      "ĠÃ¡Ã¦t": 3655,
      "gvin": 3656,
      "ĠurÃ°u": 3657,
      "ĠtvÃŃ": 3658,
      "ĠmÃ¡lÃ¾Ã³": 3659,
      "Ġspurt": 3660,
      "Ġsumir": 3661,
      "leysi": 3662,
      "Ġallsherjarnefnd": 3663,
      "lÃ³": 3664,
      "Ġfarveg": 3665,
      "ĠrÃ¡Ã°stÃ¶f": 3666,
      "Ġskynsamlegt": 3667,
      "Ġtap": 3668,
      "legir": 3669,
      "lÃŃu": 3670,
      "mÃ¶rk": 3671,
      "ĠutanrÃŃkismÃ¡lanefndar": 3672,
      "amma": 3673,
      "Ġdaginn": 3674,
      "ĠÃ¾rjÃº": 3675,
      "ĠvirÃ°is": 3676,
      "ĠgreiÃ°sluaÃ°lÃ¶gun": 3677,
      "ĠaÃ°draganda": 3678,
      "ĠÃ¾ver": 3679,
      "nda": 3680,
      "ĠrÃŃkisvald": 3681,
      "Ġlagaleg": 3682,
      "Ġlista": 3683,
      "ĠtÃ¦p": 3684,
      "Ġhefja": 3685,
      "oft": 3686,
      "eing": 3687,
      "Ġsamningnum": 3688,
      "ĠRÃŃkisstjÃ³rnin": 3689,
      "ĠviÃ°skiptanefndar": 3690,
      "ĠvÃŃÃ°tÃ¦k": 3691,
      "ĠÃ¾vert": 3692,
      "Ġmer": 3693,
      "ĠbÃ³k": 3694,
      "rÃ¦Ã°u": 3695,
      "ĠskiliÃ°": 3696,
      "riÃ°iÃ°": 3697,
      "ĠSjÃ¡lfstÃ¦Ã°isflokknum": 3698,
      "Ġtvo": 3699,
      "Ġdreif": 3700,
      "ch": 3701,
      "ĠHvers": 3702,
      "Ġatvinnugrein": 3703,
      "rÃ©tta": 3704,
      "ĠtÃ³": 3705,
      "ĠÃ¦tlaÃ°i": 3706,
      "ĠJafnframt": 3707,
      "ĠfÃ³t": 3708,
      "ĠlÃº": 3709,
      "ĠVal": 3710,
      "ĠlÃŃt": 3711,
      "ĠframkvÃ¦mdir": 3712,
      "ĠhliÃ°ar": 3713,
      "ĠaÃ°hald": 3714,
      "eÃ°l": 3715,
      "eiÃ°ur": 3716,
      "ĠbrÃ©": 3717,
      "ĠnÃ³g": 3718,
      "ĠlÃŃkur": 3719,
      "ĠmikilvÃ¦gu": 3720,
      "Ġfylgjast": 3721,
      "Ġforgangsr": 3722,
      "Ġtef": 3723,
      "ĠnÃ³tt": 3724,
      "ĠrÃŃkinu": 3725,
      "ĠsÃ½nist": 3726,
      "ĠstjÃ³rnarandstÃ¶Ã°unni": 3727,
      "ĠfÃ³l": 3728,
      "Ġgefur": 3729,
      "Ġraforku": 3730,
      "ĠfjÃ¶lda": 3731,
      "ĠKristjÃ¡": 3732,
      "Ġkunnugt": 3733,
      "unk": 3734,
      "ĠBir": 3735,
      "Ġskipt": 3736,
      "ĠhÃ³f": 3737,
      "Ġminnst": 3738,
      "Ġton": 3739,
      "ĠHef": 3740,
      "ĠÃºrskur": 3741,
      "vÃ¶ru": 3742,
      "ĠatkvÃ¦Ã°agreiÃ°slu": 3743,
      "Ġjar": 3744,
      "ĠÃ¡kveÃ°a": 3745,
      "ĠrÃ¡Ã°herrann": 3746,
      "Ġbur": 3747,
      "verndar": 3748,
      "Ġminnihluta": 3749,
      "Ġefnahagslegu": 3750,
      "Ġfjallar": 3751,
      "ĠhÃ¡mark": 3752,
      "ĠÃ¾ekkjum": 3753,
      "birg": 3754,
      "unefnd": 3755,
      "Ġap": 3756,
      "Ġallri": 3757,
      "greiÃ°slur": 3758,
      "Ġhorft": 3759,
      "os": 3760,
      "sviÃ°": 3761,
      "ĠbÃ³ta": 3762,
      "Ġvaraf": 3763,
      "tÃ¶lu": 3764,
      "Ġskuldum": 3765,
      "Ġbreytinga": 3766,
      "ĠlÃ¡ns": 3767,
      "Ġlykil": 3768,
      "ĠÃ¦sk": 3769,
      "Ġundirstri": 3770,
      "Ġkrafa": 3771,
      "Ġforustu": 3772,
      "Ġendurskip": 3773,
      "semdir": 3774,
      "Ġvantar": 3775,
      "ĠÃ¡kvÃ¦Ã°um": 3776,
      "ĠÃĵl": 3777,
      "ĠstuÃ°la": 3778,
      "ĠstjÃ³rnarandstÃ¶Ã°unnar": 3779,
      "ĠÃ¾ingheim": 3780,
      "Ã¡ttu": 3781,
      "Ġskyldu": 3782,
      "ĠbreytingartillÃ¶gu": 3783,
      "ĠinnstÃ¦Ã°utrygg": 3784,
      "ost": 3785,
      "ĠfÃ¦Ã°": 3786,
      "last": 3787,
      "ĠnÃ¡i": 3788,
      "Ġsamvinnu": 3789,
      "ĠÃ³tta": 3790,
      "ĠSamkvÃ¦mt": 3791,
      "Ġstofnana": 3792,
      "ĠhÃ¡skÃ³la": 3793,
      "hugs": 3794,
      "ĠeyÃ°a": 3795,
      "ĠSigurÃ°sson": 3796,
      "Ġkvikmynd": 3797,
      "Ġhreint": 3798,
      "ĠnjÃ³ta": 3799,
      "ĠvirÃ°i": 3800,
      "amÃ¡lum": 3801,
      "Ġflokkar": 3802,
      "ĠtÃ¶l": 3803,
      "ĠNorÃ°urlÃ¶nd": 3804,
      "ĠsamgÃ¶ngur": 3805,
      "Ġblasir": 3806,
      "ĠsvigrÃºm": 3807,
      "ĠgÃ¶m": 3808,
      "yrk": 3809,
      "ĠframsÃ¶g": 3810,
      "ĠdÃ³ms": 3811,
      "ÃºÃ°": 3812,
      "ĠfrÃŃ": 3813,
      "ĠskÃ¶": 3814,
      "ĠMik": 3815,
      "brÃ¶gÃ°um": 3816,
      "ĠvirÃ°isauka": 3817,
      "greidd": 3818,
      "ĠvÃ¶rÃ°": 3819,
      "ings": 3820,
      "ĠjafnrÃ©tt": 3821,
      "Ġtryggt": 3822,
      "Ġhagsmunir": 3823,
      "19": 3824,
      "bert": 3825,
      "ssam": 3826,
      "Ġsamband": 3827,
      "ĠlÃ¡num": 3828,
      "ĠrÃ©ttindi": 3829,
      "ĠkvÃ³ta": 3830,
      "ĠmÃ³tmÃ¦": 3831,
      "ĠhljÃ³Ã°": 3832,
      "ĠundirbÃºning": 3833,
      "hel": 3834,
      "Ġto": 3835,
      "aÃ°arins": 3836,
      "ĠdregiÃ°": 3837,
      "sett": 3838,
      "ĠsjÃ¡lfum": 3839,
      "ĠaukiÃ°": 3840,
      "Ġhorfum": 3841,
      "Ġaugu": 3842,
      "ĠfjÃ¡rfesta": 3843,
      "Ġsvokall": 3844,
      "ĠaprÃŃl": 3845,
      "eis": 3846,
      "nes": 3847,
      "Ġell": 3848,
      "ĠskÃ³l": 3849,
      "Ġafl": 3850,
      "eldur": 3851,
      "Ġbyrjun": 3852,
      "Ġtilraun": 3853,
      "Ã°ust": 3854,
      "ĠÃ³f": 3855,
      "Ġbrug": 3856,
      "ĠhagfrÃ¦Ã°": 3857,
      "Ã©lÃ¶gum": 3858,
      "ĠsÃ¶muleiÃ°is": 3859,
      "ĠÃļ": 3860,
      "ĠvÃ¶ld": 3861,
      "ddir": 3862,
      "Ġspurningin": 3863,
      "ĠStjÃ³rnar": 3864,
      "Ã¦tta": 3865,
      "ĠlÃ©": 3866,
      "bÃºnir": 3867,
      "Ġeinkum": 3868,
      "ĠbrÃ¡Ã°abirg": 3869,
      "ĠblaÃ°": 3870,
      "ĠÃŀjÃ³Ã°": 3871,
      "anni": 3872,
      "ĠfjÃ¡rhÃ¦Ã°": 3873,
      "ĠÃ³eÃ°l": 3874,
      "ĠKaup": 3875,
      "Ġmanni": 3876,
      "ĠAlÃ¾jÃ³Ã°agjaldeyrissjÃ³Ã°num": 3877,
      "Ġformanns": 3878,
      "Ġhollensk": 3879,
      "ĠalÃ¾jÃ³Ã°a": 3880,
      "ĠvirÃ°ulegur": 3881,
      "ĠbÃ¦tt": 3882,
      "Ġkomandi": 3883,
      "ĠÃ³vart": 3884,
      "ĠstÃ¦rsta": 3885,
      "jÃ¶fn": 3886,
      "int": 3887,
      "Ġeign": 3888,
      "ĠÃ¡ramÃ³t": 3889,
      "Ġskilning": 3890,
      "agnh": 3891,
      "ĠRagnh": 3892,
      "Ġfest": 3893,
      "ĠgÃ¶gnum": 3894,
      "ĠVar": 3895,
      "Ġsvari": 3896,
      "%,": 3897,
      "lita": 3898,
      "ĠMat": 3899,
      "Ġfyrirvararnir": 3900,
      "Ġkonur": 3901,
      "Ġsamningar": 3902,
      "ĠniÃ°urskurÃ°": 3903,
      "Ġselja": 3904,
      "ĠHvaÃ°a": 3905,
      "Ġformanni": 3906,
      "ĠrÃŃkisfjÃ¡rmÃ¡lum": 3907,
      "ĠsveitarstjÃ³rnar": 3908,
      "ĠhÃ¶fuÃ°borgar": 3909,
      "Ġlauna": 3910,
      "Ġhvetja": 3911,
      "lf": 3912,
      "veiÃ°ar": 3913,
      "stÃ¦tt": 3914,
      "Ġhval": 3915,
      "ĠframfÃ¦ri": 3916,
      "kast": 3917,
      "tillaga": 3918,
      "Ġminnis": 3919,
      "Ġumsagnir": 3920,
      "ed": 3921,
      "hv": 3922,
      "ĠsÃ³tt": 3923,
      "Ġafskrif": 3924,
      "undir": 3925,
      "Ġspara": 3926,
      "ĠÃ³vissa": 3927,
      "ĠstjÃ³rnarliÃ°ar": 3928,
      "gast": 3929,
      "Ã¶l": 3930,
      "aflega": 3931,
      "ĠafstaÃ°a": 3932,
      "Ġgengis": 3933,
      "Ġstefnum": 3934,
      "Ġtreysta": 3935,
      "ĠhljÃ³tum": 3936,
      "ĠhvÃŃ": 3937,
      "Ã¦ttir": 3938,
      "Ġerlendum": 3939,
      "ĠnÃ³gu": 3940,
      "ĠmÃ¡lsmeÃ°ferÃ°": 3941,
      "standi": 3942,
      "ĠÃ³ljÃ³": 3943,
      "Ġtekjum": 3944,
      "Ġborgar": 3945,
      "ĠvaldiÃ°": 3946,
      "Ġmegum": 3947,
      "tekjur": 3948,
      "Ã³litÃŃk": 3949,
      "ĠmÃŃnÃº": 3950,
      "Ġsamkeppnis": 3951,
      "Ġsennilega": 3952,
      "hag": 3953,
      "ĠMagn": 3954,
      "ĠEnn": 3955,
      "ĠSÃ¡": 3956,
      "ilegar": 3957,
      "heimil": 3958,
      "Ġumfang": 3959,
      "ĠAlÃ¾jÃ³Ã°agjaldeyrissjÃ³Ã°inn": 3960,
      "ĠsveitarfÃ©lÃ¶gin": 3961,
      "ĠfjÃ¡rmuni": 3962,
      "lagi": 3963,
      "ĠupplÃ½singa": 3964,
      "ĠlÃ½Ã°rÃ¦Ã°": 3965,
      "ĠutanrÃŃkismÃ¡lanefnd": 3966,
      "sÃ¡ttmÃ¡l": 3967,
      "svÃ¦Ã°inu": 3968,
      "jÃ¶f": 3969,
      "oÃ°u": 3970,
      "jÃ¡rauk": 3971,
      "Ġsty": 3972,
      "ĠinnlÃ¡n": 3973,
      "ĠÃ¾riggja": 3974,
      "Ġalmenningur": 3975,
      "ĠSamfylkingar": 3976,
      "stÃ¶Ã°um": 3977,
      "undi": 3978,
      "Ġnokkru": 3979,
      "Ġsettar": 3980,
      "ĠreglugerÃ°": 3981,
      "laug": 3982,
      "jÃ¶gur": 3983,
      "ĠumrÃ¦Ã°an": 3984,
      "ĠstjÃ³rnsÃ½slu": 3985,
      "Ġvikur": 3986,
      "ĠSigurÃ°ar": 3987,
      "sn": 3988,
      "Ġli": 3989,
      "ĠkosiÃ°": 3990,
      "Ġeigu": 3991,
      "Ġstarfandi": 3992,
      "ĠstÃ³rum": 3993,
      "Ġmissir": 3994,
      "pÃŃtal": 3995,
      "rÃŃm": 3996,
      "Ġmein": 3997,
      "kvÃ¦tt": 3998,
      "ĠÃºthlut": 3999,
      "ĠbyggÃ°": 4000,
      "ĠbreytingartillÃ¶gur": 4001,
      "greitt": 4002,
      "ĠhÃ¶r": 4003,
      "Ã¡kvÃ¦Ã°": 4004,
      "Ġafn": 4005,
      "isrÃ©tt": 4006,
      "ĠEvrÃ³pusambands": 4007,
      "Ġkosningum": 4008,
      "ĠhruniÃ°": 4009,
      "tast": 4010,
      "rÃ¡Ã°i": 4011,
      "ĠauÃ°lindir": 4012,
      "ĠundanÃ¾Ã¡": 4013,
      "arÃ¡Ã°uneytiÃ°": 4014,
      "Ġvenju": 4015,
      "ĠatkvÃ¦Ã°": 4016,
      "Ġundirrit": 4017,
      "Ġnokkrar": 4018,
      "ĠfÃ©lagsmÃ¡larÃ¡Ã°herra": 4019,
      "ĠÃ¡gÃ¦tlega": 4020,
      "greind": 4021,
      "Ġgleyma": 4022,
      "ĠdÃ³mstÃ³la": 4023,
      "tin": 4024,
      "ĠrÃ©tta": 4025,
      "reig": 4026,
      "Ġinnheim": 4027,
      "ĠReykjavÃŃkur": 4028,
      "Ġbind": 4029,
      "ĠEinar": 4030,
      "ĠhefÃ°bund": 4031,
      "ĠÃ³m": 4032,
      "Ġlangan": 4033,
      "viÃ°miÃ°": 4034,
      "aÃ°an": 4035,
      "ĠrÃ¦k": 4036,
      "Ġmenningar": 4037,
      "Ġpa": 4038,
      "Ġrekstur": 4039,
      "Ġathugasemdum": 4040,
      "ÃŃfur": 4041,
      "ĠsÃŃÃ°ari": 4042,
      "ĠaÃ°komu": 4043,
      "Ġhina": 4044,
      "ĠfjÃ¶gur": 4045,
      "anns": 4046,
      "Ġfylgir": 4047,
      "ĠnotaÃ°": 4048,
      "ĠhÃ¡ttar": 4049,
      "umhver": 4050,
      "lendaskrÃ¡": 4051,
      "ĠreiÃ°": 4052,
      "Ã¶rygg": 4053,
      "Ġdegi": 4054,
      "unarinnar": 4055,
      "ĠmÃ¦lendaskrÃ¡": 4056,
      "Ġflestir": 4057,
      "ĠborÃ°inu": 4058,
      "Ġjafna": 4059,
      "ĠgÃ¶mlu": 4060,
      "bar": 4061,
      "Ġref": 4062,
      "ĠbreiÃ°": 4063,
      "ĠSve": 4064,
      "ĠsjÃ¡lfir": 4065,
      "Ġbyggt": 4066,
      "Ġmega": 4067,
      "lof": 4068,
      "ĠÃĨ": 4069,
      "Ġframb": 4070,
      "ĠtrÃºi": 4071,
      "ĠlÃ¡nasamning": 4072,
      "ĠvÃ¶ru": 4073,
      "Ġskora": 4074,
      "ĠembÃ¦tti": 4075,
      "pur": 4076,
      "Ġlenda": 4077,
      "ĠgarÃ°": 4078,
      "Ãºra": 4079,
      "ĠfyrirvÃ¶rum": 4080,
      "eigenda": 4081,
      "Ġeinfalt": 4082,
      "ĠaÃ°stoÃ°ar": 4083,
      "ĠhjÃºk": 4084,
      "fang": 4085,
      "Ġvat": 4086,
      "Ġvekur": 4087,
      "Ġunnt": 4088,
      "mundur": 4089,
      "Ã°alÃ¡na": 4090,
      "Ġmargoft": 4091,
      "Ġsamstarfs": 4092,
      "skuldbind": 4093,
      "ĠyfirlÃ½singar": 4094,
      "ĠgrÃ¦nir": 4095,
      "Ġkallar": 4096,
      "ĠSvÃŃ": 4097,
      "ĠatriÃ°um": 4098,
      "brÃ©": 4099,
      "ĠfÃ¦rt": 4100,
      "drÃ¡ttar": 4101,
      "Ġher": 4102,
      "stum": 4103,
      "stefnu": 4104,
      "Ġkun": 4105,
      "ĠkÃº": 4106,
      "ĠÃŃslensks": 4107,
      "arkmiÃ°": 4108,
      "ĠgagnsÃ¦": 4109,
      "ĠatvinnulÃŃfinu": 4110,
      "ĠkerfiÃ°": 4111,
      "ĠNorÃ°": 4112,
      "ĠlÃŃfeyriss": 4113,
      "ĠÃ¡greiningur": 4114,
      "ĠbeÃ°iÃ°": 4115,
      "sar": 4116,
      "Ã°ingar": 4117,
      "jÃ¡reig": 4118,
      "ĠefnahagslÃŃf": 4119,
      "hvort": 4120,
      "ĠsÃ³k": 4121,
      "afrÃ¦Ã°i": 4122,
      "ĠvirÃ°a": 4123,
      "ĠOr": 4124,
      "ĠHanne": 4125,
      "ĠmÃ¶gulegt": 4126,
      "ĠhÃ¦kkaÃ°": 4127,
      "ĠÃģrni": 4128,
      "ĠÃ¾ingflokksf": 4129,
      "Ġbreska": 4130,
      "ĠsÃ¶gÃ°u": 4131,
      "ĠlÃ½Ã°veldisins": 4132,
      "laun": 4133,
      "Ġhugsun": 4134,
      "sjÃ³": 4135,
      "Ġtilh": 4136,
      "ĠstjÃ³rnarskip": 4137,
      "Ġsetti": 4138,
      "Ġ60": 4139,
      "ĠGuÃ°bjar": 4140,
      "ĠvÃ¶xtum": 4141,
      "ĠfjÃ¡rauk": 4142,
      "ĠkÃ¦m": 4143,
      "skÃ½r": 4144,
      "ĠhagrÃ¦Ã°": 4145,
      "ĠlÃ¦g": 4146,
      "ĠhugsaÃ°": 4147,
      "tali": 4148,
      "ĠÃ¾ekki": 4149,
      "Ġfelld": 4150,
      "ĠmenntamÃ¡larÃ¡Ã°herra": 4151,
      "ĠhÃ¡rrÃ©tt": 4152,
      "ĠtÃ¶lv": 4153,
      "nun": 4154,
      "ĠÃ¾iÃ°": 4155,
      "ĠnÃ½r": 4156,
      "lÃŃnis": 4157,
      "Ġkvenna": 4158,
      "Ġvonast": 4159,
      "ĠlandbÃºnaÃ°": 4160,
      "Ġneinum": 4161,
      "Ġfallist": 4162,
      "ĠvinnumarkaÃ°arins": 4163,
      "legg": 4164,
      "ĠEitt": 4165,
      "samfÃ©lag": 4166,
      "ĠÃ¡kaflega": 4167,
      "ĠÃ¾jÃ³Ã°areign": 4168,
      "reglur": 4169,
      "ĠgÃŃfur": 4170,
      "rifum": 4171,
      "ĠÃ³Ã¡": 4172,
      "engd": 4173,
      "Ġheiminum": 4174,
      "ĠslÃ¡": 4175,
      "Ã³ma": 4176,
      "Ġbankana": 4177,
      "Ġmundum": 4178,
      "ĠSeÃ°labankinn": 4179,
      "Ġsamkeppni": 4180,
      "eingrÃŃm": 4181,
      "ĠÃ¾un": 4182,
      "Ġband": 4183,
      "Ġtilliti": 4184,
      "ĠÃ¡stÃ¦Ã°um": 4185,
      "ĠbeinlÃŃnis": 4186,
      "ĠÃºtgjald": 4187,
      "daginn": 4188,
      "lÃ¦g": 4189,
      "Ġkem": 4190,
      "ĠSteingrÃŃm": 4191,
      "ĠstjÃ³rnarandstaÃ°an": 4192,
      "Ġreikna": 4193,
      "Ġatvinnur": 4194,
      "Ġeinni": 4195,
      "umsÃ³kn": 4196,
      "Ġrei": 4197,
      "Ġtilfell": 4198,
      "Ġkomnir": 4199,
      "ĠleiÃ°in": 4200,
      "ĠfjÃ¡rmÃ¡la": 4201,
      "ĠdÃ³msmÃ¡larÃ¡Ã°herra": 4202,
      "ĠneikvÃ¦Ã°": 4203,
      "ĠframboÃ°s": 4204,
      "ĠKristjÃ¡n": 4205,
      "ĠMaÃ°ur": 4206,
      "ĠfjÃ¶lmÃ¶r": 4207,
      "ĠrÃ¡Ã°uneyti": 4208,
      "ikt": 4209,
      "Ġhlutina": 4210,
      "Ġbirtist": 4211,
      "Ġhundr": 4212,
      "ĠFrumvarpiÃ°": 4213,
      "samtÃ¶k": 4214,
      "ĠÃģlf": 4215,
      "ĠgreiÃ°slur": 4216,
      "ĠpÃ³litÃŃska": 4217,
      "Ġfasteig": 4218,
      "ĠdÃ¦mis": 4219,
      "ĠtilbÃºin": 4220,
      "gefandi": 4221,
      "bein": 4222,
      "ĠgÃ¦": 4223,
      "Ġgekk": 4224,
      "ĠviÃ°brÃ¶gÃ°": 4225,
      "ĠBand": 4226,
      "Ã¶ku": 4227,
      "Ġvildu": 4228,
      "ĠskattahÃ¦kkanir": 4229,
      "ĠlÃ¶nd": 4230,
      "ĠÃįbÃº": 4231,
      "Ġatbur": 4232,
      "istrygg": 4233,
      "Ġteknar": 4234,
      "ĠbyggÃ°a": 4235,
      "ĠkostnaÃ°i": 4236,
      "ĠerfiÃ°leikum": 4237,
      "Ġtengist": 4238,
      "Ġloft": 4239,
      "Ġkafla": 4240,
      "meiri": 4241,
      "ĠBen": 4242,
      "Ġhugmyndum": 4243,
      "Ġtengd": 4244,
      "trygging": 4245,
      "Ġpeningastefn": 4246,
      "ĠframleiÃ°": 4247,
      "Ġdug": 4248,
      "Ġsamningurinn": 4249,
      "byrÃ°i": 4250,
      "Ġfyrirvarana": 4251,
      "ĠfÃ©ll": 4252,
      "Ġrifja": 4253,
      "sum": 4254,
      "ansi": 4255,
      "Ġgrunni": 4256,
      "Ġfundur": 4257,
      "Ġflokki": 4258,
      "ĠÃ¡lykt": 4259,
      "ĠbÃ½sna": 4260,
      "20": 4261,
      "Ġafgreitt": 4262,
      "Ġskilgrein": 4263,
      "Ġumhverfi": 4264,
      "Ġskuldbindingum": 4265,
      "Ġskattlagningu": 4266,
      "ĠBretum": 4267,
      "ĠÃ¾jÃ³Ã°aratkvÃ¦Ã°agreiÃ°slur": 4268,
      "Ġneinu": 4269,
      "ĠtÃ¦kifÃ¦r": 4270,
      "ĠsaksÃ³knara": 4271,
      "Ã¶Ã°ur": 4272,
      "Ġnefni": 4273,
      "ĠstÃ½ri": 4274,
      "Ġreikning": 4275,
      "Ġtilskipun": 4276,
      "ĠhÃºsnÃ¦Ã°": 4277,
      "ĠvÃ¦nt": 4278,
      "ĠveiÃ°": 4279,
      "Ġta": 4280,
      "ĠumsÃ³kn": 4281,
      "afram": 4282,
      "ĠÃģstÃ¦Ã°": 4283,
      "Ġframhaldi": 4284,
      "ĠÃ³sammÃ¡la": 4285,
      "Ġjafnt": 4286,
      "Ġforsvar": 4287,
      "ĠsetiÃ°": 4288,
      "ĠeÃ°li": 4289,
      "Ġeinstaka": 4290,
      "reglu": 4291,
      "ginn": 4292,
      "kenn": 4293,
      "ĠÃ¾jÃ³Ã°a": 4294,
      "Ġvetur": 4295,
      "Ġframgang": 4296,
      "ĠstÃ¦rri": 4297,
      "edikt": 4298,
      "ĠBenedikt": 4299,
      "ĠhÃº": 4300,
      "Ġerlenda": 4301,
      "ĠstjÃ³rnarf": 4302,
      "ĠleiÃ°ar": 4303,
      "ddur": 4304,
      "Ã¡Ã°uneyti": 4305,
      "Ġvaxt": 4306,
      "ĠDa": 4307,
      "ĠÃ¡rangur": 4308,
      "endurskoÃ°un": 4309,
      "ĠÃ³ttast": 4310,
      "sjÃ³Ã°i": 4311,
      "ĠflÃ½": 4312,
      "ĠbeiÃ°": 4313,
      "Ġgildir": 4314,
      "ĠrÃ¦ddi": 4315,
      "vanda": 4316,
      "mÃ¡lin": 4317,
      "Ġfleira": 4318,
      "ĠlÃ½tur": 4319,
      "Ġsetur": 4320,
      "ĠLandspÃŃtal": 4321,
      "Ġstunda": 4322,
      "ĠmarkmiÃ°i": 4323,
      "tÃŃmabil": 4324,
      "ĠÃ¾urfti": 4325,
      "ĠsvokallaÃ°a": 4326,
      "Ã½Ã°": 4327,
      "Ġalmanna": 4328,
      "ilegum": 4329,
      "Ġformi": 4330,
      "Ġvant": 4331,
      "ĠframkvÃ¦mdarvaldiÃ°": 4332,
      "ĠGÃŃslason": 4333,
      "hliÃ°a": 4334,
      "Ġfullt": 4335,
      "ĠÃ¦tlast": 4336,
      "ĠlÃ¡nveit": 4337,
      "fÃ¶rum": 4338,
      "ĠlÃ¶ggjafar": 4339,
      "ĠviÃ°hor": 4340,
      "ĠleiÃ°rÃ©tt": 4341,
      "Ġsettir": 4342,
      "Ġopna": 4343,
      "Ġminnka": 4344,
      "Ġvalda": 4345,
      "Ġvaldi": 4346,
      "ĠlÃºta": 4347,
      "mur": 4348,
      "ĠviÃ°hald": 4349,
      "ĠfjÃ¡rlÃ¶g": 4350,
      "Ġeignum": 4351,
      "ĠspÃ¡": 4352,
      "ĠEvrÃ³pska": 4353,
      "ĠÃ¾Ã¡ttum": 4354,
      "Ã¶gnun": 4355,
      "ĠauÃ°linda": 4356,
      "ĠhjÃ¡lpa": 4357,
      "ĠrÃ¡Ã°stafanir": 4358,
      "arh": 4359,
      "Ã³li": 4360,
      "orlof": 4361,
      "Ġsto": 4362,
      "Ġframlag": 4363,
      "Ġdags": 4364,
      "ĠnÃ¡gr": 4365,
      "Ġhlutverki": 4366,
      "Ġseinna": 4367,
      "Ġkerfinu": 4368,
      "ĠrÃŃkissjÃ³Ã°ur": 4369,
      "ĠferÃ°inni": 4370,
      "Ġalmenna": 4371,
      "ĠÃģlfh": 4372,
      "nars": 4373,
      "ĠTel": 4374,
      "raut": 4375,
      "Ġsendi": 4376,
      "Ġberjast": 4377,
      "ĠtvÃ¶f": 4378,
      "ĠaÃ°stoÃ°": 4379,
      "ĠsannfÃ¦ringu": 4380,
      "ĠSuÃ°urnes": 4381,
      "Ã¶dd": 4382,
      "Ġakk": 4383,
      "Ġsta": 4384,
      "Ġhugtak": 4385,
      "ĠrÃ¡Ã°gefandi": 4386,
      "ĠSjÃ¡lfstÃ¦Ã°isflokks": 4387,
      "ĠaÃ°ili": 4388,
      "ĠÃĨt": 4389,
      "ĠÃįbÃºÃ°alÃ¡na": 4390,
      "Ã°is": 4391,
      "ĠsiÃ°": 4392,
      "ema": 4393,
      "Ġgest": 4394,
      "Ã¡lit": 4395,
      "ĠtiltÃ¶lu": 4396,
      "ĠÃ³g": 4397,
      "ylt": 4398,
      "Ã¶mm": 4399,
      "ĠhÃ¡a": 4400,
      "Ġreka": 4401,
      "ĠskrifaÃ°": 4402,
      "Ġhreyfingarinnar": 4403,
      "ĠgjaldmiÃ°il": 4404,
      "mÃ¡linu": 4405,
      "ĠskilaÃ°": 4406,
      "ĠhÃ¡ttaÃ°": 4407,
      "ĠtrÃºverÃ°u": 4408,
      "ĠÃ¡gÃ¦tu": 4409,
      "Ġmerkilegt": 4410,
      "Ġatvinnuleysis": 4411,
      "dal": 4412,
      "dreg": 4413,
      "ĠskaÃ°a": 4414,
      "ĠsamrÃ¡Ã°i": 4415,
      "ĠnÃ½jum": 4416,
      "Ġbyggir": 4417,
      "ĠmarkaÃ°i": 4418,
      "ĠmÃ¶gulega": 4419,
      "ĠÃ¾ekkja": 4420,
      "Ġalvarlega": 4421,
      "ĠlandbÃºnaÃ°arrÃ¡Ã°herra": 4422,
      "Ġklukkan": 4423,
      "ĠfiskveiÃ°istjÃ³rnar": 4424,
      "Ġfinn": 4425,
      "ennd": 4426,
      "vÃŃÃ°": 4427,
      "Ġnefndina": 4428,
      "Ġvelt": 4429,
      "ĠmÃ¦lt": 4430,
      "ĠÃ½msir": 4431,
      "ĠlÃ¦kkun": 4432,
      "Ġkeyra": 4433,
      "ĠtilbÃºnir": 4434,
      "Ġ28": 4435,
      "Ġeinhverri": 4436,
      "Ġunnin": 4437,
      "ĠfrumkvÃ¦Ã°i": 4438,
      "ĠfaliÃ°": 4439,
      "ĠÃ¡bendingar": 4440,
      "mer": 4441,
      "Ġbreyst": 4442,
      "ĠvinnubrÃ¶gÃ°um": 4443,
      "ĠrÃ¶kst": 4444,
      "ĠmÃ¡lflutningi": 4445,
      "ĠÃºtskÃ½ra": 4446,
      "Ġfullkomlega": 4447,
      "ĠarÃ°": 4448,
      "ssvÃ¦Ã°": 4449,
      "alÃ¶gum": 4450,
      "ĠannaÃ°hvort": 4451,
      "ĠmÃ¦l": 4452,
      "fÃ¦rslu": 4453,
      "Ġalvarlegt": 4454,
      "Ãºrat": 4455,
      "ĠtiltÃ¶lulega": 4456,
      "ĠhÃ¡Ã°": 4457,
      "Ġmikils": 4458,
      "ĠgÃ³Ã°ar": 4459,
      "ĠrÃ¡Ã°herr": 4460,
      "ĠrannsÃ³kn": 4461,
      "ĠMÃ¡liÃ°": 4462,
      "ĠstÃ³riÃ°ju": 4463,
      "Ġansi": 4464,
      "ĠveiÃ°a": 4465,
      "Ġathug": 4466,
      "ĠÃ¾ekkingu": 4467,
      "ĠjÃ¡kvÃ¦tt": 4468,
      "ĠaÃ°ildarviÃ°rÃ¦Ã°ur": 4469,
      "ĠÃ³hÃ¡Ã°": 4470,
      "hreyf": 4471,
      "uk": 4472,
      "Ãºsson": 4473,
      "Ġallur": 4474,
      "Ġnefndum": 4475,
      "Ġnokkra": 4476,
      "semj": 4477,
      "Ġmesta": 4478,
      "ĠendurskoÃ°unar": 4479,
      "ĠstjÃ³rnarflokkanna": 4480,
      "lÃ¶ndum": 4481,
      "ĠvÃ©": 4482,
      "ĠMorgun": 4483,
      "samninga": 4484,
      "Ġhelm": 4485,
      "Ġflutti": 4486,
      "ĠgrÃ¦ns": 4487,
      "ĠstofnfÃ©": 4488,
      "Ġtengjast": 4489,
      "Ġerlendra": 4490,
      "leikar": 4491,
      "Ġframhaldssk": 4492,
      "ĠbÃ½r": 4493,
      "slÃ¡tt": 4494,
      "lagan": 4495,
      "Ġhvergi": 4496,
      "ĠNÃ½": 4497,
      "Ġannarri": 4498,
      "âĢľ.": 4499,
      "Ġkerfis": 4500,
      "ĠnefndarÃ¡litinu": 4501,
      "ĠsamiÃ°": 4502,
      "ĠframleiÃ°slu": 4503,
      "Ġafgreidd": 4504,
      "ĠSem": 4505,
      "ĠÃ¦tlu": 4506,
      "Ġvelja": 4507,
      "Ġkynja": 4508,
      "ĠReyndar": 4509,
      "ĠframsÃ³knarmanna": 4510,
      "ĠrannsÃ³knarnefnd": 4511,
      "ĠÃ¦skilegt": 4512,
      "ĠhjÃºkrunar": 4513,
      "Ġatvinnurek": 4514,
      "ĠakkÃºrat": 4515,
      "ĠMorgunblaÃ°": 4516,
      "Ġstofnunum": 4517,
      "viÃ°rÃ¦Ã°um": 4518,
      "ĠgrundvallaratriÃ°i": 4519,
      "helg": 4520,
      "tina": 4521,
      "vax": 4522,
      "Ġverka": 4523,
      "ĠHar": 4524,
      "Ġeindreg": 4525,
      "ĠmÃ¡naÃ°": 4526,
      "Ġflokkur": 4527,
      "ĠgÃ³Ã°um": 4528,
      "aÃ°sdÃ³m": 4529,
      "fangs": 4530,
      "ĠSlÃŃk": 4531,
      "Ġkostar": 4532,
      "ĠÃ¡hersla": 4533,
      "ĠstuÃ°ningi": 4534,
      "undur": 4535,
      "Ġinnflutning": 4536,
      "lÃŃf": 4537,
      "Ġgildandi": 4538,
      "ĠlandsframleiÃ°slu": 4539,
      "Ġefasemdir": 4540,
      "andinn": 4541,
      "ĠÃ¡hÃ¦tt": 4542,
      "ĠbrjÃ³ta": 4543,
      "Ġheils": 4544,
      "ĠHollendingum": 4545,
      "ĠstjÃ³rnlagaÃ¾ingiÃ°": 4546,
      "ĠbrÃ¡Ã°abirgÃ°a": 4547,
      "TA": 4548,
      "ĠÃ¾ingnefnd": 4549,
      "Ġinnlend": 4550,
      "ĠrÃ©tti": 4551,
      "Ġfullveld": 4552,
      "Ġerlendri": 4553,
      "ĠÃ¡hugavert": 4554,
      "ĠboÃ°iÃ°": 4555,
      "Ġendurskipulag": 4556,
      "Ġvandi": 4557,
      "efnis": 4558,
      "Ġsamskipti": 4559,
      "ĠHvar": 4560,
      "ĠrÃŃkir": 4561,
      "ĠvegferÃ°": 4562,
      "ĠhlustaÃ°": 4563,
      "rÃ³f": 4564,
      "samninginn": 4565,
      "ĠstjÃ³rnlagaÃ¾ingi": 4566,
      "ĠBandarÃŃk": 4567,
      "ĠskattgreiÃ°": 4568,
      "ĠhagvÃ¶x": 4569,
      "ĠbyrÃ°ar": 4570,
      "ĠdÃ³mstÃ³lum": 4571,
      "ĠhÃºsnÃ¦Ã°i": 4572,
      "FTA": 4573,
      "pÃ³litÃŃ": 4574,
      "Ġsatt": 4575,
      "ĠtÃŃu": 4576,
      "Ġkenn": 4577,
      "ĠUnd": 4578,
      "ĠÃ¶ryggi": 4579,
      "ĠDavÃŃÃ°": 4580,
      "tri": 4581,
      "vest": 4582,
      "ĠgripiÃ°": 4583,
      "Ġramma": 4584,
      "ĠummÃ¦li": 4585,
      "ĠskerÃ°": 4586,
      "Ġflokksins": 4587,
      "kerfisins": 4588,
      "ĠstjÃ³rnlagaÃ¾ings": 4589,
      "amarkaÃ°i": 4590,
      "ĠferÃ°aÃ¾jÃ³nustu": 4591,
      "ĠsjÃºklinga": 4592,
      "Ġheitir": 4593,
      "einu": 4594,
      "lÃ¦": 4595,
      "ingarorlof": 4596,
      "Ġ24": 4597,
      "Ġork": 4598,
      "Ġheims": 4599,
      "ĠrÃ¡Ã°gj": 4600,
      "ĠfjÃ¡rmÃ¡lastofn": 4601,
      "ĠslÃŃkri": 4602,
      "Ġsanngjar": 4603,
      "Ġsinnum": 4604,
      "ĠnÃ¡lgast": 4605,
      "ĠfjÃ¡rmÃ¡larÃ¡Ã°uneytisins": 4606,
      "Ġgaf": 4607,
      "Ġdap": 4608,
      "ĠFriÃ°": 4609,
      "ĠstjÃ³rnarÃ¾ing": 4610,
      "amÃ¡la": 4611,
      "ĠÃģrmann": 4612,
      "ĠstjÃ³rnarliÃ°a": 4613,
      "ĠfrÃ©ttir": 4614,
      "Ġevr": 4615,
      "ĠÃ¡Ã¦tlanir": 4616,
      "gengi": 4617,
      "ts": 4618,
      "Ġveldur": 4619,
      "ĠviÃ°rÃ¦Ã°um": 4620,
      "ĠviÃ°semj": 4621,
      "ĠHer": 4622,
      "Ġeinb": 4623,
      "Ġspil": 4624,
      "Ġfengum": 4625,
      "ĠsviÃ°um": 4626,
      "Ġ80": 4627,
      "ĠmÃ¡nuÃ°": 4628,
      "ĠÃ¦tlunin": 4629,
      "ĠlÃ¶ggjafarvald": 4630,
      "skipta": 4631,
      "ĠsjÃ¡i": 4632,
      "ĠgrundvÃ¶ll": 4633,
      "ĠfrestaÃ°": 4634,
      "mikiÃ°": 4635,
      "ĠsjÃ¡lfstÃ¦Ã°i": 4636,
      "ekjur": 4637,
      "ĠNiÃ°ur": 4638,
      "ĠlÃŃÃ°ur": 4639,
      "Ġalmennum": 4640,
      "smik": 4641,
      "yÃ°ju": 4642,
      "ĠIngi": 4643,
      "gaÃ°": 4644,
      "Ġatvik": 4645,
      "ĠvÃŃkja": 4646,
      "sjÃ³n": 4647,
      "Ã¾eg": 4648,
      "samlega": 4649,
      "ĠBer": 4650,
      "ĠsÃ¡r": 4651,
      "ĠlÃ¦gri": 4652,
      "Ġvonbrig": 4653,
      "Ġfyrirmynd": 4654,
      "Ġsamskiptum": 4655,
      "ĠÃºtil": 4656,
      "ĠvandrÃ¦Ã°um": 4657,
      "farandi": 4658,
      "ĠdagskrÃ¡r": 4659,
      "aum": 4660,
      "Ã°ingu": 4661,
      "Ġhlau": 4662,
      "ĠhryÃ°ju": 4663,
      "ĠnÃ½tingu": 4664,
      "nastofn": 4665,
      "ĠglÃŃma": 4666,
      "ĠhÃ³pi": 4667,
      "fre": 4668,
      "Ġvafa": 4669,
      "ĠgÃ¶ngum": 4670,
      "afna": 4671,
      "Ġefast": 4672,
      "vernd": 4673,
      "Ġmennta": 4674,
      "Ġskattleggja": 4675,
      "ĠsjÃ¡varÃºtvegi": 4676,
      "ĠyfirlÃ½singu": 4677,
      "gin": 4678,
      "Ġsend": 4679,
      "ĠstjÃ³rnarmeiri": 4680,
      "leif": 4681,
      "Ġkynsl": 4682,
      "verkefni": 4683,
      "Ġvinnur": 4684,
      "ĠferÃ°aÃ¾jÃ³nust": 4685,
      "ĠborgaÃ°": 4686,
      "Ġpeningastefnunefnd": 4687,
      "hÃ¡": 4688,
      "ĠfÃ¦ru": 4689,
      "ĠkjÃ¶": 4690,
      "afl": 4691,
      "ish": 4692,
      "ĠEFTA": 4693,
      "ĠgerÃ°um": 4694,
      "ĠhÃ¶fuÃ°stÃ³l": 4695,
      "Ġbjarga": 4696,
      "ĠnÃ¡um": 4697,
      "ĠefnahagsmÃ¡lum": 4698,
      "ĠtrÃºn": 4699,
      "ĠvirÃ°isaukaskatt": 4700,
      "ĠmÃŃnÃºtur": 4701,
      "ĠSvein": 4702,
      "Ġdapur": 4703,
      "kar": 4704,
      "ĠlÃ¦k": 4705,
      "ĠboÃ°a": 4706,
      "ĠmeÃ°ferÃ°ar": 4707,
      "ĠsjÃ¡lfs": 4708,
      "ĠjÃ¶fn": 4709,
      "leys": 4710,
      "ĠfÃ©laga": 4711,
      "Ġax": 4712,
      "ĠnÃ½skÃ¶pun": 4713,
      "Ġsamningana": 4714,
      "Ġtengsl": 4715,
      "Ġvinnslu": 4716,
      "Ġframhaldinu": 4717,
      "ĠjarÃ°": 4718,
      "ĠÃ¾Ãº": 4719,
      "Ã³Ã°ir": 4720,
      "ĠÃ¡kvÃ¦Ã°iÃ°": 4721,
      "ĠrannsÃ³knir": 4722,
      "ĠstjÃ³rnarskipunar": 4723,
      "ĠboÃ°i": 4724,
      "ĠeÃ°lilega": 4725,
      "Ġeinstakra": 4726,
      "ĠerfiÃ°u": 4727,
      "ĠFjÃ¡rmÃ¡laeftirlitiÃ°": 4728,
      "ĠFyrst": 4729,
      "Ġsat": 4730,
      "ĠÃŃmynd": 4731,
      "ĠgÃ¦tt": 4732,
      "ĠrÃ³": 4733,
      "Ġrit": 4734,
      "ĠviÃ°fangs": 4735,
      "ĠlegiÃ°": 4736,
      "ĠSamtÃ¶k": 4737,
      "ĠgÃ³Ã°ur": 4738,
      "ĠmÃ¦la": 4739,
      "ĠÃ¾rÃ³ast": 4740,
      "Ġneinar": 4741,
      "jÃ³st": 4742,
      "ĠÃ¾Ã¡gu": 4743,
      "Ã½rt": 4744,
      "ĠKann": 4745,
      "ĠkrÃ¶fuhaf": 4746,
      "Ġtalsvert": 4747,
      "Ġfasteigna": 4748,
      "di": 4749,
      "sÃ¶k": 4750,
      "ĠveiÃ°i": 4751,
      "Ġbendi": 4752,
      "ĠÃŀrÃ¡tt": 4753,
      "ĠSum": 4754,
      "ĠÃįslensk": 4755,
      "ĠMeiri": 4756,
      "ĠbyggÃ°ar": 4757,
      "Ġgamla": 4758,
      "Ġkreppu": 4759,
      "huga": 4760,
      "ĠgerÃ°ur": 4761,
      "ĠfullnÃ¦": 4762,
      "ĠÃ¾rÃŃr": 4763,
      "ĠSamfylkingunni": 4764,
      "ĠumrÃ¦dd": 4765,
      "ĠtÃºlka": 4766,
      "essor": 4767,
      "fÃ¡": 4768,
      "Ġhalla": 4769,
      "ildi": 4770,
      "ĠlÃŃtur": 4771,
      "Ġbankans": 4772,
      "ĠDan": 4773,
      "ĠatvinnumÃ¡l": 4774,
      "undum": 4775,
      "ĠsÃ©rkenn": 4776,
      "rÃ¦Ã°na": 4777,
      "ĠfjÃ¡rveit": 4778,
      "lÃ¶gur": 4779,
      "ĠLil": 4780,
      "stofnanir": 4781,
      "ĠaÃ°ildarumsÃ³kn": 4782,
      "Ġskapast": 4783,
      "Ġtilgangi": 4784,
      "oÃ°uÃ°": 4785,
      "Ġgagna": 4786,
      "skjÃ¶r": 4787,
      "Ġhafna": 4788,
      "ningin": 4789,
      "ĠskerÃ°a": 4790,
      "ĠHefur": 4791,
      "Ġella": 4792,
      "ĠÃ³eÃ°lilegt": 4793,
      "ĠTelur": 4794,
      "oti": 4795,
      "ĠAr": 4796,
      "ĠleiÃ°rÃ©tta": 4797,
      "Ġhlutum": 4798,
      "Ġheimilum": 4799,
      "Ġfellur": 4800,
      "ĠsÃ©rfrÃ¦Ã°ingar": 4801,
      "Ġflestum": 4802,
      "ĠverÃ°mÃ¦ti": 4803,
      "ĠbrugÃ°ist": 4804,
      "Ġkunna": 4805,
      "ĠhÃ³t": 4806,
      "Ġtekna": 4807,
      "ĠnÃ½jan": 4808,
      "ĠstjÃ³rnsÃ½": 4809,
      "Ġskilanefnd": 4810,
      "eyri": 4811,
      "Ġbrott": 4812,
      "ĠstarfsfÃ³lk": 4813,
      "ĠJÃ³na": 4814,
      "ĠefnahagssvÃ¦Ã°": 4815,
      "hagsmun": 4816,
      "ĠalÃ¾ingismenn": 4817,
      "Ġforustumenn": 4818,
      "ĠBankasÃ½": 4819,
      "sonar": 4820,
      "Ġneina": 4821,
      "verÃ°ar": 4822,
      "ĠorÃ°i": 4823,
      "ĠlÃ¡nin": 4824,
      "fellt": 4825,
      "Ġsnertir": 4826,
      "ĠjÃºlÃŃ": 4827,
      "ĠFr": 4828,
      "Ġnefndir": 4829,
      "ĠfjÃ¶lga": 4830,
      "Ġtilviki": 4831,
      "vexti": 4832,
      "Ġundirstrika": 4833,
      "50": 4834,
      "rÃ³Ã°ur": 4835,
      "ĠhagkvÃ¦m": 4836,
      "Ġveruleika": 4837,
      "ĠEru": 4838,
      "janlegt": 4839,
      "ĠsjÃ³Ã°sins": 4840,
      "manns": 4841,
      "Ġneinn": 4842,
      "ĠmÃ¡lÃ¾Ã³f": 4843,
      "Ġnemur": 4844,
      "ĠsvariÃ°": 4845,
      "sÃ½ni": 4846,
      "ĠfulltrÃºum": 4847,
      "ĠreiknaÃ°": 4848,
      "ĠkjÃ³sendur": 4849,
      "ĠfrÃ³Ã°": 4850,
      "ĠÃºrlaus": 4851,
      "ĠendurnÃ½": 4852,
      "Ġflokkum": 4853,
      "rÃŃki": 4854,
      "ĠÃ½msu": 4855,
      "ĠstarfshÃ³p": 4856,
      "Ġmenntun": 4857,
      "Ġundanfarin": 4858,
      "ĠlesiÃ°": 4859,
      "ĠleiÃ°arljÃ³": 4860,
      "Ġhjar": 4861,
      "Ġhanda": 4862,
      "Ġfyll": 4863,
      "Ġtex": 4864,
      "Ã¶kk": 4865,
      "Ġlent": 4866,
      "Ġlanda": 4867,
      "ĠmÃ¡tt": 4868,
      "ĠKat": 4869,
      "Ġminnir": 4870,
      "ĠGunnarsson": 4871,
      "ĠfjÃ¶ldi": 4872,
      "ĠfjÃ¡rmÃ¡lafyrirtÃ¦ki": 4873,
      "ĠÃ¾v": 4874,
      "ĠÃ¡lita": 4875,
      "ĠmÃ¶rk": 4876,
      "lÃ¡na": 4877,
      "ĠhÃ¡skÃ³l": 4878,
      "mÃ¦lum": 4879,
      "hlutfall": 4880,
      "ĠsveitarfÃ©laganna": 4881,
      "ĠtÃºlkun": 4882,
      "sÃ¶fn": 4883,
      "ĠheiÃ°ar": 4884,
      "ĠkÃ¦r": 4885,
      "ĠhÃ¦f": 4886,
      "ĠEig": 4887,
      "Ġsamanbur": 4888,
      "jÃ³nusta": 4889,
      "Ġlausnir": 4890,
      "ĠsamhliÃ°a": 4891,
      "ĠpersÃ³nukjÃ¶r": 4892,
      "ĠhryÃ°juverk": 4893,
      "ĠKannski": 4894,
      "Ġhinna": 4895,
      "legrar": 4896,
      "Ġskilst": 4897,
      "Ġefnahagshrun": 4898,
      "ĠeinfÃ¶ld": 4899,
      "ĠsamfÃ©lagsins": 4900,
      "sjÃ³Ã°ur": 4901,
      "Ġbjart": 4902,
      "ĠÃ³Ã¾arf": 4903,
      "ĠÃ¡Ã¦tlaÃ°": 4904,
      "ĠsamgÃ¶ngurÃ¡Ã°herra": 4905,
      "ĠreiÃ°u": 4906,
      "ĠKatrÃŃ": 4907,
      "ĠÃ¡lag": 4908,
      "ĠviÃ°sta": 4909,
      "jÃ¡kvÃ¦m": 4910,
      "ĠlÃ¶gÃ°u": 4911,
      "ĠlÃŃkt": 4912,
      "breytingu": 4913,
      "ĠGuÃ°finn": 4914,
      "ĠÃĸg": 4915,
      "umhverfi": 4916,
      "ĠsÃ¶lu": 4917,
      "ĠlÃ¦r": 4918,
      "Ġfyrirhug": 4919,
      "ĠsÃ½n": 4920,
      "ĠsamfÃ©lags": 4921,
      "ĠÃ¡stÃ¦Ã°an": 4922,
      "ĠmarkmiÃ°um": 4923,
      "ĠsvokÃ¶lluÃ°u": 4924,
      "amÃ¶nnum": 4925,
      "Ġhepp": 4926,
      "leift": 4927,
      "ĠsamÃ¾ykkti": 4928,
      "Ġaukist": 4929,
      "ĠstjÃ³rnvÃ¶ldum": 4930,
      "ĠhljÃ³ta": 4931,
      "Ġevru": 4932,
      "Ġuppfylla": 4933,
      "ĠÃļt": 4934,
      "stir": 4935,
      "ĠgÃ¶": 4936,
      "Ġkunni": 4937,
      "Ġkol": 4938,
      "mÃ¡li": 4939,
      "engja": 4940,
      "ĠskipuÃ°": 4941,
      "ĠvikiÃ°": 4942,
      "ĠSeÃ°labankanum": 4943,
      "fundi": 4944,
      "ĠJÃ³nsson": 4945,
      "ĠlÃ¦kkaÃ°": 4946,
      "ĠforgangsrÃ¶Ã°": 4947,
      "ĠhÃ¶fuÃ°borgarsvÃ¦Ã°inu": 4948,
      "hall": 4949,
      "oss": 4950,
      "Ġham": 4951,
      "Ġteldi": 4952,
      "afni": 4953,
      "Ġbreytir": 4954,
      "ĠverkefniÃ°": 4955,
      "Ġkynn": 4956,
      "aÃ°ilum": 4957,
      "Ġdeila": 4958,
      "ĠfljÃ³t": 4959,
      "ĠtÃ³n": 4960,
      "bb": 4961,
      "sen": 4962,
      "syni": 4963,
      "Ġveig": 4964,
      "Ã¶flun": 4965,
      "ĠalvÃ¶ru": 4966,
      "ĠÃ¾Ã³tti": 4967,
      "ĠÃ¾rÃ½st": 4968,
      "ĠrÃ¡Ã°herrum": 4969,
      "ĠgagnrÃ½na": 4970,
      "ĠskoriÃ°": 4971,
      "ptember": 4972,
      "pi": 4973,
      "Ġung": 4974,
      "ĠhlÃŃ": 4975,
      "ndi": 4976,
      "slug": 4977,
      "ĠÃŃslenskri": 4978,
      "Ġseptember": 4979,
      "ĠkjÃ¶rtÃŃmabil": 4980,
      "Ġflug": 4981,
      "Ã¦nda": 4982,
      "ĠhÃ³pur": 4983,
      "Ġbindandi": 4984,
      "ĠviÃ°auka": 4985,
      "ĠhÃ©raÃ°sdÃ³m": 4986,
      "ekt": 4987,
      "ulltrÃº": 4988,
      "ĠstjÃ³rnarskrÃ¡rbreytingar": 4989,
      "ĠsvokallaÃ°": 4990,
      "ĠliÃ°ur": 4991,
      "Ġkenna": 4992,
      "ĠskÃ¶mm": 4993,
      "ĠLÃŃ": 4994,
      "velt": 4995,
      "ĠÃ¶rfÃ¡": 4996,
      "ĠkrÃ³na": 4997,
      "ĠnÃ¡Ã°st": 4998,
      "ĠÃ¡nÃ¦gjulegt": 4999,
      "ĠlÃ¡nshÃ¦": 5000,
      "ĠÃģstÃ¦Ã°an": 5001,
      "30": 5002,
      "jaf": 5003,
      "ĠC": 5004,
      "naÃ°inn": 5005,
      "ĠstjÃ³rnarskrÃ¡in": 5006,
      "Ġlofti": 5007,
      "Ġendurreisa": 5008,
      "Ġtonn": 5009,
      "ĠsÃ³knar": 5010,
      "ttar": 5011,
      "Ġkleift": 5012,
      "Ġundar": 5013,
      "Ġbyggingar": 5014,
      "Ġbankar": 5015,
      "Ġvandlega": 5016,
      "ĠPÃ¡l": 5017,
      "ĠhljÃ³ti": 5018,
      "ĠverÃ°bÃ³lgu": 5019,
      "Ã¶ryggi": 5020,
      "hliÃ°": 5021,
      "Ġafh": 5022,
      "ĠHreyf": 5023,
      "ustur": 5024,
      "ĠsjÃ³n": 5025,
      "ĠfjÃ¶lmar": 5026,
      "ĠSigf": 5027,
      "ĠrÃŃkisÃ¡byrgÃ°in": 5028,
      "ĠÃ³hjÃ¡kvÃ¦m": 5029,
      "ĠÃºtgjalda": 5030,
      "sel": 5031,
      "stÃ¶Ã°ur": 5032,
      "ĠVissulega": 5033,
      "ldum": 5034,
      "ĠfjallaÃ°i": 5035,
      "ĠtÃ¶lum": 5036,
      "ĠÃŀÃ³rÃ°ar": 5037,
      "ĠframtÃŃÃ°ina": 5038,
      "Ġfylgst": 5039,
      "Ã¶nnun": 5040,
      "ĠrÃŃkisstjÃ³rnarflokkanna": 5041,
      "Ġvegi": 5042,
      "list": 5043,
      "Ġskattar": 5044,
      "Ġvakti": 5045,
      "uppbygg": 5046,
      "Ã¦Ã°u": 5047,
      "Ġkosta": 5048,
      "speg": 5049,
      "ĠvÃ¦nti": 5050,
      "ĠniÃ°urskurÃ°i": 5051,
      "ĠAllir": 5052,
      "199": 5053,
      "Ġafnema": 5054,
      "dÃ½r": 5055,
      "heit": 5056,
      "ĠsÃ³l": 5057,
      "aleiÃ°": 5058,
      "Ã¾Ã½": 5059,
      "ĠÃŀessar": 5060,
      "Ġrekja": 5061,
      "ĠstÃ¦rstu": 5062,
      "ĠrÃ¦ddum": 5063,
      "ĠBjÃ¶rn": 5064,
      "ĠNorÃ°urlÃ¶ndunum": 5065,
      "hygg": 5066,
      "ĠlÃ©tt": 5067,
      "ĠgjÃ¶ld": 5068,
      "skum": 5069,
      "ĠÃ¾ingskÃ¶p": 5070,
      "ĠgerÃ°ir": 5071,
      "ĠpÃ³litÃŃk": 5072,
      "Ġendurspeg": 5073,
      "Ġfengu": 5074,
      "Ġlagasetningu": 5075,
      "ĠstjÃ³rnmÃ¡lamenn": 5076,
      "ĠÃ¾rÃ³unar": 5077,
      "ĠhlutafÃ©lÃ¶g": 5078,
      "Ġhorfast": 5079,
      "sinn": 5080,
      "Ġris": 5081,
      "Ġtakmarka": 5082,
      "Ġforeld": 5083,
      "Ġseint": 5084,
      "Ġleggjast": 5085,
      "ĠtÃ³kst": 5086,
      "Ġstefnt": 5087,
      "ĠsjÃ¡varÃºtvegsrÃ¡Ã°herra": 5088,
      "Ġ90": 5089,
      "yfirlÃ½s": 5090,
      "upÃ³": 5091,
      "ĠhÃºsnÃ¦Ã°is": 5092,
      "ĠÃºtilo": 5093,
      "Ġsorg": 5094,
      "anlegar": 5095,
      "strygg": 5096,
      "Ġskuldar": 5097,
      "Ġlos": 5098,
      "Ġeinstakling": 5099,
      "Ġlykta": 5100,
      "ĠÃ¶ryggis": 5101,
      "Ġatvikum": 5102,
      "gunar": 5103,
      "aÃ°gerÃ°ir": 5104,
      "agni": 5105,
      "skj": 5106,
      "ĠHug": 5107,
      "inat": 5108,
      "ĠsjÃ¡lfa": 5109,
      "Ġskipu": 5110,
      "framkvÃ¦md": 5111,
      "ĠHollandi": 5112,
      "Ġupphaflega": 5113,
      "Ġbestu": 5114,
      "ĠHelga": 5115,
      "Ã¾rÃ³un": 5116,
      "jist": 5117,
      "ĠÃ¾Ã¦ttir": 5118,
      "ĠharÃ°": 5119,
      "amÃ¶r": 5120,
      "ĠbjÃ¶r": 5121,
      "ĠskÃ³la": 5122,
      "ĠÃ¡rÃ©tta": 5123,
      "Ġfullri": 5124,
      "ĠLÃ¶g": 5125,
      "ĠverÃ°lag": 5126,
      "grund": 5127,
      "Ġalmenningi": 5128,
      "ĠaugljÃ³slega": 5129,
      "ĠfjÃ¡rlagafrumvarpinu": 5130,
      "ĠbÃ¶rn": 5131,
      "ĠhundruÃ°": 5132,
      "Ġkey": 5133,
      "ĠdÃ½": 5134,
      "ĠsamfÃ©lagiÃ°": 5135,
      "stofnana": 5136,
      "Ġgleym": 5137,
      "ĠAnnaÃ°": 5138,
      "bÃ½": 5139,
      "hÃº": 5140,
      "vall": 5141,
      "Ġendanum": 5142,
      "Ġskilningur": 5143,
      "ĠauÃ°velt": 5144,
      "Ġengum": 5145,
      "Ġ70": 5146,
      "ĠgagnrÃ½nt": 5147,
      "Ġ2011": 5148,
      "Ġflutningsmenn": 5149,
      "ĠstÃŃga": 5150,
      "fÃ¶ll": 5151,
      "sjÃ¡": 5152,
      "ĠrÃ¶Ã°": 5153,
      "ĠstÃ¶Ã°um": 5154,
      "ĠeinstÃ¶k": 5155,
      "firÃ°i": 5156,
      "ĠÃ¡kvaÃ°": 5157,
      "Ġheimi": 5158,
      "Ġfullv": 5159,
      "Ġberum": 5160,
      "ĠÃ¾rjÃ¡r": 5161,
      "Ġlitlu": 5162,
      "ĠundirbÃºa": 5163,
      "ĠkjÃ³senda": 5164,
      "ĠfullyrÃ°a": 5165,
      "ĠAtvinnu": 5166,
      "ĠbeiÃ°ni": 5167,
      "ĠÃ¡byr": 5168,
      "Ã³s": 5169,
      "ĠrÃ½": 5170,
      "alaus": 5171,
      "ppa": 5172,
      "Ġhverjar": 5173,
      "itÃ¶lu": 5174,
      "Ġspr": 5175,
      "ĠMÃ¡": 5176,
      "tanir": 5177,
      "Ġsamningunum": 5178,
      "Ġgreininni": 5179,
      "Ġ2006": 5180,
      "ĠtryggingarsjÃ³Ã°": 5181,
      "ĠÃ¾akk": 5182,
      "ĠÃ¾jÃ³Ã°aratkvÃ¦Ã°agreiÃ°sla": 5183,
      "ĠfjÃ¡rmÃ¡lafyrirtÃ¦kja": 5184,
      "ĠkjÃ¶lfariÃ°": 5185,
      "isrÃ¡Ã°uneytinu": 5186,
      "ĠHarÃ°ar": 5187,
      "Ġanda": 5188,
      "unandi": 5189,
      "Ġbei": 5190,
      "ĠviÃ°kvÃ¦m": 5191,
      "Ġ27": 5192,
      "Ġtali": 5193,
      "Ġmuna": 5194,
      "Ġforsenda": 5195,
      "eigandi": 5196,
      "Ġaukin": 5197,
      "fariÃ°": 5198,
      "Ġopinberra": 5199,
      "stÃ¶Ã°var": 5200,
      "ĠbrÃ½n": 5201,
      "ĠÃ¾jÃ³Ã°arbÃºsins": 5202,
      "Ġhreinu": 5203,
      "Ã¾Ã½Ã°u": 5204,
      "ĠrÃŃ": 5205,
      "skeiÃ°": 5206,
      "ĠeinstÃ¶kum": 5207,
      "ĠuppgjÃ¶r": 5208,
      "Ġsegjum": 5209,
      "ĠtÃŃminn": 5210,
      "Ã³tum": 5211,
      "ĠviÃ°skiptar": 5212,
      "ĠheilbrigÃ°isÃ¾jÃ³nustu": 5213,
      "Ġneyslu": 5214,
      "ĠnÃ¡ttÃºruverndar": 5215,
      "ĠsvÃ¦Ã°um": 5216,
      "ĠÃ¡sÃ¦tt": 5217,
      "Ã³ll": 5218,
      "ĠHeyr": 5219,
      "tanum": 5220,
      "ĠstarfaÃ°": 5221,
      "ĠstjÃ³rnmÃ¡lum": 5222,
      "ĠrÃ¡Ã°uneytinu": 5223,
      "ĠÃ³Ã¡sÃ¦tt": 5224,
      "ĠfjÃ¶ll": 5225,
      "Ġbyggist": 5226,
      "gerÃ°um": 5227,
      "samningnum": 5228,
      "Ġlitla": 5229,
      "Ġstofna": 5230,
      "ĠÃºtgjÃ¶ldum": 5231,
      "ĠtÃŃmabundiÃ°": 5232,
      "ĠtÃ¶lvupÃ³": 5233,
      "Ġvin": 5234,
      "aley": 5235,
      "Ġeftirfarandi": 5236,
      "sjÃ³Ã°s": 5237,
      "ĠÃ¡litamÃ¡l": 5238,
      "Ġmissa": 5239,
      "Ġgjaldeyri": 5240,
      "Ġgaman": 5241,
      "Ġsameiginlega": 5242,
      "iv": 5243,
      "Ġtilfinn": 5244,
      "slynd": 5245,
      "Ġskulu": 5246,
      "Ġendurheim": 5247,
      "ĠRag": 5248,
      "ĠÃŀessu": 5249,
      "ĠflÃ³kiÃ°": 5250,
      "ĠÃ¾verpÃ³litÃŃ": 5251,
      "Ã¶skuld": 5252,
      "slna": 5253,
      "ĠHjÃ¶r": 5254,
      "ĠÃºtt": 5255,
      "ilegu": 5256,
      "ĠlÃ¶gÃ°um": 5257,
      "ĠBorg": 5258,
      "Ġfulla": 5259,
      "spyr": 5260,
      "samningana": 5261,
      "ĠkveÃ°a": 5262,
      "Ã¡Ã¦tl": 5263,
      "Ġframan": 5264,
      "ĠAuk": 5265,
      "Ġskuldast": 5266,
      "ĠerfiÃ°leika": 5267,
      "Ġfelast": 5268,
      "Ġvaxandi": 5269,
      "ĠfjÃ¡rmÃ¶gnun": 5270,
      "Ġsent": 5271,
      "ĠevrÃ³p": 5272,
      "Ġhaus": 5273,
      "Ġnafn": 5274,
      "ĠstoÃ°": 5275,
      "ĠSiv": 5276,
      "Ġhvern": 5277,
      "ĠGetur": 5278,
      "ÃºtgjÃ¶ld": 5279,
      "ĠhlÃ©": 5280,
      "ĠBjarnason": 5281,
      "ĠaÃ°stÃ¦Ã°na": 5282,
      "ĠÃ¡lyktun": 5283,
      "ĠFriÃ°leif": 5284,
      "ĠÃ¾rjÃ¡": 5285,
      "bÃ¦rt": 5286,
      "ĠÃ³sann": 5287,
      "ĠinnleiÃ°a": 5288,
      "Ġhley": 5289,
      "arahreyf": 5290,
      "nuÃ°u": 5291,
      "Ġspor": 5292,
      "ĠgildistÃ¶k": 5293,
      "ĠtÃ¶ldu": 5294,
      "ĠskapaÃ°": 5295,
      "ĠaÃ°allega": 5296,
      "magn": 5297,
      "ĠmeÃ°fÃ¶rum": 5298,
      "ĠSch": 5299,
      "ĠnÃ½rra": 5300,
      "ĠrÃ©ttur": 5301,
      "Ġslepp": 5302,
      "Ġborist": 5303,
      "ĠbreytingartillÃ¶gum": 5304,
      "Ġfallast": 5305,
      "ĠinnstÃ¦Ã°ueigenda": 5306,
      "ĠÃ¡greining": 5307,
      "fyrirtÃ¦ki": 5308,
      "Ġendurskipulagningu": 5309,
      "ĠhrÃ¦Ã°": 5310,
      "Ġvissu": 5311,
      "astjÃ³": 5312,
      "Ġskilningi": 5313,
      "Ġfylgt": 5314,
      "Ġaugum": 5315,
      "ĠlÃ½Ã°rÃ¦Ã°i": 5316,
      "Ġrannsak": 5317,
      "ĠgÃ³Ã°ri": 5318,
      "ĠsparisjÃ³Ã°a": 5319,
      "ĠeignarrÃ©tt": 5320,
      "mikil": 5321,
      "Ġtoga": 5322,
      "ĠBorgarahreyf": 5323,
      "Ġvafi": 5324,
      "ttur": 5325,
      "ĠrÃŃkjum": 5326,
      "ĠAlÃ¾Ã½Ã°u": 5327,
      "jÃºp": 5328,
      "ĠkrÃ³nu": 5329,
      "ĠSigurÃ°ur": 5330,
      "ĠsparisjÃ³Ã°anna": 5331,
      "skÃ¶punar": 5332,
      "Ġveitir": 5333,
      "ĠfljÃ³tt": 5334,
      "vextir": 5335,
      "ĠkÃ¦mu": 5336,
      "ĠÃ¾jÃ³": 5337,
      "Ġskylt": 5338,
      "ingarnar": 5339,
      "astefnu": 5340,
      "Ġeinkenn": 5341,
      "ĠgleÃ°": 5342,
      "ĠHannesson": 5343,
      "ĠFrjÃ¡l": 5344,
      "ĠHjÃ¶rvar": 5345,
      "safn": 5346,
      "aliÃ°": 5347,
      "ĠhafnaÃ°": 5348,
      "ĠSÃ©r": 5349,
      "ĠhÃ¶fÃ°": 5350,
      "ĠÃŃslenskir": 5351,
      "gerÃ°ur": 5352,
      "Ġmeginat": 5353,
      "ĠÃ¾Ã¡ttur": 5354,
      "ĠÃĵlaf": 5355,
      "gan": 5356,
      "tun": 5357,
      "Ġgrun": 5358,
      "ĠheyrÃ°i": 5359,
      "ĠÃ¡ttum": 5360,
      "ĠtÃ¦kn": 5361,
      "Ġopinberum": 5362,
      "ĠrÃŃkisÃ¡byrgÃ°ina": 5363,
      "sfyrirtÃ¦k": 5364,
      "greina": 5365,
      "ĠstjÃ³rnmÃ¡laflokka": 5366,
      "Ġhlutanum": 5367,
      "ĠupphÃ¦Ã°ir": 5368,
      "ĠVestf": 5369,
      "bÃ¡": 5370,
      "hit": 5371,
      "ÃŃn": 5372,
      "amiÃ°": 5373,
      "afir": 5374,
      "ĠhafiÃ°": 5375,
      "undar": 5376,
      "ĠÃ¶f": 5377,
      "astarf": 5378,
      "ĠhrÃ¦dd": 5379,
      "akerfi": 5380,
      "skyldu": 5381,
      "Ġstuttu": 5382,
      "ĠboÃ°aÃ°": 5383,
      "nÃ¡mi": 5384,
      "ĠbÃ¦ndur": 5385,
      "ĠslÃ¦mt": 5386,
      "ĠfÃ¶stu": 5387,
      "junar": 5388,
      "ĠÃ¾re": 5389,
      "ĠÃ¾jÃ³nust": 5390,
      "ĠfrÃ¡l": 5391,
      "afÃ©lag": 5392,
      "ĠBa": 5393,
      "âĢľ,": 5394,
      "ĠÃ½msa": 5395,
      "ĠmarkaÃ°s": 5396,
      "ĠfÃ¦kk": 5397,
      "ĠfulltrÃºi": 5398,
      "breyting": 5399,
      "ĠmaÃŃ": 5400,
      "Ġstrand": 5401,
      "Ġfur": 5402,
      "Ġfort": 5403,
      "Ġafsal": 5404,
      "Ġgjalda": 5405,
      "ĠvitaÃ°": 5406,
      "ĠStef": 5407,
      "ĠÃ¾Ã½Ã°a": 5408,
      "Ġregluverk": 5409,
      "dÃ³mstÃ³l": 5410,
      "kostnaÃ°ur": 5411,
      "Ġmisskilningur": 5412,
      "hÃ¶nd": 5413,
      "niÃ°": 5414,
      "ĠveiÃ°ar": 5415,
      "Ġbe": 5416,
      "skar": 5417,
      "ĠvariÃ°": 5418,
      "ningum": 5419,
      "Ġhugar": 5420,
      "ĠorÃ°inn": 5421,
      "koma": 5422,
      "ĠskÃ½rsla": 5423,
      "Ġefnahagslega": 5424,
      "ĠÃ¾rota": 5425,
      "ĠNÃºna": 5426,
      "ĠnauÃ°synlegar": 5427,
      "ĠskilyrÃ°um": 5428,
      "Ġupplif": 5429,
      "ĠvaraformaÃ°ur": 5430,
      "ĠeindregiÃ°": 5431,
      "ĠstÃ¦Ã°i": 5432,
      "raum": 5433,
      "ĠvÃŃst": 5434,
      "ĠkrÃ¶fum": 5435,
      "ĠskrifaÃ°i": 5436,
      "ĠfjÃ³rum": 5437,
      "ĠstofnaÃ°": 5438,
      "ĠfjÃ¡rmÃ¡larÃ¡Ã°uneytinu": 5439,
      "ĠframbjÃ³Ã°": 5440,
      "ĠÃ¾rotabÃº": 5441,
      "otum": 5442,
      "Ġbann": 5443,
      "Ġmiklir": 5444,
      "ĠskÃ½ringar": 5445,
      "Ġ2003": 5446,
      "Ġ300": 5447,
      "ĠsvaraÃ°i": 5448,
      "Ġsumum": 5449,
      "ĠrÃ¶kum": 5450,
      "stofa": 5451,
      "Ġneyt": 5452,
      "ĠviÃ°urkenn": 5453,
      "ĠandstÃ¶Ã°u": 5454,
      "ĠpÃ³litÃŃskt": 5455,
      "ĠalÃ¾ingiskosning": 5456,
      "Ã¦kkun": 5457,
      "ĠfrÃŃst": 5458,
      "Ġmissirum": 5459,
      "Ġvest": 5460,
      "irÃŃk": 5461,
      "Ġskjal": 5462,
      "ĠÃ¶ld": 5463,
      "ĠÃºtgerÃ°ar": 5464,
      "ĠMiÃ°": 5465,
      "ĠbrjÃ³": 5466,
      "ĠsÃ½slum": 5467,
      "ĠlÃ¦ra": 5468,
      "byggÃ°ar": 5469,
      "virkjun": 5470,
      "Ġleigu": 5471,
      "ĠgagnsÃ¦i": 5472,
      "ĠOrku": 5473,
      "Ġvarla": 5474,
      "ekju": 5475,
      "ilegur": 5476,
      "Ġplag": 5477,
      "ĠlÃŃÃ°a": 5478,
      "Ġskipan": 5479,
      "ĠorÃ°alag": 5480,
      "ddu": 5481,
      "ĠmÃ¶guleiki": 5482,
      "ĠtilbÃºinn": 5483,
      "ĠprÃ³fkjÃ¶r": 5484,
      "ĠIngadÃ³ttir": 5485,
      "Ġmerki": 5486,
      "gert": 5487,
      "smiÃ°": 5488,
      "stil": 5489,
      "ĠÃ¡standi": 5490,
      "Ġteg": 5491,
      "amaÃ°ur": 5492,
      "ĠskaÃ°": 5493,
      "ĠmÃ¡lstaÃ°": 5494,
      "Ġkomst": 5495,
      "Ã¾ekk": 5496,
      "Ã³lf": 5497,
      "Ġnefnda": 5498,
      "Ġverklag": 5499,
      "Ġseinni": 5500,
      "Ġsettur": 5501,
      "kuld": 5502,
      "ĠaldraÃ°": 5503,
      "tekjum": 5504,
      "ĠÃ¾Ã¡tttÃ¶ku": 5505,
      "ĠliÃ°num": 5506,
      "bÃ³tum": 5507,
      "ĠkrÃ¶fuhafa": 5508,
      "ĠHÃ¡skÃ³la": 5509,
      "ĠtÃ¦kifÃ¦riÃ°": 5510,
      "ĠviÃ°horf": 5511,
      "ĠlÃ¡nshÃ¦fis": 5512,
      "du": 5513,
      "mÃ¡": 5514,
      "ĠhraÃ°a": 5515,
      "ĠBirk": 5516,
      "ĠnÃ½rri": 5517,
      "Ġsamningsins": 5518,
      "ĠLÃºÃ°": 5519,
      "Ġ2005": 5520,
      "Ġheimilunum": 5521,
      "ĠKo": 5522,
      "hÃ¦ft": 5523,
      "Ġeinstaklingum": 5524,
      "ĠheilbrigÃ°isÃ¾jÃ³nust": 5525,
      "ĠsveitarstjÃ³r": 5526,
      "ĠBjÃ¶rgvin": 5527,
      "ĠfÃ¦Ã°ingarorlof": 5528,
      "og": 5529,
      "rÃ¦n": 5530,
      "vi": 5531,
      "ĠsvÃŃ": 5532,
      "ĠhÃ¶ldum": 5533,
      "ĠvirÃ°uleg": 5534,
      "Ġvernda": 5535,
      "skr": 5536,
      "ĠÃ¾ingst": 5537,
      "Ã¾inginu": 5538,
      "Ġ26": 5539,
      "ĠlÃ¡nt": 5540,
      "Ġreynum": 5541,
      "ĠÃŃslenskan": 5542,
      "ĠslÃŃkra": 5543,
      "Ġauki": 5544,
      "ĠsparnaÃ°": 5545,
      "ĠkjÃ¶rdÃ¦m": 5546,
      "Ġsitjum": 5547,
      "ĠrÃ¡Ã°ist": 5548,
      "Ġhyggst": 5549,
      "ĠstofnfjÃ¡reig": 5550,
      "ĠtÃŃmabili": 5551,
      "ĠFrjÃ¡lslynd": 5552,
      "Ġvins": 5553,
      "ssa": 5554,
      "ĠbrÃº": 5555,
      "Ġverri": 5556,
      "ĠsamgÃ¶ngu": 5557,
      "Ġvonir": 5558,
      "ĠfjÃ¡rfestingu": 5559,
      "Ġreynst": 5560,
      "ĠÃ¡ratugum": 5561,
      "mÃ¦t": 5562,
      "Ġumb": 5563,
      "katt": 5564,
      "Ġeigend": 5565,
      "ĠinnstÃ¦Ã°ur": 5566,
      "brot": 5567,
      "ĠOkkur": 5568,
      "ĠÃ½missa": 5569,
      "ĠupplÃ½sing": 5570,
      "Ġlanga": 5571,
      "ĠsvÃ¶rin": 5572,
      "ĠÃ¾ingsalnum": 5573,
      "ĠÃŃbÃºÃ°ar": 5574,
      "ĠmÃ¡lflutningur": 5575,
      "ĠframkvÃ¦mdarvaldinu": 5576,
      "ĠbankakerfiÃ°": 5577,
      "Ġkrefjast": 5578,
      "ĠnÃ¡granna": 5579,
      "aÃ°ri": 5580,
      "Ġsamv": 5581,
      "ĠeigiÃ°": 5582,
      "Ġhlutur": 5583,
      "ĠlÃ¶gfest": 5584,
      "Ġendanlega": 5585,
      "ĠrÃ¡Ã°um": 5586,
      "Ġleggi": 5587,
      "ĠgÃ³Ã°an": 5588,
      "Ġlandsmanna": 5589,
      "ĠÃ³skil": 5590,
      "ĠÃ¡hyggjum": 5591,
      "ĠhlÃ½t": 5592,
      "Ġblekk": 5593,
      "urkjÃ¶r": 5594,
      "ĠglÃ¦": 5595,
      "ĠmÃ¡lefnalega": 5596,
      "ĠnÃ¡lgun": 5597,
      "ĠAnnars": 5598,
      "ĠrÃºmlega": 5599,
      "Ã¡stand": 5600,
      "ĠbÃ³": 5601,
      "ĠÃģs": 5602,
      "sÃ¶gnum": 5603,
      "gangur": 5604,
      "Ġauknar": 5605,
      "Ġ79": 5606,
      "ĠhliÃ°sjÃ³n": 5607,
      "starÃ©ttar": 5608,
      "ĠnÃ¡nari": 5609,
      "astofnun": 5610,
      "ĠÃ¡standiÃ°": 5611,
      "ĠklÃ¡rt": 5612,
      "ĠHerbert": 5613,
      "ĠviÃ°amik": 5614,
      "jÃ¶ri": 5615,
      "ĠRÃ©tt": 5616,
      "Ġatvinnulaus": 5617,
      "fÃ©": 5618,
      "Ġheit": 5619,
      "ilegri": 5620,
      "ĠnÃ¡Ã°ist": 5621,
      "Ġendurtek": 5622,
      "fjÃ¡rm": 5623,
      "ĠnÃ¦rri": 5624,
      "ĠgjaldÃ¾rot": 5625,
      "ĠUndir": 5626,
      "leit": 5627,
      "ĠHitt": 5628,
      "Ġlagafrumvarp": 5629,
      "ĠÃ¾ingmanninum": 5630,
      "ĠgreiÃ°slum": 5631,
      "ĠstÃ³rkost": 5632,
      "Ġ31": 5633,
      "Ġfengi": 5634,
      "ĠstÃ³Ã°u": 5635,
      "Ġtryggingagjald": 5636,
      "ĠGrÃ©": 5637,
      "Ã¡hrif": 5638,
      "ĠmÃ¡naÃ°a": 5639,
      "ĠfrÃ³Ã°legt": 5640,
      "fyrir": 5641,
      "Ġ..": 5642,
      "ĠhjÃ³": 5643,
      "samkomulag": 5644,
      "ĠflÃ¦k": 5645,
      "ĠframkvÃ¦mdastjÃ³": 5646,
      "Ġvandinn": 5647,
      "Ġnokkurra": 5648,
      "ĠstjÃ³rnarskrÃ¡rnefnd": 5649,
      "ĠÃ¾ingflokks": 5650,
      "Ġframhalds": 5651,
      "ĠstaÃ°festa": 5652,
      "ĠvinnumarkaÃ°i": 5653,
      "Ġaxla": 5654,
      "ĠleiÃ°arljÃ³si": 5655,
      "ba": 5656,
      "Ã°iÃ°": 5657,
      "Ġvef": 5658,
      "stoÃ°": 5659,
      "eta": 5660,
      "afÃ³lk": 5661,
      "lug": 5662,
      "Ã¶fur": 5663,
      "Ġlagalega": 5664,
      "ĠendurgreiÃ°slu": 5665,
      "Ġundantek": 5666,
      "Ġtvennt": 5667,
      "Ġerlendu": 5668,
      "ĠÃ¾ingflokka": 5669,
      "ĠPÃ©tri": 5670,
      "ĠkjararÃ¡Ã°": 5671,
      "ĠsjÃºkraskrÃ¡r": 5672,
      "landa": 5673,
      "nÃº": 5674,
      "Ġeyk": 5675,
      "Ġneit": 5676,
      "Ġka": 5677,
      "Ġskort": 5678,
      "ĠAustur": 5679,
      "ĠmÃ¡tti": 5680,
      "Ġgegna": 5681,
      "Ġmundir": 5682,
      "ĠBergvin": 5683,
      "garÃ°": 5684,
      "ĠlÃ¡t": 5685,
      "ĠrÃ©ttilega": 5686,
      "Ġverki": 5687,
      "skatti": 5688,
      "ĠHvort": 5689,
      "ĠrÃ¶kstu": 5690,
      "ĠhagsmunaaÃ°ila": 5691,
      "ĠsÃŃÃ°astliÃ°": 5692,
      "ĠhlutafÃ©laga": 5693,
      "ĠfullnÃ¦gjandi": 5694,
      "ĠsjÃ³nvarp": 5695,
      "aÃ°ild": 5696,
      "Ġhita": 5697,
      "ndal": 5698,
      "Ã½s": 5699,
      "ĠdÃ³msmÃ¡l": 5700,
      "ĠfjÃ¡rmunum": 5701,
      "ĠnÃ¡msmanna": 5702,
      "ĠgreinargerÃ°inni": 5703,
      "ĠÃºtfÃ¦rslu": 5704,
      "ĠdÃ½p": 5705,
      "ĠÃ¾ung": 5706,
      "Ġfinni": 5707,
      "ĠknÃ½": 5708,
      "listar": 5709,
      "ĠalfariÃ°": 5710,
      "Ġendurtaka": 5711,
      "ĠÃ½ta": 5712,
      "Ġlokinni": 5713,
      "ĠatvinnulÃŃfi": 5714,
      "ĠefnisatriÃ°i": 5715,
      "Ġhinir": 5716,
      "Ã¡rust": 5717,
      "ĠÃĸll": 5718,
      "Ġaflaheimild": 5719,
      "ĠeinkavÃ¦Ã°": 5720,
      "ĠatkvÃ¦Ã°a": 5721,
      "ĠgildistÃ¶ku": 5722,
      "fur": 5723,
      "tÃŃÃ°": 5724,
      "ĠbÃ¡rust": 5725,
      "ĠsamtÃ¶k": 5726,
      "Ġframl": 5727,
      "Ã¡Ã°u": 5728,
      "ĠÃ³um": 5729,
      "ĠlÃŃklegt": 5730,
      "ĠskoÃ°unum": 5731,
      "Ġgefi": 5732,
      "Ġverulegar": 5733,
      "2008": 5734,
      "Ġallsherjarnefndar": 5735,
      "ĠJÃºlÃŃu": 5736,
      "ĠrÃ¦kilega": 5737,
      "ls": 5738,
      "Ġgag": 5739,
      "agerÃ°ar": 5740,
      "verÃ°a": 5741,
      "angur": 5742,
      "tans": 5743,
      "vÃ¦gi": 5744,
      "ĠvitnaÃ°": 5745,
      "ĠauÃ°lindum": 5746,
      "hÃºsn": 5747,
      "Ġleiddi": 5748,
      "isrÃ¡Ã°uneytisins": 5749,
      "ĠBenediktsson": 5750,
      "sÃ¶lu": 5751,
      "samstarf": 5752,
      "Ġflokkurinn": 5753,
      "ĠÃ¡herslur": 5754,
      "ĠrÃ¡Ã°uneytisins": 5755,
      "ce": 5756,
      "punk": 5757,
      "rÃ¦k": 5758,
      "Ã¡byrg": 5759,
      "yrkja": 5760,
      "ĠHa": 5761,
      "ĠEÃ°a": 5762,
      "ĠstjÃ³rnmÃ¡la": 5763,
      "Ġreyni": 5764,
      "atriÃ°iÃ°": 5765,
      "Ġskattheim": 5766,
      "ĠfundiÃ°": 5767,
      "ĠsÃ½ni": 5768,
      "Ġfaglega": 5769,
      "felld": 5770,
      "reikninga": 5771,
      "Ġrakti": 5772,
      "ĠseÃ°labankastjÃ³ra": 5773,
      "ĠLÃŃndal": 5774,
      "24": 5775,
      "not": 5776,
      "Ġreis": 5777,
      "Ġversl": 5778,
      "ĠframkvÃ¦m": 5779,
      "Ġafborg": 5780,
      "ĠHaf": 5781,
      "alda": 5782,
      "Ġskuldara": 5783,
      "ĠSchram": 5784,
      "frumvarp": 5785,
      "ĠAkur": 5786,
      "ĠrÃŃkisrek": 5787,
      "Ġeftirspur": 5788,
      "ĠÃ¾jÃ³Ã°hags": 5789,
      "Ġmarka": 5790,
      "Ġeinhverra": 5791,
      "ĠInd": 5792,
      "ĠfjÃ¡rlagagerÃ°": 5793,
      "ĠBretlands": 5794,
      "Ġfylgi": 5795,
      "breytingum": 5796,
      "ĠtrÃºa": 5797,
      "irkju": 5798,
      "Ġlaunum": 5799,
      "ĠstÃ¶Ã°una": 5800,
      "ĠÃ³mÃ¶gu": 5801,
      "ĠÃ¾yn": 5802,
      "Ġtug": 5803,
      "Ġlif": 5804,
      "ĠsamdrÃ¡tt": 5805,
      "elsi": 5806,
      "ĠHall": 5807,
      "ĠSa": 5808,
      "ĠLjÃ³st": 5809,
      "Ġflokkanna": 5810,
      "Ġspurninga": 5811,
      "ĠÃ¾yrftum": 5812,
      "ĠlÃŃfeyris": 5813,
      "Ġkosningabar": 5814,
      "strÃ¦ti": 5815,
      "ĠÃ³skÃ¶punum": 5816,
      "ĠrÃ¡Ã°stÃ¶funar": 5817,
      "ĠMikil": 5818,
      "Ġumfangsmik": 5819,
      "Ã¾ega": 5820,
      "Ġveigamik": 5821,
      "Ġverra": 5822,
      "afjÃ¡r": 5823,
      "ĠlagÃ°ur": 5824,
      "ĠIll": 5825,
      "ĠframkvÃ¦mdum": 5826,
      "ĠÃ³venju": 5827,
      "Ġskemmt": 5828,
      "ris": 5829,
      "sjÃºk": 5830,
      "Ġerindi": 5831,
      "egin": 5832,
      "Ã¡liti": 5833,
      "etu": 5834,
      "ĠskrÃ¡Ã°": 5835,
      "ĠafsÃ¶k": 5836,
      "ĠsÃ©rstÃ¶kum": 5837,
      "ĠforrÃ¦Ã°i": 5838,
      "ĠlÃ½si": 5839,
      "ĠfyrirtÃ¦kjanna": 5840,
      "Ġgefin": 5841,
      "ĠlÃŃffÃ¦r": 5842,
      "vÃ¶runum": 5843,
      "ĠauglÃ½": 5844,
      "Ġsinnt": 5845,
      "ĠÃ¾riÃ°ju": 5846,
      "ĠfjÃ¶lmiÃ°la": 5847,
      "ĠlÃ¡nshÃ¦fismat": 5848,
      "lÃ¦k": 5849,
      "nanna": 5850,
      "veiÃ°": 5851,
      "ĠtjÃ³n": 5852,
      "ĠsjÃ¡lfbÃ¦r": 5853,
      "Ġreynir": 5854,
      "ĠEngu": 5855,
      "ĠbyggÃ°ir": 5856,
      "Ãºtvarp": 5857,
      "valdiÃ°": 5858,
      "Ġaukast": 5859,
      "Ġbreskum": 5860,
      "ĠrÃ©ttlÃ¦t": 5861,
      "Ġvist": 5862,
      "Ġgalla": 5863,
      "ĠbÃ¦tur": 5864,
      "Ġbinda": 5865,
      "ĠskrÃ½": 5866,
      "elf": 5867,
      "ĠeinhliÃ°a": 5868,
      "ĠÃ³rÃ©tt": 5869,
      "asti": 5870,
      "ĠrÃ¡Ã°iÃ°": 5871,
      "Ġforsend": 5872,
      "ĠnauÃ°synleg": 5873,
      "Ġerlendir": 5874,
      "ĠfÃ¦rÃ°": 5875,
      "Ġbyrj": 5876,
      "hlutverk": 5877,
      "ĠÃºtibÃº": 5878,
      "kostnaÃ°i": 5879,
      "ĠAtli": 5880,
      "Ġfyrirkomulagi": 5881,
      "hÃ¶fÃ°": 5882,
      "ĠstÃ¶Ã°ugleikasÃ¡ttmÃ¡l": 5883,
      "ĠgÃ¡tu": 5884,
      "Ġeldri": 5885,
      "fara": 5886,
      "Ġsleg": 5887,
      "Ġvert": 5888,
      "ĠVil": 5889,
      "Ġtekst": 5890,
      "skipt": 5891,
      "ĠÃ¡hrifum": 5892,
      "ĠmÃ¶rkum": 5893,
      "ĠÃ¾ekkir": 5894,
      "ĠÃ¡ratugi": 5895,
      "ĠolÃŃu": 5896,
      "ingunum": 5897,
      "Ã¦Ã°um": 5898,
      "ĠskÃ¶p": 5899,
      "Ã¾Ã¦tt": 5900,
      "ĠÃ¶mur": 5901,
      "angeng": 5902,
      "Ġtakist": 5903,
      "Ġformenn": 5904,
      "Ġauknum": 5905,
      "ĠfjÃ¶lskyldur": 5906,
      "ĠÃģrnason": 5907,
      "Ġsnerta": 5908,
      "ĠbÃ¦nda": 5909,
      "Ġalmennar": 5910,
      "ĠfrÃ¦Ã°im": 5911,
      "ĠIngibjÃ¶r": 5912,
      "ĠStefÃ¡n": 5913,
      "linu": 5914,
      "ĠsÃŃÃ°": 5915,
      "ĠgetiÃ°": 5916,
      "ĠÃ¾jÃ³Ã°anna": 5917,
      "ĠumrÃ¦Ã°na": 5918,
      "Ġmarki": 5919,
      "ĠmÃ¡naÃ°ar": 5920,
      "ĠmÃŃnar": 5921,
      "ĠforsÃ¦tis": 5922,
      "Ġvandanum": 5923,
      "ĠrÃ¡Ã°uneyta": 5924,
      "ĠÃ¡lits": 5925,
      "ĠhagsmunamÃ¡l": 5926,
      "Ġskuldirnar": 5927,
      "Ġdregur": 5928,
      "ĠaÃ°stÃ¦Ã°um": 5929,
      "brÃ©fa": 5930,
      "ĠforgangsrÃ¶Ã°un": 5931,
      "bÃ³k": 5932,
      "ĠvÃ¡": 5933,
      "erfiÃ°": 5934,
      "afrÃ¦Ã°": 5935,
      "ĠskrÃ¡": 5936,
      "Ġhva": 5937,
      "ugar": 5938,
      "ĠFÃ³lk": 5939,
      "ĠstjÃ³rna": 5940,
      "ĠGunn": 5941,
      "ĠmikilvÃ¦gar": 5942,
      "ĠfarsÃ¦": 5943,
      "ĠÃ¾ingmannsins": 5944,
      "ĠhagstÃ¦Ã°": 5945,
      "ĠmiÃ°a": 5946,
      "setningar": 5947,
      "ĠsÃŃns": 5948,
      "alÃ¶ggjÃ¶f": 5949,
      "ĠbÃ¶nkum": 5950,
      "ĠStjÃ³rn": 5951,
      "Ġsameiningu": 5952,
      "ĠmatvÃ¦l": 5953,
      "ĠlÃ©t": 5954,
      "helgis": 5955,
      "Ġfang": 5956,
      "urÃ°": 5957,
      "ĠlÃ¦tur": 5958,
      "Ġbit": 5959,
      "Ġvernd": 5960,
      "ĠÃ¡runum": 5961,
      "leidd": 5962,
      "ĠIcel": 5963,
      "ĠstÃ¶Ã°ugt": 5964,
      "Ġlandsmenn": 5965,
      "ĠFjÃ¡rmÃ¡laeftirlitsins": 5966,
      "ĠgjaldeyrishÃ¶f": 5967,
      "ĠlÃŃfeyrissjÃ³Ã°a": 5968,
      "ĠhagvÃ¶xtur": 5969,
      "ulega": 5970,
      "Ġ(": 5971,
      "Ġhen": 5972,
      "ĠvÃ¦nd": 5973,
      "ĠtÃ³m": 5974,
      "Ġumhugs": 5975,
      "ormenn": 5976,
      "Ġframsal": 5977,
      "Ã¾ings": 5978,
      "jarÃ°ar": 5979,
      "Ġsamningarnir": 5980,
      "Ġfunda": 5981,
      "Ġmeirihluta": 5982,
      "Ġsetjast": 5983,
      "ĠlandsbyggÃ°ar": 5984,
      "Ġnefndarmenn": 5985,
      "ĠnÃ¡ms": 5986,
      "amarkaÃ°": 5987,
      "Ġundanfarna": 5988,
      "ĠefnahagslÃŃfi": 5989,
      "veÃ°": 5990,
      "ĠSuÃ°": 5991,
      "auÃ°a": 5992,
      "Ġ22": 5993,
      "ĠsÃ©rstaks": 5994,
      "bandalag": 5995,
      "Ġatvinnuuppbygg": 5996,
      "Ġheyri": 5997,
      "ĠerfiÃ°a": 5998,
      "ĠReyk": 5999,
      "Ġbls": 6000,
      "Ġtilteknum": 6001,
      "ĠmatvÃ¦la": 6002,
      "ĠinnstÃ¦Ã°utryggingarsjÃ³Ã°": 6003,
      "Ġhind": 6004,
      "Ġbraut": 6005,
      "ĠumferÃ°": 6006,
      "afslÃ¡tt": 6007,
      "isvar": 6008,
      "ĠskjÃ³": 6009,
      "Ġundangeng": 6010,
      "ĠBrey": 6011,
      "Ġmarkv": 6012,
      "ĠSjÃ¡lfstÃ¦Ã°isflokkinn": 6013,
      "samningunum": 6014,
      "Ġskyldur": 6015,
      "rÃ¦na": 6016,
      "ĠbrÃ©fi": 6017,
      "ĠSuÃ°urnesjum": 6018,
      "ĠviÃ°fangsefni": 6019,
      "jara": 6020,
      "ĠjÃ³": 6021,
      "ĠvÃ¶nd": 6022,
      "ĠmeÃ°hÃ¶nd": 6023,
      "ĠniÃ°urfell": 6024,
      "ĠsamÃ¾ykktar": 6025,
      "ĠdrÃ¶g": 6026,
      "Ġminntist": 6027,
      "Ġstefnir": 6028,
      "Ġlas": 6029,
      "ĠtÃŃÃ°ina": 6030,
      "ĠrÃ¡Ã°uneytis": 6031,
      "ĠfjÃ¡rlagafrumvarpiÃ°": 6032,
      "ĠvÃ¦gi": 6033,
      "ĠprÃ³fessor": 6034,
      "agt": 6035,
      "ĠhÃ¦rra": 6036,
      "ĠlÃ¶greglu": 6037,
      "ĠnÃ¡Ã°i": 6038,
      "Ġverkefn": 6039,
      "Ġloksins": 6040,
      "ĠauglÃ½s": 6041,
      "Ġopinberlega": 6042,
      "ĠmÃŃns": 6043,
      "ĠÃŀÃ³rhall": 6044,
      "ĠpeningamÃ¡l": 6045,
      "ĠÃŃbÃºa": 6046,
      "ĠrakiÃ°": 6047,
      "Ġhlutirnir": 6048,
      "Ġtilheyr": 6049,
      "ĠLÃºÃ°vÃŃk": 6050,
      "ĠÃ¾o": 6051,
      "ungar": 6052,
      "Ã¶gg": 6053,
      "ĠsÃ©st": 6054,
      "ĠsÃ©rnefnd": 6055,
      "Ã¶nnu": 6056,
      "ĠniÃ°urstÃ¶Ã°ur": 6057,
      "brag": 6058,
      "Ġstarfar": 6059,
      "Ġvinnuna": 6060,
      "ĠÃŀÃ³rs": 6061,
      "ĠmikilvÃ¦gasta": 6062,
      "ĠRÃŃkisÃºtvarp": 6063,
      "ĠfjÃ¶lskyldu": 6064,
      "ĠsamrÃ¡Ã°s": 6065,
      "ĠMargir": 6066,
      "Ã¶nnunar": 6067,
      "ĠviÃ°halda": 6068,
      "rÃ¦tt": 6069,
      "ĠhrÃ³": 6070,
      "verÃ°um": 6071,
      "ĠMarkmiÃ°": 6072,
      "ĠjafnrÃ¦Ã°i": 6073,
      "ĠskÃ½rar": 6074,
      "ĠsparnaÃ°ar": 6075,
      "alegt": 6076,
      "ĠbÃŃl": 6077,
      "kostnaÃ°": 6078,
      "ĠniÃ°urskurÃ°ur": 6079,
      "Ġskipulags": 6080,
      "ĠbÃ¡Ã°um": 6081,
      "ĠtÃ¦plega": 6082,
      "ĠGuÃ°bjartur": 6083,
      "ĠMorgunblaÃ°inu": 6084,
      "amÃ¶rk": 6085,
      "ĠGunnlaug": 6086,
      "rÃ¡Ã°uneyt": 6087,
      "Ġfrei": 6088,
      "ĠstÃ½ra": 6089,
      "ĠfyrirvÃ¶runum": 6090,
      "Ġsamfylk": 6091,
      "ĠSpur": 6092,
      "ĠsÃŃfellt": 6093,
      "Ġpr": 6094,
      "Ġsamninganna": 6095,
      "Ã¦tist": 6096,
      "ĠÃ¡kvÃ¶rÃ°unum": 6097,
      "ĠandsvÃ¶rum": 6098,
      "Ġfullyrt": 6099,
      "ĠfjÃ¡rmunir": 6100,
      "Ġkomumst": 6101,
      "ĠsÃ©rstÃ¶ku": 6102,
      "ĠtÃŃÃ°um": 6103,
      "Ġsamfylkingar": 6104,
      "ĠsÃ¶kum": 6105,
      "ĠvÃ¶ldum": 6106,
      "Ġnet": 6107,
      "ĠkallaÃ°i": 6108,
      "Ġeigendur": 6109,
      "Ġtalin": 6110,
      "Ġdagana": 6111,
      "ĠskilaÃ°i": 6112,
      "ĠfÃ³lksins": 6113,
      "Ġverulegu": 6114,
      "ĠvÃŃsaÃ°i": 6115,
      "setu": 6116,
      "ĠÃ¡hyggju": 6117,
      "girni": 6118,
      "Ġkrafist": 6119,
      "ĠÃ¾orsk": 6120,
      "ĠhjÃºkrunarheimil": 6121,
      "ĠSigfÃºsson": 6122,
      "con": 6123,
      "janda": 6124,
      "ĠÃ¾skj": 6125,
      "ĠmÃ¦tt": 6126,
      "Ã¦gt": 6127,
      "ĠSÃ¶mu": 6128,
      "Ġatvinnustarfsemi": 6129,
      "ĠvÃŃÃ°ar": 6130,
      "ĠfjÃ¡rmagna": 6131,
      "ĠBjarni": 6132,
      "gildi": 6133,
      "ĠtjÃ¡Ã°": 6134,
      "ĠJÃ³nasson": 6135,
      "ĠfortÃŃÃ°": 6136,
      "ĠIceland": 6137,
      "hl": 6138,
      "ul": 6139,
      "ĠnÃ½lega": 6140,
      "Ġleyst": 6141,
      "isrÃ¡Ã°her": 6142,
      "ĠÃģsm": 6143,
      "eigendur": 6144,
      "ĠlÃ½kur": 6145,
      "Ġlokin": 6146,
      "ĠmÃ³ta": 6147,
      "ĠkrÃ³num": 6148,
      "ĠsamhljÃ³": 6149,
      "ĠvaliÃ°": 6150,
      "ĠmÃ¡lefnaleg": 6151,
      "ĠÃ³ljÃ³st": 6152,
      "ĠvonbrigÃ°um": 6153,
      "astarfsemi": 6154,
      "ĠfrÃŃstunda": 6155,
      "Ã¡byrgÃ°ar": 6156,
      "dÃ¶gum": 6157,
      "agjÃ¶f": 6158,
      "Ġgefist": 6159,
      "Ġsvart": 6160,
      "gjÃ¶rÃ°": 6161,
      "ĠerfiÃ°ar": 6162,
      "ĠÃ¾Ã½Ã°ingu": 6163,
      "Ġvextina": 6164,
      "ĠsnÃºast": 6165,
      "Ġbankakerfisins": 6166,
      "ĠvÃ¦ntingar": 6167,
      "ĠaÃ°stÃ¶Ã°u": 6168,
      "umsÃ½slu": 6169,
      "Ġgil": 6170,
      "Ġfyrirspyr": 6171,
      "ninga": 6172,
      "akrepp": 6173,
      "nustu": 6174,
      "Ġykkur": 6175,
      "ĠsjÃ¡lfstÃ¦tt": 6176,
      "ĠleiÃ°i": 6177,
      "Ġofur": 6178,
      "ĠgrÃŃÃ°arleg": 6179,
      "ĠerfiÃ°ara": 6180,
      "Ġhruninu": 6181,
      "ĠundanfÃ¶rnu": 6182,
      "Ġkrafti": 6183,
      "maÃ°urinn": 6184,
      "ĠhjÃ¡lp": 6185,
      "ĠbankahruniÃ°": 6186,
      "ĠreiÃ°ubÃº": 6187,
      "ĠÃºttekt": 6188,
      "ĠFl": 6189,
      "ĠBÃ¦nda": 6190,
      "Ġflokkarnir": 6191,
      "samningum": 6192,
      "ĠHollands": 6193,
      "ĠbrÃ½na": 6194,
      "ĠsparisjÃ³Ã°ina": 6195,
      "ĠlÃŃtill": 6196,
      "Ġstigum": 6197,
      "ĠembÃ¦ttismenn": 6198,
      "ĠSteingrÃŃmur": 6199,
      "Ġtapa": 6200,
      "falli": 6201,
      "hr": 6202,
      "tunum": 6203,
      "Ġheg": 6204,
      "ĠskjÃ³ta": 6205,
      "ĠHÃ¶skuld": 6206,
      "ĠFrÃ¡": 6207,
      "Ġhverja": 6208,
      "Ã¶fum": 6209,
      "ĠnÃ¡ist": 6210,
      "ĠhÃ¶fÃ°um": 6211,
      "Ġhagkerfinu": 6212,
      "ĠNoregi": 6213,
      "stofnunar": 6214,
      "ĠundirbÃºningi": 6215,
      "ĠframkvÃ¦mdarvaldsins": 6216,
      "ÃŀaÃ°": 6217,
      "ĠSvÃŃÃ¾jÃ³Ã°": 6218,
      "ĠGrÃ©tar": 6219,
      "Ġ...": 6220,
      "kl": 6221,
      "ĠsÃ¦tta": 6222,
      "ĠaÃ°lÃ¶g": 6223,
      "ĠstÃ¶dd": 6224,
      "ĠskeiÃ°": 6225,
      "Ġskildi": 6226,
      "Ġvarlega": 6227,
      "ĠSÃ³l": 6228,
      "Ġlaggir": 6229,
      "ĠbÃºi": 6230,
      "Ġsegjast": 6231,
      "Ġaukna": 6232,
      "ĠUpp": 6233,
      "Ġkjark": 6234,
      "ĠbyggÃ°akv": 6235,
      "Ġloftsl": 6236,
      "ĠÃģlfheiÃ°ur": 6237,
      "ĠrÃ¶kstuÃ°": 6238,
      "ĠaldraÃ°ra": 6239,
      "ĠafsÃ¶kunar": 6240,
      "svar": 6241,
      "Ġvann": 6242,
      "ĠumsÃ¶gnum": 6243,
      "Ġsameina": 6244,
      "ĠFors": 6245,
      "rÃ¦Ã°an": 6246,
      "ĠsvoleiÃ°is": 6247,
      "Ġskilvirk": 6248,
      "ĠfÃ¡st": 6249,
      "ĠstÃ³rar": 6250,
      "setja": 6251,
      "Ġklukku": 6252,
      "ĠskÃ¶ttum": 6253,
      "esk": 6254,
      "ĠsÃ³": 6255,
      "Ġhinni": 6256,
      "kkert": 6257,
      "ndur": 6258,
      "Ġduga": 6259,
      "ĠÃ¦Ã°": 6260,
      "Ġoftar": 6261,
      "ĠmargvÃŃs": 6262,
      "ĠhugmyndafrÃ¦Ã°i": 6263,
      "ĠheilbrigÃ°isstarf": 6264,
      "Ġtiltekna": 6265,
      "Ġbankahrunsins": 6266,
      "ĠmannrÃ©ttind": 6267,
      "ĠrÃŃkisvaldiÃ°": 6268,
      "Ġumhugsunar": 6269,
      "bÃ¦": 6270,
      "hn": 6271,
      "Ġhrey": 6272,
      "ĠSver": 6273,
      "Ġhverfa": 6274,
      "Ã¶fl": 6275,
      "ĠMÃ¶r": 6276,
      "ĠGert": 6277,
      "Ġteljast": 6278,
      "ĠfordÃ¦mi": 6279,
      "Ġhugmyndin": 6280,
      "ĠmÃ¶guleikar": 6281,
      "ĠsjÃºkdÃ³m": 6282,
      "ĠGuÃ°laug": 6283,
      "ĠvinnubrÃ¶gÃ°in": 6284,
      "Ġfallin": 6285,
      "ĠflutningsmaÃ°ur": 6286,
      "Ġtefja": 6287,
      "ĠinnlÃ¡nstrygg": 6288,
      "aframkvÃ¦md": 6289,
      "Ġhausinn": 6290,
      "op": 6291,
      "Ã©Ã°": 6292,
      "Ġeinang": 6293,
      "Ã¶fu": 6294,
      "ĠfÃ¡tÃ¦k": 6295,
      "sÃ¶gu": 6296,
      "ĠviÃ°skiptal": 6297,
      "samningurinn": 6298,
      "Ġsitji": 6299,
      "Ġ63": 6300,
      "ĠsamningaviÃ°rÃ¦Ã°um": 6301,
      "ĠÃ¾yrftu": 6302,
      "ĠpÃ³litÃŃskum": 6303,
      "Ġklukkust": 6304,
      "ĠverÃ°mÃ¦ta": 6305,
      "ĠrÃŃkisstjÃ³rnarflokkarnir": 6306,
      "ĠbundiÃ°": 6307,
      "ĠminnihlutastjÃ³rn": 6308,
      "ĠtrÃºverÃ°ugleika": 6309,
      "ĠbjÃ¶rgunar": 6310,
      "Ġlaggirnar": 6311,
      "bre": 6312,
      "ĠfÃ©lÃ¶gum": 6313,
      "Ġkoll": 6314,
      "ĠHag": 6315,
      "Ġkomnar": 6316,
      "arfar": 6317,
      "Ġinnlegg": 6318,
      "stÃ¦Ã°um": 6319,
      "ĠstarfsmÃ¶nnum": 6320,
      "Ġgreinum": 6321,
      "ĠbankarÃ¡Ã°": 6322,
      "ĠsjÃ³manna": 6323,
      "ĠfÃ³rum": 6324,
      "markmiÃ°": 6325,
      "ĠbarÃ¡ttu": 6326,
      "ĠpÃ³litÃŃsku": 6327,
      "ĠsamningaviÃ°rÃ¦Ã°ur": 6328,
      "ĠnefndarÃ¡litiÃ°": 6329,
      "ĠstjÃ³rnarflokkarnir": 6330,
      "stigi": 6331,
      "ĠnÃ¡ttÃºruauÃ°lindir": 6332,
      "Ġdapurlegt": 6333,
      "vallt": 6334,
      "Ġ0": 6335,
      "Ġslit": 6336,
      "ĠÃ¾aÃ°an": 6337,
      "jÃ³narmiÃ°": 6338,
      "ĠnÃŃu": 6339,
      "Ġstil": 6340,
      "ĠskÃ³": 6341,
      "ĠmÃ¡lefnum": 6342,
      "ĠEyg": 6343,
      "ĠtakmÃ¶rk": 6344,
      "ĠsÃ©rstakur": 6345,
      "Ġvirkja": 6346,
      "ĠÃ¾ingmanninn": 6347,
      "Ġsetjum": 6348,
      "Ġformlega": 6349,
      "Ġhrunsins": 6350,
      "ĠIngadÃ³ttur": 6351,
      "ĠvÃ©k": 6352,
      "ĠÃ¦tluÃ°u": 6353,
      "ĠSverris": 6354,
      "ĠEyglÃ³": 6355,
      "Kirkju": 6356,
      "avar": 6357,
      "yt": 6358,
      "aÃ°ist": 6359,
      "ĠfÃ©lÃ¶g": 6360,
      "Ġgaum": 6361,
      "sley": 6362,
      "ĠÃºtfÃ¦ra": 6363,
      "ĠÃ¾jÃ³Ã°um": 6364,
      "ĠrÃ¡Ã°gjÃ¶f": 6365,
      "ĠbrÃ¡Ã°": 6366,
      "ĠskÃ½rslunni": 6367,
      "ĠÃ¡rabil": 6368,
      "ĠbÃŃÃ°ur": 6369,
      "Ġinnihald": 6370,
      "ĠReykjavik": 6371,
      "ĠeignaumsÃ½slu": 6372,
      "Ġtilfelli": 6373,
      "ĠvaxtagreiÃ°": 6374,
      "Ġvantraust": 6375,
      "ĠknÃ½ja": 6376,
      "KirkjustrÃ¦ti": 6377,
      "deg": 6378,
      "jafn": 6379,
      "Ġrug": 6380,
      "ĠrÃ³tt": 6381,
      "ĠstÃ³l": 6382,
      "ĠHauk": 6383,
      "ĠfjÃ¡rlÃ¶gin": 6384,
      "ĠÃ³viÃ°": 6385,
      "arfyrirtÃ¦k": 6386,
      "ĠMÃ³s": 6387,
      "ĠnÃ½ir": 6388,
      "ĠfjÃ¡rmÃ¡larÃ¡Ã°uneytiÃ°": 6389,
      "Ġnokkrir": 6390,
      "ĠÃ¡framhald": 6391,
      "breytt": 6392,
      "Ġfellt": 6393,
      "ĠafleiÃ°ingum": 6394,
      "Ġlyfja": 6395,
      "Ġburt": 6396,
      "ĠmÃ³tmÃ¦la": 6397,
      "Ġsorglegt": 6398,
      "ĠMÃ³ses": 6399,
      "ĠsÃ¦m": 6400,
      "Ġel": 6401,
      "Ġgetu": 6402,
      "samtaka": 6403,
      "Ġbreytingartillaga": 6404,
      "ĠfÃ¦kka": 6405,
      "Ġpeningum": 6406,
      "ĠRÃŃkisendurskoÃ°un": 6407,
      "skerfi": 6408,
      "Ġfullveldi": 6409,
      "Ġrannsaka": 6410,
      "ĠMiÃ°aÃ°": 6411,
      "Ġeftirspurn": 6412,
      "rÃºn": 6413,
      "tÃ¦": 6414,
      "ĠkÃ¶ll": 6415,
      "ilegra": 6416,
      "ĠtÃŃmar": 6417,
      "Ġmunur": 6418,
      "Ġpunk": 6419,
      "ofnun": 6420,
      "ĠskoÃ°um": 6421,
      "Ġpeningar": 6422,
      "ĠsnÃºiÃ°": 6423,
      "Ġbirt": 6424,
      "ĠframtÃŃÃ°arsÃ½n": 6425,
      "ĠsveitarfÃ©lÃ¶gunum": 6426,
      "ĠfrÃ©ttum": 6427,
      "ĠminnisblaÃ°": 6428,
      "ĠÃºthlutun": 6429,
      "Ġfinnist": 6430,
      "hf": 6431,
      "lig": 6432,
      "arÃ°i": 6433,
      "Ġmeng": 6434,
      "ĠÃ¡vinn": 6435,
      "ingurinn": 6436,
      "Ġbot": 6437,
      "ĠfrÃ©tta": 6438,
      "ĠÃ¶Ã°": 6439,
      "ĠÃ³skaplega": 6440,
      "ista": 6441,
      "Ġveltir": 6442,
      "Ġpar": 6443,
      "Ġdagsins": 6444,
      "ĠskipaÃ°": 6445,
      "Ġsetningu": 6446,
      "ĠlÃŃfskjÃ¶r": 6447,
      "ĠÃ¡stÃ¦Ã°ur": 6448,
      "Ġ500": 6449,
      "ĠgreiÃ°slubyrÃ°i": 6450,
      "ĠfjÃ¡rmagns": 6451,
      "ĠTryggva": 6452,
      "sÃŃÃ°u": 6453,
      "ĠrÃ¡Ã°stÃ¶fun": 6454,
      "Ġundarlegt": 6455,
      "ĠFrjÃ¡lslynda": 6456,
      "Ġhf": 6457,
      "Ġhall": 6458,
      "ĠfÃ¦tur": 6459,
      "Ġtaf": 6460,
      "Ġbat": 6461,
      "ĠnÃ¦tur": 6462,
      "ĠSvar": 6463,
      "ĠÃ³dÃ½r": 6464,
      "ĠlÃ¡nastofn": 6465,
      "Ġfarnir": 6466,
      "skatta": 6467,
      "ĠÃŀessir": 6468,
      "ĠKÃ¡": 6469,
      "Ġaukinn": 6470,
      "stÃ¶Ã°una": 6471,
      "yÃ°ja": 6472,
      "ĠvaxiÃ°": 6473,
      "ĠlandbÃºnaÃ°i": 6474,
      "ĠnotuÃ°": 6475,
      "ĠatvinnulÃŃfs": 6476,
      "hÃºsiÃ°": 6477,
      "ĠtÃ³nlistar": 6478,
      "ĠSaari": 6479,
      "ĠsÃ¦": 6480,
      "Ġmist": 6481,
      "ĠÃ¡lÃ¶gur": 6482,
      "ĠÃŀeim": 6483,
      "nari": 6484,
      "Ġsami": 6485,
      "ĠafdrÃ¡ttar": 6486,
      "ĠlÃ¡gt": 6487,
      "atriÃ°um": 6488,
      "Ġfundist": 6489,
      "Ġofb": 6490,
      "Ġsetji": 6491,
      "Ġalmennu": 6492,
      "ĠviÃ°skiptum": 6493,
      "Ġbreytast": 6494,
      "mÃ¦l": 6495,
      "ĠkjÃ¶rdÃ¦mi": 6496,
      "ĠrÃ¡Ã°i": 6497,
      "hluti": 6498,
      "ĠÃ¡gÃ¦tis": 6499,
      "standandi": 6500,
      "Ġeflaust": 6501,
      "ĠTryggingarsjÃ³Ã°": 6502,
      "ĠÃ³trÃºlega": 6503,
      "Ġfesta": 6504,
      "ĠSigurÃ°ardÃ³ttir": 6505,
      "Ġlifa": 6506,
      "hagsmuni": 6507,
      "500": 6508,
      "hÃ¡tt": 6509,
      "Ġnafni": 6510,
      "Ġversta": 6511,
      "skt": 6512,
      "Ġafkomu": 6513,
      "ennur": 6514,
      "lÃ¶gunum": 6515,
      "Ġtakt": 6516,
      "ĠsÃ©rstakar": 6517,
      "Ġskatttekjur": 6518,
      "ĠgreiÃ°i": 6519,
      "Ġkynni": 6520,
      "spil": 6521,
      "rumvÃ¶rp": 6522,
      "ĠrÃ¡Ã°uneytum": 6523,
      "Ġnotkun": 6524,
      "ĠlÃŃfeyrissjÃ³Ã°anna": 6525,
      "ĠneyÃ°arlÃ¶gin": 6526,
      "ĠfjÃ¶llum": 6527,
      "bÃ¦tt": 6528,
      "Ġsinnar": 6529,
      "Ġmak": 6530,
      "Ġlen": 6531,
      "Ġkepp": 6532,
      "skost": 6533,
      "kvÃ¶rÃ°": 6534,
      "mÃ¡lunum": 6535,
      "ĠrÃŃkisÃºtgjÃ¶ld": 6536,
      "angre": 6537,
      "ĠorÃ°nir": 6538,
      "ĠRÃº": 6539,
      "ĠsparnaÃ°i": 6540,
      "ĠsparnaÃ°ur": 6541,
      "reglum": 6542,
      "ĠsnÃºist": 6543,
      "ĠNorÃ°menn": 6544,
      "ĠhagrÃ¦Ã°ingu": 6545,
      "ĠÃģrmannsson": 6546,
      "ĠfljÃ³tlega": 6547,
      "muna": 6548,
      "to": 6549,
      "ÃŃnu": 6550,
      "ĠÃ¡vallt": 6551,
      "ĠbÃ¦ri": 6552,
      "ĠÃ³t": 6553,
      "Ġ23": 6554,
      "Ġskilgreind": 6555,
      "Ġsly": 6556,
      "ĠendurfjÃ¡rm": 6557,
      "ĠgreiÃ°slug": 6558,
      "ĠtillÃ¶gunni": 6559,
      "ĠrÃ¦Ã°utÃŃma": 6560,
      "Ġvitanlega": 6561,
      "Ġloknum": 6562,
      "Ġ2024": 6563,
      "leikinn": 6564,
      "ĠSeÃ°labankann": 6565,
      "ĠmetiÃ°": 6566,
      "Ġhinar": 6567,
      "Ġ150": 6568,
      "paris": 6569,
      "ĠĠĠĠ": 6570,
      "ĠAkureyri": 6571,
      "kunn": 6572,
      "Ġkemst": 6573,
      "ĠÃŀÃ³tt": 6574,
      "rÃ¦Ã°iÃ°": 6575,
      "samband": 6576,
      "ĠumrÃ¦Ã°unnar": 6577,
      "Ġfullum": 6578,
      "Ġborin": 6579,
      "ĠrÃ¶ksemd": 6580,
      "stofnunum": 6581,
      "ĠfjÃ³rÃ°a": 6582,
      "Ġfyrirmyndar": 6583,
      "ĠBirkir": 6584,
      "ĠReykjan": 6585,
      "ĠSÃ¶muleiÃ°is": 6586,
      "ÃŃna": 6587,
      "ĠneÃ°": 6588,
      "Ġstefn": 6589,
      "ĠrÃŃkisÃ¡byrgÃ°ar": 6590,
      "Ġgraf": 6591,
      "ĠfordÃ¦m": 6592,
      "ĠfjÃ¡rmÃ¡lar": 6593,
      "isrÃ¡Ã°uneytiÃ°": 6594,
      "ĠsamÃ¾ykktum": 6595,
      "ĠlangaÃ°i": 6596,
      "Ġtvenn": 6597,
      "ĠstjÃ³rnarandstÃ¦Ã°": 6598,
      "ĠrÃ¡Ã°uneytiÃ°": 6599,
      "ĠÃ¡lyk": 6600,
      "Ġrafmagn": 6601,
      "ĠfiskveiÃ°a": 6602,
      "ĠaÃ°stoÃ°a": 6603,
      "sÃ¡ttmÃ¡la": 6604,
      "gildandi": 6605,
      "viÃ°miÃ°in": 6606,
      "ĠgÃŃfurlega": 6607,
      "ĠfrÃ¡leitt": 6608,
      "ĠeyÃ°": 6609,
      "ĠnotiÃ°": 6610,
      "ĠkÃŃ": 6611,
      "ĠframlÃ¶g": 6612,
      "ĠEkkert": 6613,
      "ĠVig": 6614,
      "angt": 6615,
      "ĠMish": 6616,
      "ĠfjÃ¡rmÃ¡lamarkaÃ°i": 6617,
      "ĠmikilvÃ¦gum": 6618,
      "ĠLÃŃf": 6619,
      "eigu": 6620,
      "ĠtÃ³kum": 6621,
      "ĠReya": 6622,
      "hugmynd": 6623,
      "2009": 6624,
      "Ġumtalsvert": 6625,
      "ĠSumir": 6626,
      "ĠsÃ©rkennilegt": 6627,
      "ĠÃĸgmundur": 6628,
      "liggjandi": 6629,
      "ĠMishcon": 6630,
      "ĠfurÃ°u": 6631,
      "Ġkort": 6632,
      "andast": 6633,
      "Ġskyni": 6634,
      "ĠÃ³sÃ¡tt": 6635,
      "ĠsjÃ¡lfan": 6636,
      "Ġundirskrif": 6637,
      "vÃ¦n": 6638,
      "Ġvirka": 6639,
      "skapa": 6640,
      "ĠLÃ½Ã°": 6641,
      "ĠefnahagsmÃ¡la": 6642,
      "Ġ35": 6643,
      "ĠsÃ¡tta": 6644,
      "Ġfylgjandi": 6645,
      "ĠfÃ©lagsmÃ¡l": 6646,
      "ĠNordal": 6647,
      "Ġgjaldeyrist": 6648,
      "Ġtiltekin": 6649,
      "Ġlistamanna": 6650,
      "arÃ¡Ã°uneytisins": 6651,
      "ĠgrÃ¦nt": 6652,
      "alÃ¶gin": 6653,
      "fyrirtÃ¦kja": 6654,
      "ĠsamgÃ¶ngum": 6655,
      "ĠJÃ³hann": 6656,
      "lÃŃfeyr": 6657,
      "ĠÃ¡hyggjuefni": 6658,
      "lingar": 6659,
      "ĠÃĿ": 6660,
      "arp": 6661,
      "Ġfry": 6662,
      "skjal": 6663,
      "ĠstjÃ³rnum": 6664,
      "ĠÃ³bein": 6665,
      "Ġspari": 6666,
      "ĠyfirstjÃ³rn": 6667,
      "Ġgreinilegt": 6668,
      "Ġberast": 6669,
      "Ġsamanber": 6670,
      "ĠÃ¾rot": 6671,
      "Ġsettum": 6672,
      "Ġhorfir": 6673,
      "ĠgÃ³Ã°s": 6674,
      "ĠDaÃ°a": 6675,
      "Ġhruni": 6676,
      "Ġdeilt": 6677,
      "Ġaflaheimildir": 6678,
      "ĠhjÃ¡lpar": 6679,
      "ĠVigd": 6680,
      "prÃ³f": 6681,
      "vand": 6682,
      "ĠY": 6683,
      "Ġskelf": 6684,
      "ĠFÃ¦": 6685,
      "ĠGeir": 6686,
      "Ġskattur": 6687,
      "ĠÃ³viss": 6688,
      "ĠtekjuÃ¶flun": 6689,
      "Ġalvarleg": 6690,
      "Ġdeili": 6691,
      "ĠNorÃ°urland": 6692,
      "ĠHÃ¡skÃ³l": 6693,
      "Ġminnisbl": 6694,
      "sjÃ³nar": 6695,
      "ĠKristjÃ¡nsson": 6696,
      "ĠrÃ³ttÃ¦k": 6697,
      "fÃ©lÃ¶g": 6698,
      "kkar": 6699,
      "Ġrenna": 6700,
      "ĠkÃ½s": 6701,
      "Ġstein": 6702,
      "Ġfyrningar": 6703,
      "ĠHeim": 6704,
      "Ã©tti": 6705,
      "Ġeftirliti": 6706,
      "gjast": 6707,
      "Ġbreytingarnar": 6708,
      "ĠlÃ½sir": 6709,
      "ĠfjÃ¶lgun": 6710,
      "akerfiÃ°": 6711,
      "ĠmeÃ°altali": 6712,
      "ĠsannfÃ¦rÃ°ur": 6713,
      "ĠfjÃ¡rmagnst": 6714,
      "ĠFjÃ¡rmÃ¡laeftirlitinu": 6715,
      "ĠJÃ³hanna": 6716,
      "ĠjafnrÃ©tti": 6717,
      "ĠRagnheiÃ°ur": 6718,
      "ĠhÃºfi": 6719,
      "ĠLilja": 6720,
      "ling": 6721,
      "nslu": 6722,
      "taÃ°": 6723,
      "ĠsÃ³ma": 6724,
      "agjÃ¶ld": 6725,
      "ala": 6726,
      "alaga": 6727,
      "ĠrÃŃkisbank": 6728,
      "ĠÃ¡hug": 6729,
      "Ġbrag": 6730,
      "lÃŃnu": 6731,
      "Ġspurningunni": 6732,
      "Ġkynningu": 6733,
      "Ġminnast": 6734,
      "ĠÃ¶rlÃŃtiÃ°": 6735,
      "ĠFramsÃ³knarflokks": 6736,
      "svÃ¦Ã°i": 6737,
      "ĠlofaÃ°": 6738,
      "ĠniÃ°urskurÃ°ar": 6739,
      "ĠgrÃ¦num": 6740,
      "vinnslu": 6741,
      "ĠÃ³trÃºlegt": 6742,
      "ĠinnstÃ¦Ã°utryggingar": 6743,
      "ĠalÃ¾jÃ³Ã°asamfÃ©lag": 6744,
      "Ġrefs": 6745,
      "helgisgÃ¦": 6746,
      "merk": 6747,
      "pum": 6748,
      "tinn": 6749,
      "ĠbÃ¦tist": 6750,
      "ĠÃ¾ingskapa": 6751,
      "Ã¦rri": 6752,
      "Ġendalaust": 6753,
      "Ġskuldsett": 6754,
      "Ġveruleg": 6755,
      "Ġerlendar": 6756,
      "ĠhÃ³tanir": 6757,
      "stÃ¶Ã°v": 6758,
      "ĠalgjÃ¶rt": 6759,
      "Ġ75": 6760,
      "ĠhÃºshit": 6761,
      "ĠÃ³hepp": 6762,
      "ĠfiskveiÃ°": 6763,
      "ĠyfirlÃ½sing": 6764,
      "ĠstÃ¶Ã°unni": 6765,
      "ĠsambÃ¦rileg": 6766,
      "Ġgeym": 6767,
      "ĠrÃŃkisvaldsins": 6768,
      "ĠfÃ³lgin": 6769,
      "ĠMagnÃºs": 6770,
      "Ã¡kvÃ¦Ã°iÃ°": 6771,
      "ĠÃ¾ingflokksform": 6772,
      "ĠframhaldsskÃ³l": 6773,
      "ĠfÃ³": 6774,
      "ĠtilboÃ°": 6775,
      "afÃ©lÃ¶g": 6776,
      "ĠhraÃ°": 6777,
      "ĠlÃ¡ti": 6778,
      "Ġhaldinn": 6779,
      "ĠEvrÃ³pur": 6780,
      "ĠÃ¾rÃ¶n": 6781,
      "Ã¾jÃ³Ã°ir": 6782,
      "ĠÃ³skaÃ°i": 6783,
      "ĠJÃ³ni": 6784,
      "skattur": 6785,
      "Ġtreyst": 6786,
      "ĠÃºtgÃ¡": 6787,
      "Ġskapi": 6788,
      "ĠstjÃ³rnmÃ¡laflokkar": 6789,
      "ĠframhaldsskÃ³la": 6790,
      "ĠstjÃ³rnarÃ¾ingmenn": 6791,
      "ĠgrundvÃ¶llur": 6792,
      "ĠframkvÃ¦ma": 6793,
      "ĠFÃ¦rey": 6794,
      "Ã¡k": 6795,
      "Ġhvat": 6796,
      "ndu": 6797,
      "ĠHeil": 6798,
      "kvÃ¶ld": 6799,
      "kaup": 6800,
      "aÃ°urinn": 6801,
      "Ã¦tum": 6802,
      "ĠlÃ¡ni": 6803,
      "ĠmilljÃ³n": 6804,
      "Ġgefinn": 6805,
      "ĠÃ¾reng": 6806,
      "Ġkynjanna": 6807,
      "Ġtengja": 6808,
      "ĠvÃ¦ntan": 6809,
      "tryggingar": 6810,
      "leikann": 6811,
      "Ġvildum": 6812,
      "Ġstundir": 6813,
      "Ġalvarlegar": 6814,
      "ĠsparisjÃ³Ã°irnir": 6815,
      "alÃ¶gunum": 6816,
      "Ġkannast": 6817,
      "ĠauÃ°velda": 6818,
      "ĠÃŀjÃ³Ã°in": 6819,
      "Ġkynjahlut": 6820,
      "ĠrÃ¡Ã°gjafar": 6821,
      "Ġplagg": 6822,
      "ĠÃŃbÃºÃ°arhÃºsn": 6823,
      "ĠhrÃ¡": 6824,
      "Ġtort": 6825,
      "Ã¦Ã°a": 6826,
      "sly": 6827,
      "ĠSeg": 6828,
      "Ġdyr": 6829,
      "ĠstjÃ³rnin": 6830,
      "ĠbÃºast": 6831,
      "Ġfarinn": 6832,
      "ĠmarkmiÃ°iÃ°": 6833,
      "mÃ¶rku": 6834,
      "Ġsalinn": 6835,
      "Ġskynsamlega": 6836,
      "Ġskynsamlegra": 6837,
      "ĠBlÃ¶ndals": 6838,
      "ĠvakiÃ°": 6839,
      "Ġstandist": 6840,
      "Ġeinkahlut": 6841,
      "ĠflÃ½ta": 6842,
      "ĠskattgreiÃ°endur": 6843,
      "einuÃ°u": 6844,
      "Ġloftslags": 6845,
      "eglur": 6846,
      "Ġ21": 6847,
      "Ġlengja": 6848,
      "Ġmyndast": 6849,
      "ĠliÃ°iÃ°": 6850,
      "ĠtÃ¶luÃ°u": 6851,
      "ĠÃĵttar": 6852,
      "arÃ¡Ã°uneytinu": 6853,
      "ĠsveitarfÃ©lÃ¶gum": 6854,
      "ĠnorÃ°ur": 6855,
      "ĠfjÃ¡rhagslega": 6856,
      "ĠsÃ©reignarsparnaÃ°ar": 6857,
      "ĠLandhelgisgÃ¦": 6858,
      "ĠskÃ¶tu": 6859,
      "Ġafskriftir": 6860,
      "ĠkrÃ¶fuhafar": 6861,
      "ĠHaar": 6862,
      "Ġtortrygg": 6863,
      "hÃ¶fn": 6864,
      "ĠsuÃ°ur": 6865,
      "anlegur": 6866,
      "stÃ³ll": 6867,
      "Ã¶lur": 6868,
      "Ġtillagan": 6869,
      "Ġverr": 6870,
      "ĠskoÃ°i": 6871,
      "Ġhrundi": 6872,
      "ĠSama": 6873,
      "Ġkostir": 6874,
      "ĠlÃ¡ntak": 6875,
      "ĠsjÃ¡varÃºtvegsmÃ¡l": 6876,
      "Ġskyldum": 6877,
      "Ġ2012": 6878,
      "ĠborÃ°iÃ°": 6879,
      "Ġumtalsefni": 6880,
      "ĠnÃ¦stunni": 6881,
      "ĠrÃ©ttlÃ¦ti": 6882,
      "ĠÃĿm": 6883,
      "bandi": 6884,
      "Ġsjald": 6885,
      "ĠÃ¾ak": 6886,
      "ÃŃa": 6887,
      "ĠnÃ½tingar": 6888,
      "Ġskili": 6889,
      "ĠbÃºsetu": 6890,
      "Ġ2004": 6891,
      "Ã¶Ã°var": 6892,
      "samningarnir": 6893,
      "ĠutanrÃŃkis": 6894,
      "ĠtÃ¦kni": 6895,
      "ĠbyrjaÃ°": 6896,
      "ĠSigmundur": 6897,
      "Ġeinstaklingur": 6898,
      "ĠNoreg": 6899,
      "Ġbeini": 6900,
      "ĠkjÃ¶rum": 6901,
      "ĠdagskrÃ¡nni": 6902,
      "Ġreynsla": 6903,
      "Ġdeilur": 6904,
      "Ġskapar": 6905,
      "ĠferÃ°amenn": 6906,
      "ĠhÃ©Ã°an": 6907,
      "Ġsameiginlegu": 6908,
      "Ġvissi": 6909,
      "minn": 6910,
      "teng": 6911,
      "Ġvinni": 6912,
      "Ġkjara": 6913,
      "afer": 6914,
      "afur": 6915,
      "ĠÃºtrÃ¡": 6916,
      "stÃ¦Ã°a": 6917,
      "ĠlÃ¡nar": 6918,
      "ĠlÃ¡tum": 6919,
      "Ġskilgreina": 6920,
      "bÃºiÃ°": 6921,
      "Ġgefst": 6922,
      "Ġfengju": 6923,
      "ĠsjÃ³narmiÃ°a": 6924,
      "ĠvÃŃsar": 6925,
      "Ġmisst": 6926,
      "Ġeinkar": 6927,
      "Ġflytur": 6928,
      "ĠferÃ°amanna": 6929,
      "ĠkrÃ³nuna": 6930,
      "ĠPÃ©turs": 6931,
      "ĠstuÃ°nings": 6932,
      "Ġstigi": 6933,
      "ĠÃ¾ingfundi": 6934,
      "ĠtryggingamÃ¡larÃ¡Ã°herra": 6935,
      "ĠBirgir": 6936,
      "ĠundanÃ¾Ã¡gu": 6937,
      "Ġtilfellum": 6938,
      "GS": 6939,
      "degi": 6940,
      "stund": 6941,
      "Ã³Ã°a": 6942,
      "ssÃ¶g": 6943,
      "ĠbiÃ°ur": 6944,
      "ĠviÃ°hÃ¶fÃ°": 6945,
      "ĠfyrirsjÃ¡": 6946,
      "Ã¾Ã¦tti": 6947,
      "ĠdjÃºp": 6948,
      "Ġtekinn": 6949,
      "ĠjÃ¶f": 6950,
      "ĠsÃ©rstakan": 6951,
      "ĠgreiÃ°um": 6952,
      "ĠÃ¡kveÃ°inni": 6953,
      "Ġtryggingar": 6954,
      "reif": 6955,
      "ĠÃ¾rÃŃ": 6956,
      "lÃ¡tur": 6957,
      "ĠlÃ¡niÃ°": 6958,
      "rÃ©tti": 6959,
      "ĠviÃ°skipti": 6960,
      "ĠvÃ¦nta": 6961,
      "Ġblanda": 6962,
      "ĠsÃ©rfrÃ¦Ã°ingum": 6963,
      "ĠeÃ°lilegra": 6964,
      "ĠlÃŃfeyrissjÃ³Ã°irnir": 6965,
      "ĠverÃ°tryggingu": 6966,
      "ĠÃ¾jÃ³Ã°arbÃºiÃ°": 6967,
      "ĠstjÃ³rnskipun": 6968,
      "ĠbÃ¡Ã°ir": 6969,
      "ĠundanÃ¾Ã¡gur": 6970,
      "ĠkjÃ¶rtÃŃmabili": 6971,
      "ĠÃ³sanngjar": 6972,
      "ĠVestfjÃ¶rÃ°um": 6973,
      "ĠfurÃ°uleg": 6974,
      "bak": 6975,
      "esi": 6976,
      "tra": 6977,
      "ĠÃ¡skil": 6978,
      "ĠviÃ°rÃ¦Ã°na": 6979,
      "ĠnÃºgildandi": 6980,
      "Ġspenn": 6981,
      "Ġmikilla": 6982,
      "Ġmikillar": 6983,
      "ĠstjÃ³rnendur": 6984,
      "Ġskiptar": 6985,
      "ĠfyrirtÃ¦kiÃ°": 6986,
      "ĠSameinuÃ°u": 6987,
      "Ġfengist": 6988,
      "Ġnokkurt": 6989,
      "ĠFramsÃ³knarflokknum": 6990,
      "ĠviÃ°urkennt": 6991,
      "ĠalÃ¾ingismanna": 6992,
      "ĠkostnaÃ°urinn": 6993,
      "Ġgagnaver": 6994,
      "ĠframkvÃ¦mdastjÃ³ra": 6995,
      "otar": 6996,
      "sÃ¶m": 6997,
      "Ġsek": 6998,
      "Ġvet": 6999,
      "Ġneita": 7000,
      "alÃ¦k": 7001,
      "ĠskÃ½": 7002,
      "ĠGott": 7003,
      "ĠyfirferÃ°": 7004,
      "Ġleyf": 7005,
      "ĠhagkerfiÃ°": 7006,
      "gerÃ°a": 7007,
      "Ġlengd": 7008,
      "ĠstÃ¦rra": 7009,
      "ĠLandsbanka": 7010,
      "Ġdeilum": 7011,
      "ĠÃ¡nÃ¦gÃ°ur": 7012,
      "ĠseÃ°labank": 7013,
      "ĠBandarÃŃkjunum": 7014,
      "Ġkapp": 7015,
      "ĠskrÃ½tiÃ°": 7016,
      "man": 7017,
      "ĠÃŃvil": 7018,
      "ĠrÃ½r": 7019,
      "skor": 7020,
      "ĠÃ¡rsl": 7021,
      "ĠleiÃ°bein": 7022,
      "framleiÃ°": 7023,
      "sÃ³knir": 7024,
      "ĠfÃ³lkinu": 7025,
      "Ġsettu": 7026,
      "ĠumferÃ°ar": 7027,
      "ĠLandsvirkjun": 7028,
      "Ġ198": 7029,
      "ĠsjÃ³Ã°urinn": 7030,
      "ĠglÃŃm": 7031,
      "ĠdÃ³mstÃ³lar": 7032,
      "ĠÃ³breyttu": 7033,
      "ĠstjÃ³rnarandstÃ¶Ã°uflokk": 7034,
      "ĠmÃ¡laflokki": 7035,
      "ĠgjÃ¶rsamlega": 7036,
      "Ġreif": 7037,
      "ĠfÃ©llu": 7038,
      "ĠstjÃ³rnarmeirihlu": 7039,
      "vist": 7040,
      "Ġsaf": 7041,
      "ĠaÃ°geng": 7042,
      "ĠhjÃ³l": 7043,
      "Ġru": 7044,
      "ĠÃ¾ingmÃ¡l": 7045,
      "vÃ¦g": 7046,
      "Ġskilar": 7047,
      "ĠmikilvÃ¦gur": 7048,
      "ĠÃ¡hÃ¦tta": 7049,
      "ĠLÃ¡": 7050,
      "ĠKr": 7051,
      "ĠvitnaÃ°i": 7052,
      "ĠhÃ¡ar": 7053,
      "boÃ°iÃ°": 7054,
      "Ġnokkurs": 7055,
      "lausu": 7056,
      "vÃŃkur": 7057,
      "ĠmÃ³tmÃ¦li": 7058,
      "ĠgÃ¦rkvÃ¶ld": 7059,
      "Ġbirta": 7060,
      "ĠkjÃ³sendum": 7061,
      "Ġdreifa": 7062,
      "endurskoÃ°unar": 7063,
      "ĠlykilatriÃ°i": 7064,
      "Ġsanngjarnt": 7065,
      "Ġkeypt": 7066,
      "ipp": 7067,
      "sent": 7068,
      "val": 7069,
      "Ġheita": 7070,
      "Ġtoll": 7071,
      "ence": 7072,
      "Ġumdeild": 7073,
      "ĠviÃ°unandi": 7074,
      "ĠnjÃ³": 7075,
      "Ġafgang": 7076,
      "ĠaflaÃ°": 7077,
      "ĠAGS": 7078,
      "istof": 7079,
      "ĠlÃ¶gmanns": 7080,
      "Ġfleir": 7081,
      "Ġjafnan": 7082,
      "ĠborÃ°i": 7083,
      "mannaey": 7084,
      "kerfis": 7085,
      "Ġverulegum": 7086,
      "ĠfÃ¦rri": 7087,
      "Ġskuldbindingu": 7088,
      "ĠvÃ¶rum": 7089,
      "ĠÃ¡kvÃ¦Ã°inu": 7090,
      "ĠHelgi": 7091,
      "ĠLandsbankinn": 7092,
      "Ġsameiginlegt": 7093,
      "ĠnÃ¡lÃ¦gt": 7094,
      "ĠVestmannaey": 7095,
      "ĠLandssam": 7096,
      "bjÃ¶rn": 7097,
      "ĠframsÃ¶gu": 7098,
      "snÃº": 7099,
      "ĠgarÃ°yrk": 7100,
      "201": 7101,
      "gil": 7102,
      "vin": 7103,
      "Ġven": 7104,
      "Ġfla": 7105,
      "ĠumgjÃ¶rÃ°": 7106,
      "alÃ½Ã°": 7107,
      "ĠSp": 7108,
      "ĠMun": 7109,
      "Ġyfirstandandi": 7110,
      "ĠNÃ¡": 7111,
      "ĠstofnfjÃ¡r": 7112,
      "samningi": 7113,
      "ĠSvavar": 7114,
      "bundiÃ°": 7115,
      "ĠEinhver": 7116,
      "ĠmannrÃ©ttindi": 7117,
      "ĠmÃ¡lÃ¾Ã³fi": 7118,
      "ĠfjÃ¶lmÃ¶rg": 7119,
      "ĠÃºrlausnar": 7120,
      "ĠEigum": 7121,
      "ĠÃ³hjÃ¡kvÃ¦milegt": 7122,
      "ĠÃ³Ã¡sÃ¦ttanlegt": 7123,
      "jug": 7124,
      "ĠaÃ°gengi": 7125,
      "Ã¡tta": 7126,
      "ingju": 7127,
      "ssur": 7128,
      "Ġkasta": 7129,
      "efence": 7130,
      "ĠstÃ½r": 7131,
      "ĠVerk": 7132,
      "ĠorÃ°ast": 7133,
      "tana": 7134,
      "vÃ¦gt": 7135,
      "ĠEvrÃ³pumÃ¡l": 7136,
      "ĠÃ¡ttaÃ°": 7137,
      "Ġfyrirvari": 7138,
      "ĠÃ¶ryrkja": 7139,
      "Ġ400": 7140,
      "hlutinn": 7141,
      "ĠstÃ¦rÃ°ar": 7142,
      "Ġstutta": 7143,
      "ĠheildarendurskoÃ°un": 7144,
      "Ġbankakerfi": 7145,
      "ĠborgiÃ°": 7146,
      "ĠNorÃ°urlÃ¶ndin": 7147,
      "ĠlÃ¦gra": 7148,
      "ĠNiÃ°urstaÃ°an": 7149,
      "ĠkynslÃ³Ã°ir": 7150,
      "ĠÃ¡litaefni": 7151,
      "Ġsamvis": 7152,
      "urkjÃ¶rdÃ¦mi": 7153,
      "ĠÃ³mÃ¶gulegt": 7154,
      "ĠforsÃ¦tisnefnd": 7155,
      "ĠÃ¡framhaldandi": 7156,
      "mÃ¡tt": 7157,
      "ĠjÃ³l": 7158,
      "ĠtÃ©": 7159,
      "ĠtÃ³lf": 7160,
      "Ġskot": 7161,
      "rast": 7162,
      "Ġfyrirheit": 7163,
      "ĠhÃ¦fi": 7164,
      "ĠVinn": 7165,
      "ĠStur": 7166,
      "ĠendurgreiÃ°": 7167,
      "Ġfundir": 7168,
      "Ġopnum": 7169,
      "samningsins": 7170,
      "Ġsanngirni": 7171,
      "ĠStaÃ°": 7172,
      "ĠÃ¾ekkt": 7173,
      "ĠsparisjÃ³Ã°i": 7174,
      "ĠvÃ¶rur": 7175,
      "Ġlapp": 7176,
      "Ġhlyn": 7177,
      "Ġkrefst": 7178,
      "sjÃ³narmiÃ°": 7179,
      "vestur": 7180,
      "Ġfullviss": 7181,
      "ĠviÃ°skiptarÃ¡Ã°uneyt": 7182,
      "ĠgaumgÃ¦": 7183,
      "Ġsyn": 7184,
      "staÃ°i": 7185,
      "stefna": 7186,
      "ĠtÃ¶f": 7187,
      "Ġgla": 7188,
      "taki": 7189,
      "onandi": 7190,
      "Ġverkefnis": 7191,
      "ĠstÃ³ran": 7192,
      "ĠÃ¡gÃ¦ti": 7193,
      "Ġspurninguna": 7194,
      "ĠnauÃ°ungar": 7195,
      "Ġeinustu": 7196,
      "ĠvÃŃsitÃ¶lu": 7197,
      "ĠÃ¡fall": 7198,
      "ĠÃŀingmenn": 7199,
      "ĠÃºtskÃ½r": 7200,
      "ĠÃºtflutnings": 7201,
      "ĠhÃ³fst": 7202,
      "Ġhollenska": 7203,
      "ĠkÃ¦rlega": 7204,
      "yfirlÃ½singu": 7205,
      "ĠÃºtilokaÃ°": 7206,
      "bÃ¡ta": 7207,
      "ĠbrjÃ³sti": 7208,
      "ĠBergvinsson": 7209,
      "ĠgÃ¦rkvÃ¶ldi": 7210,
      "Ġfat": 7211,
      "stÃŃma": 7212,
      "emma": 7213,
      "Ġbeit": 7214,
      "Ġverst": 7215,
      "Ã¾jÃ³nusta": 7216,
      "Ġskilum": 7217,
      "Ġleyft": 7218,
      "ĠjafnrÃ¦Ã°is": 7219,
      "ĠfyrirtÃ¦kjunum": 7220,
      "starfi": 7221,
      "ĠvandaÃ°": 7222,
      "ĠfagnaÃ°ar": 7223,
      "ĠviÃ°urkennd": 7224,
      "ĠpersÃ³nulega": 7225,
      "ĠhÃ©ldu": 7226,
      "Ġnefnir": 7227,
      "Ġkreppunni": 7228,
      "Ġkarla": 7229,
      "arhr": 7230,
      "Ġtexta": 7231,
      "ĠmeginatriÃ°um": 7232,
      "ĠvÃ¡trygging": 7233,
      "Ã¶t": 7234,
      "ĠbrÃ¡": 7235,
      "Ġframfyl": 7236,
      "ĠhÃ¦starÃ©ttar": 7237,
      "ĠtÃŃmapunk": 7238,
      "skiptingu": 7239,
      "Ġskattstof": 7240,
      "ĠÃ¡kveÃ°nu": 7241,
      "ĠsjÃ¡lfstÃ¦Ã°ismÃ¶nnum": 7242,
      "ĠÃįslandssÃ¶g": 7243,
      "ĠJÃ³ns": 7244,
      "Ġlaugar": 7245,
      "ĠfjÃ¶lmiÃ°l": 7246,
      "ĠsÃ¶gunnar": 7247,
      "Ġbankakerfinu": 7248,
      "ĠalÃ¾jÃ³Ã°legum": 7249,
      "krafa": 7250,
      "Ġtilkynnt": 7251,
      "Ġupplifa": 7252,
      "ĠstefnumÃ³t": 7253,
      "istrygginga": 7254,
      "ĠtrÃºnaÃ°ar": 7255,
      "ĠÃŀÃ³rÃ°arson": 7256,
      "ĠsÃ³larhr": 7257,
      "ĠIngibjÃ¶rg": 7258,
      "tÃ¦ka": 7259,
      "ĠfyrningarleiÃ°": 7260,
      "ck": 7261,
      "kjÃ¶ri": 7262,
      "Ġeyr": 7263,
      "ĠgrÃ³": 7264,
      "jÃ³ni": 7265,
      "Ġster": 7266,
      "afla": 7267,
      "ĠÃ³r": 7268,
      "ĠMjÃ¶g": 7269,
      "ĠvelferÃ°": 7270,
      "ĠfullyrÃ°i": 7271,
      "ĠKon": 7272,
      "Ġlagasetning": 7273,
      "ĠfÃ©lagsins": 7274,
      "Ġfagleg": 7275,
      "Ġnemendur": 7276,
      "lausa": 7277,
      "Ġbeinum": 7278,
      "ĠheilbrigÃ°iskerfinu": 7279,
      "ĠÃ¾ingflokki": 7280,
      "ĠVestur": 7281,
      "shygg": 7282,
      "ĠsveitarstjÃ³rnarkosning": 7283,
      "ĠsiÃ°ferÃ°": 7284,
      "om": 7285,
      "Ġvaf": 7286,
      "ĠopiÃ°": 7287,
      "nara": 7288,
      "verÃ°i": 7289,
      "ĠVat": 7290,
      "lagna": 7291,
      "annast": 7292,
      "ĠtalsmaÃ°ur": 7293,
      "Ġdagar": 7294,
      "Ġskilur": 7295,
      "ĠtÃŃmabÃ¦rt": 7296,
      "ĠÃģÃ°ur": 7297,
      "ĠslÃŃkan": 7298,
      "Ġfundinum": 7299,
      "Ġminnist": 7300,
      "frÃ¦Ã°i": 7301,
      "Ġaukinni": 7302,
      "ĠvandaÃ°a": 7303,
      "sÃ½na": 7304,
      "ĠsjÃ¡varÃºtveginn": 7305,
      "ferÃ°i": 7306,
      "ĠkrÃ³nan": 7307,
      "ĠÃ¾ingsÃ¡lyktunartillaga": 7308,
      "ĠsÃ¶gunni": 7309,
      "flug": 7310,
      "ĠBankasÃ½slu": 7311,
      "ĠKatrÃŃn": 7312,
      "ĠskuldastÃ¶Ã°u": 7313,
      "Ġforsendu": 7314,
      "ĠskÃ¶tusel": 7315,
      "ĠHaarde": 7316,
      "etta": 7317,
      "met": 7318,
      "ĠÃ¾Ã©tt": 7319,
      "urÃ¦Ã°u": 7320,
      "ĠtÃ¦m": 7321,
      "ĠnÃ³tum": 7322,
      "Ġkvar": 7323,
      "ĠupptÃ¶ku": 7324,
      "ĠatriÃ°iÃ°": 7325,
      "ĠskoÃ°an": 7326,
      "Ġhugsan": 7327,
      "tÃŃmum": 7328,
      "ferli": 7329,
      "ĠliÃ°inn": 7330,
      "burÃ°ar": 7331,
      "ĠeÃ°lilegum": 7332,
      "ĠhÃ¶ndunum": 7333,
      "Ġreyndi": 7334,
      "ĠsvÃ¦Ã°inu": 7335,
      "ĠaÃ°ferÃ°afrÃ¦Ã°i": 7336,
      "ĠsÃ©reignarsparnaÃ°": 7337,
      "ĠValgerÃ°ur": 7338,
      "ĠjafnrÃ©ttis": 7339,
      "ĠStjÃ³rnarrÃ¡Ã°": 7340,
      "ĠfjÃ¡rhÃ¦Ã°ir": 7341,
      "ĠfjÃ¶gurra": 7342,
      "ĠrÃ¡Ã°herrans": 7343,
      "gra": 7344,
      "ĠsÃ¶lum": 7345,
      "Ã¡Ã°i": 7346,
      "Ã¡kvÃ¶rÃ°": 7347,
      "ĠrÃŃf": 7348,
      "ĠbaÃ°": 7349,
      "Ġsamtals": 7350,
      "verÃ°ur": 7351,
      "ĠuppnÃ¡mi": 7352,
      "varpa": 7353,
      "ĠleiÃ°inni": 7354,
      "ĠÃ¡kveÃ°ur": 7355,
      "Ġgangast": 7356,
      "Ġeinfalda": 7357,
      "ĠfjÃ¡rmagni": 7358,
      "aÃ°ili": 7359,
      "Ġbarist": 7360,
      "ĠandsvÃ¶r": 7361,
      "ĠstaÃ°reyndir": 7362,
      "Ġeytt": 7363,
      "hÃ¶fum": 7364,
      "ĠsvipaÃ°": 7365,
      "ĠumsagnaraÃ°ilar": 7366,
      "ĠfrumvÃ¶rpum": 7367,
      "Ġhart": 7368,
      "ĠviÃ°semjendur": 7369,
      "Ġhamingju": 7370,
      "ĠÃ¶rfÃ¡um": 7371,
      "ĠSÃ©rstak": 7372,
      "drif": 7373,
      "fors": 7374,
      "Ġhent": 7375,
      "Ġgall": 7376,
      "ĠbÃ¦r": 7377,
      "Ã¶gunum": 7378,
      "Ã¾yn": 7379,
      "Ã¾Ã¶rf": 7380,
      "Ġsvei": 7381,
      "ĠsjÃ¡lfri": 7382,
      "Ġheyrir": 7383,
      "Ġvitley": 7384,
      "ĠtÃ¶ldum": 7385,
      "smarkmiÃ°": 7386,
      "ĠSamfylkinguna": 7387,
      "verksmiÃ°": 7388,
      "ĠstjÃ³rnarskrÃ¡rmÃ¡l": 7389,
      "ĠmÃŃnÃºt": 7390,
      "heimildum": 7391,
      "Ġsakna": 7392,
      "Ġrekstr": 7393,
      "ĠstjÃ³rnskipunar": 7394,
      "ĠefnahagslÃŃfinu": 7395,
      "Ġvaraform": 7396,
      "ĠviÃ°staddir": 7397,
      "Ġlappirnar": 7398,
      "aÃ°gerÃ°um": 7399,
      "ĠstÃ©tt": 7400,
      "Ġvergri": 7401,
      "ĠHal": 7402,
      "ĠdrÃ³": 7403,
      "ĠstjÃ³rnir": 7404,
      "ĠhugleiÃ°": 7405,
      "ĠlÃ¡gu": 7406,
      "ĠsjÃ³nar": 7407,
      "Ġdrag": 7408,
      "ĠlangtÃŃma": 7409,
      "samningur": 7410,
      "ĠAÃ°al": 7411,
      "ĠsumarÃ¾ingi": 7412,
      "ĠliÃ°i": 7413,
      "ĠSvona": 7414,
      "Ġlaunin": 7415,
      "ĠskuldabrÃ©f": 7416,
      "ĠreglugerÃ°ar": 7417,
      "ĠhaustiÃ°": 7418,
      "ĠkveÃ°ur": 7419,
      "Ġleikur": 7420,
      "Ġbundin": 7421,
      "ĠrannsÃ³kna": 7422,
      "ĠRagnar": 7423,
      "Ġframhaldsnefndar": 7424,
      "einn": 7425,
      "Ġsendir": 7426,
      "rik": 7427,
      "Ġframangre": 7428,
      "ĠSparis": 7429,
      "ĠsÃ©rstÃ¶Ã°u": 7430,
      "stjÃ³rar": 7431,
      "arfram": 7432,
      "ĠforstÃ¶Ã°um": 7433,
      "Ġauknu": 7434,
      "Ġregl": 7435,
      "ĠfÃ¦rum": 7436,
      "regl": 7437,
      "ĠUmhver": 7438,
      "gÃ¶ngum": 7439,
      "Ġfasteign": 7440,
      "ĠathyglisverÃ°": 7441,
      "astofnunar": 7442,
      "ĠforgangsraÃ°a": 7443,
      "ĠframboÃ°i": 7444,
      "hyggju": 7445,
      "ĠÃ¡byrgjast": 7446,
      "mÃ¡nuÃ°i": 7447,
      "ĠlÃŃffÃ¦rag": 7448,
      "ĠhÃºshitunar": 7449,
      "agr": 7450,
      "rÃ¦Ã°unum": 7451,
      "Ġinna": 7452,
      "ĠrÃŃkisstjÃ³rnir": 7453,
      "sat": 7454,
      "Ġorkun": 7455,
      "skrÃ¡r": 7456,
      "ĠlÃŃfi": 7457,
      "ĠlÃŃtum": 7458,
      "ĠjafnvÃ¦gi": 7459,
      "Ġhelsta": 7460,
      "Ġtekjurnar": 7461,
      "ĠtiltekiÃ°": 7462,
      "drott": 7463,
      "ĠlÃ¶gfrÃ¦Ã°i": 7464,
      "Ġfylgisk": 7465,
      "ĠframsÃ¶gum": 7466,
      "ĠatvinnuleysisbÃ¦tur": 7467,
      "ĠHerbertsson": 7468,
      "Ġundangengnum": 7469,
      "ĠfagnaÃ°arefni": 7470,
      "da": 7471,
      "tengd": 7472,
      "ÃŃÃ°a": 7473,
      "ĠviÃ°eigandi": 7474,
      "ĠÃŀur": 7475,
      "Ġskv": 7476,
      "ĠÃŃslenskur": 7477,
      "Ġskattkerfi": 7478,
      "ĠslÃŃkur": 7479,
      "ĠsamÃ¾ykkjum": 7480,
      "ĠskÃ½rum": 7481,
      "ĠskÃ½rari": 7482,
      "Ġefnahagsleg": 7483,
      "ĠlÃŃfs": 7484,
      "ĠHvenÃ¦r": 7485,
      "ĠhÃ¡lft": 7486,
      "ĠÃ¡hrifin": 7487,
      "bundin": 7488,
      "ĠGuÃ°jÃ³n": 7489,
      "Ġ2013": 7490,
      "ĠnÃ¡msmenn": 7491,
      "ĠRÃŃkisendurskoÃ°unar": 7492,
      "Ġblasa": 7493,
      "ĠfjÃ¡rmÃ¡lakerfi": 7494,
      "ĠgrundvallaratriÃ°um": 7495,
      "ĠVerÃ°i": 7496,
      "ĠaÃ°halds": 7497,
      "ĠBirgi": 7498,
      "Ġfyllilega": 7499,
      "ĠviÃ°staddur": 7500,
      "Ġgagnast": 7501,
      "ĠnjÃ³ti": 7502,
      "Ã°ing": 7503,
      "Ġsundur": 7504,
      "ĠlÃ©tta": 7505,
      "ssi": 7506,
      "ĠÃŀvert": 7507,
      "ttist": 7508,
      "issk": 7509,
      "ĠBÃ¶Ã°var": 7510,
      "ĠAlmenn": 7511,
      "ĠumrÃ¦Ã°unum": 7512,
      "Ġpre": 7513,
      "ĠNokk": 7514,
      "ĠvÃŃtt": 7515,
      "ĠSamning": 7516,
      "ĠhlutabrÃ©f": 7517,
      "ĠÃ¡kvÃ¶rÃ°unar": 7518,
      "ĠMeÃ°al": 7519,
      "Ġbarn": 7520,
      "ĠaÃ°ildarrÃŃk": 7521,
      "Ġuppbyggingar": 7522,
      "ĠlÃŃfeyrissjÃ³Ã°ina": 7523,
      "ĠverÃ°bÃ³lga": 7524,
      "ĠMagnÃºsson": 7525,
      "ĠkÃºga": 7526,
      "Ġdagset": 7527,
      "ĠglÃ¦s": 7528,
      "SÃį": 7529,
      "Ġva": 7530,
      "Ġminnar": 7531,
      "Ġtugi": 7532,
      "ĠumsÃ³knar": 7533,
      "Ġkalli": 7534,
      "Ġhafin": 7535,
      "ĠVonandi": 7536,
      "jÃ³Ã°andi": 7537,
      "ĠuppnÃ¡m": 7538,
      "Ġbyggingu": 7539,
      "Ġengir": 7540,
      "gerÃ°i": 7541,
      "Ġaldur": 7542,
      "viÃ°rÃ¦Ã°na": 7543,
      "ĠrÃ¶kin": 7544,
      "ĠerfiÃ°um": 7545,
      "hlutverki": 7546,
      "rÃ¡Ã°st": 7547,
      "ĠstjÃ³rnmÃ¡laflokkanna": 7548,
      "mundi": 7549,
      "ĠaÃ°ferÃ°ir": 7550,
      "Ġsameinast": 7551,
      "ĠframleiÃ°a": 7552,
      "ĠskerÃ°ingu": 7553,
      "Ġforeldra": 7554,
      "ĠÃ¾akkir": 7555,
      "ĠHarÃ°ardÃ³ttir": 7556,
      "ĠÃ¾verpÃ³litÃŃsk": 7557,
      "Ġskattheimtu": 7558,
      "Ġatvinnuuppbyggingu": 7559,
      "ĠHalld": 7560,
      "EC": 7561,
      "ow": 7562,
      "oka": 7563,
      "ĠÃ¾jÃ³nusta": 7564,
      "stÃŃm": 7565,
      "ĠviÃ°haf": 7566,
      "Ġfrem": 7567,
      "rak": 7568,
      "Ġafur": 7569,
      "Ġhefjast": 7570,
      "ĠVald": 7571,
      "Ġeigenda": 7572,
      "rÃ¡n": 7573,
      "ĠMegin": 7574,
      "jarÃ°a": 7575,
      "ĠEnginn": 7576,
      "lÃ½singar": 7577,
      "Ġmargf": 7578,
      "Ġlangs": 7579,
      "ĠvÃŃsind": 7580,
      "ĠheilbrigÃ°isnefnd": 7581,
      "ĠstÃ¦rÃ°": 7582,
      "ĠlandbÃºnaÃ°arnefnd": 7583,
      "Ġendurreisnar": 7584,
      "ĠvandamÃ¡lum": 7585,
      "ĠlÃŃfeyrisrÃ©tt": 7586,
      "ĠstigiÃ°": 7587,
      "ĠÃºthlutaÃ°": 7588,
      "ĠhagrÃ¦Ã°ingar": 7589,
      "ĠfjÃ¡rveitingar": 7590,
      "ĠHreyfingarinnar": 7591,
      "Ġreisa": 7592,
      "ĠIndefence": 7593,
      "ĠeignaumsÃ½slufÃ©lag": 7594,
      "Ġsamvisku": 7595,
      "form": 7596,
      "pu": 7597,
      "urum": 7598,
      "sskil": 7599,
      "Ġumsv": 7600,
      "Ã¾ol": 7601,
      "Ġeini": 7602,
      "ĠnÃºmer": 7603,
      "ĠskattamÃ¡l": 7604,
      "Ġskattkerfinu": 7605,
      "Ġvirtist": 7606,
      "ĠÃ¡kveÃ°nir": 7607,
      "gjafar": 7608,
      "ĠmilljarÃ°": 7609,
      "ĠmÃ¶guleikum": 7610,
      "Ġheyrist": 7611,
      "hÃ¦tti": 7612,
      "mÃ¦la": 7613,
      "Ġbless": 7614,
      "Ġleitast": 7615,
      "Ġstraum": 7616,
      "ĠÃĸssur": 7617,
      "Ġtrausti": 7618,
      "ĠauÃ°veldara": 7619,
      "ĠÃ¾ingheimur": 7620,
      "ĠgÃ¦fu": 7621,
      "Ġstopp": 7622,
      "ĠAtvinnuleys": 7623,
      "Ġafsala": 7624,
      "ĠÃ¾ingstÃ¶rfum": 7625,
      "ĠslegiÃ°": 7626,
      "ĠkÃŃlÃ³": 7627,
      "ĠlÃ¡nardrott": 7628,
      "AT": 7629,
      "hef": 7630,
      "veita": 7631,
      "Ã³Ã°um": 7632,
      "ĠblÃ¡": 7633,
      "Ġstandast": 7634,
      "Ġvarnar": 7635,
      "ĠFinn": 7636,
      "ĠÃ³raun": 7637,
      "Ġpon": 7638,
      "kosti": 7639,
      "ĠlÃŃnu": 7640,
      "isreg": 7641,
      "ĠorÃ°aÃ°": 7642,
      "ĠÃ¡hugi": 7643,
      "ĠgÃ³Ã°ir": 7644,
      "ĠhagrÃ¦Ã°a": 7645,
      "spek": 7646,
      "Ġhorn": 7647,
      "Ġeinstakar": 7648,
      "ĠÃ¾ingflokkur": 7649,
      "ĠsparisjÃ³Ã°unum": 7650,
      "veitu": 7651,
      "drÃ¦tti": 7652,
      "sÃ¦i": 7653,
      "Ġdreift": 7654,
      "ĠTryggvi": 7655,
      "Ġbankahruninu": 7656,
      "ĠnÃ¡ttÃºruauÃ°lindum": 7657,
      "ĠjÃ¶fnuÃ°": 7658,
      "ĠharÃ°lega": 7659,
      "afirÃ°i": 7660,
      "ĠStaÃ°reynd": 7661,
      "ĠtÃŃmapunkti": 7662,
      "gleiki": 7663,
      "Ġba": 7664,
      "ĠskoÃ°uÃ°": 7665,
      "Ġvaranlega": 7666,
      "Ã¾re": 7667,
      "ĠEnda": 7668,
      "Ġallrar": 7669,
      "ĠnÃ½mÃ¦li": 7670,
      "Ġkross": 7671,
      "ĠOEC": 7672,
      "tekju": 7673,
      "hÃ¦far": 7674,
      "ĠgrÃŃÃ°arlegu": 7675,
      "Ġvont": 7676,
      "akerfinu": 7677,
      "ĠstjÃ³rnarliÃ°um": 7678,
      "ĠrÃ¦Ã°ustÃ³li": 7679,
      "ĠsannfÃ¦rÃ°": 7680,
      "Ġmerkileg": 7681,
      "ĠÃ¡ratuga": 7682,
      "Ġfjarri": 7683,
      "ĠbÃ½Ã°ur": 7684,
      "Ġmisskilning": 7685,
      "Ġvextirnir": 7686,
      "ĠbÃ¶rnin": 7687,
      "ĠbÃ³khald": 7688,
      "ĠhvalveiÃ°ar": 7689,
      "ĠÃ³ljÃ³s": 7690,
      "ĠlÃ½Ã°rÃ¦Ã°iÃ°": 7691,
      "ĠOECD": 7692,
      "prÃ³": 7693,
      "vat": 7694,
      "yki": 7695,
      "ĠjÃ¶": 7696,
      "ĠsÃ¦tt": 7697,
      "Ġmeina": 7698,
      "ĠdrÃ¡tt": 7699,
      "ĠdÃ½ra": 7700,
      "ĠatriÃ°": 7701,
      "ĠrÃ¦Ã°una": 7702,
      "ĠstjÃ³rnvald": 7703,
      "ĠorÃ°aÃ°i": 7704,
      "jÃºfa": 7705,
      "ĠTal": 7706,
      "Ġaukningu": 7707,
      "Ġdettur": 7708,
      "ĠnauÃ°synlega": 7709,
      "ĠÃ¾jÃ³Ã°aratkvÃ¦Ã°i": 7710,
      "ĠlandbÃºnaÃ°arins": 7711,
      "ĠGunnarsdÃ³ttur": 7712,
      "ĠskattahÃ¦kkunum": 7713,
      "rÃ¦nu": 7714,
      "ĠfjÃ¡rmÃ¡lakerfisins": 7715,
      "deilt": 7716,
      "ĠfasteignaveÃ°": 7717,
      "ĠatvinnumÃ¡lum": 7718,
      "ĠGuÃ°finnsson": 7719,
      "Ġbotn": 7720,
      "hi": 7721,
      "net": 7722,
      "Ġvanga": 7723,
      "ĠglÃ¶g": 7724,
      "ĠgarÃ°i": 7725,
      "skot": 7726,
      "ĠÃ¾Ã¡tta": 7727,
      "ĠÃ³lÃ¶g": 7728,
      "ĠÃºtvarp": 7729,
      "ĠrÃ¦Ã°i": 7730,
      "ĠBara": 7731,
      "ĠrÃ©ttlÃ¡": 7732,
      "komiÃ°": 7733,
      "ĠsamÃ¾ykktir": 7734,
      "ĠJos": 7735,
      "ĠnÃ¦gj": 7736,
      "Ġlosa": 7737,
      "ĠbyggÃ°um": 7738,
      "ĠsjÃ³Ã°i": 7739,
      "Ġtvisvar": 7740,
      "Ġregla": 7741,
      "Ġhugsanlegt": 7742,
      "ĠÃ³skum": 7743,
      "ĠÃ³skir": 7744,
      "Ġskrifar": 7745,
      "ĠdÃ¦ma": 7746,
      "2007": 7747,
      "ĠfjÃ¡rlagafrumvarpi": 7748,
      "ĠAtla": 7749,
      "flest": 7750,
      "Ġhreyfingin": 7751,
      "Ġkarlar": 7752,
      "ĠefnahagslÃŃfiÃ°": 7753,
      "Ġgeys": 7754,
      "ĠdÃ³msvald": 7755,
      "Ġlifum": 7756,
      "Ġforsvarsmenn": 7757,
      "ĠhugtakiÃ°": 7758,
      "ĠLilju": 7759,
      "Ġkynnti": 7760,
      "ĠBreytingar": 7761,
      "fÃ¶llum": 7762,
      "grÃ¡Ã°a": 7763,
      "sÃ¦k": 7764,
      "stan": 7765,
      "alagi": 7766,
      "ĠHin": 7767,
      "aksÃ³knar": 7768,
      "ĠBank": 7769,
      "Ġdagur": 7770,
      "Ġundanskil": 7771,
      "tilskip": 7772,
      "ĠEfna": 7773,
      "Ġ33": 7774,
      "Ġmargan": 7775,
      "ĠhÃ¡deg": 7776,
      "Ġstyrkt": 7777,
      "ĠÃ¾Ã½Ã°ingar": 7778,
      "breytni": 7779,
      "ĠstundaÃ°": 7780,
      "ĠUmrÃ¦Ã°an": 7781,
      "ĠsvÃ¶rum": 7782,
      "verÃ°s": 7783,
      "Ġhyggist": 7784,
      "ĠtÃŃÃ°kast": 7785,
      "ĠprÃ³sen": 7786,
      "ĠÃ³Ã¾Ã¦g": 7787,
      "Ġsamninganefndin": 7788,
      "ĠstyÃ°ur": 7789,
      "ĠmÃ¡nuÃ°ir": 7790,
      "ĠskÃ¶mmum": 7791,
      "aleysi": 7792,
      "Ġatvinnulausir": 7793,
      "ĠSpurningin": 7794,
      "Ġofbeldi": 7795,
      "60": 7796,
      "tandi": 7797,
      "Ġlau": 7798,
      "Ã¡liÃ°": 7799,
      "ĠnauÃ°a": 7800,
      "Ġkall": 7801,
      "Ġtiln": 7802,
      "slit": 7803,
      "Ġafdrif": 7804,
      "els": 7805,
      "ĠÃºtgreiÃ°slu": 7806,
      "ĠstjÃ³rnarinnar": 7807,
      "ĠBÃº": 7808,
      "ĠÃ¾ingmannanefnd": 7809,
      "ĠLok": 7810,
      "Ġfengjum": 7811,
      "smanns": 7812,
      "ĠÃ¾ingsÃ¶lum": 7813,
      "Ġ45": 7814,
      "ĠfullyrÃ°ingar": 7815,
      "Ġlagalegu": 7816,
      "sinnis": 7817,
      "ĠnÃ¡ttÃºruverndarÃ¡Ã¦tlun": 7818,
      "Ġhleypa": 7819,
      "dÃ³mstÃ³lsins": 7820,
      "hÃ©": 7821,
      "ĠÃ¾rey": 7822,
      "agrein": 7823,
      "Ġkast": 7824,
      "Ġafsk": 7825,
      "Ġkos": 7826,
      "Ġhugur": 7827,
      "Ġhugsi": 7828,
      "jÃ¶rÃ°": 7829,
      "ĠsamningsmarkmiÃ°": 7830,
      "ĠmÃ¡nu": 7831,
      "ĠorÃ°rÃ©tt": 7832,
      "vettvangi": 7833,
      "ĠsniÃ°": 7834,
      "lÃ¡num": 7835,
      "ĠlÃ¦gi": 7836,
      "Ġhorfi": 7837,
      "ĠtÃ¦kju": 7838,
      "Ġvandann": 7839,
      "ĠhÃ³pa": 7840,
      "trygginga": 7841,
      "ĠeiginfjÃ¡r": 7842,
      "ĠtekjuhliÃ°": 7843,
      "Ġbland": 7844,
      "ĠaÃ°ildarviÃ°rÃ¦Ã°um": 7845,
      "Ġreynslan": 7846,
      "Ġskynsamleg": 7847,
      "Ġraunveruleg": 7848,
      "ĠbensÃŃ": 7849,
      "stigiÃ°": 7850,
      "fyrirtÃ¦kin": 7851,
      "ĠSigurÃ°ssonar": 7852,
      "Ġskamms": 7853,
      "ĠfjÃ¡rmÃ¡lakerfiÃ°": 7854,
      "Ġheiti": 7855,
      "ĠtapaÃ°": 7856,
      "Ġatvinnugreinar": 7857,
      "ĠkjÃ¶t": 7858,
      "ĠFriÃ°leifsdÃ³ttir": 7859,
      "ĠskoÃ°anak": 7860,
      "-,": 7861,
      "kall": 7862,
      "ĠsÃ¦ta": 7863,
      "Ġvina": 7864,
      "varandi": 7865,
      "Ġdre": 7866,
      "Ġeinir": 7867,
      "ĠsÃ©rtÃ¦k": 7868,
      "ĠnÃ¡mi": 7869,
      "Ã°umst": 7870,
      "Ġatvinnuveg": 7871,
      "ĠLÃ¡na": 7872,
      "Ġalmennilega": 7873,
      "ĠfjÃ¶lgaÃ°": 7874,
      "Ġhelg": 7875,
      "Ġvanskil": 7876,
      "ĠstuÃ°ningur": 7877,
      "esen": 7878,
      "Ġ194": 7879,
      "ĠlÃ¶ggjafinn": 7880,
      "Ġselt": 7881,
      "ĠÃ¡formum": 7882,
      "Ġgeyma": 7883,
      "ĠmikilvÃ¦gustu": 7884,
      "Ġinnheimtu": 7885,
      "ĠlandbÃºnaÃ°inn": 7886,
      "ĠlÃ¦rt": 7887,
      "ĠHugmynd": 7888,
      "Ã¡Ã¦tlunar": 7889,
      "ĠUmhverfis": 7890,
      "Ġvangavel": 7891,
      "Ġseld": 7892,
      "era": 7893,
      "Ã³n": 7894,
      "Ġgull": 7895,
      "agskrÃ¡": 7896,
      "ĠummÃ¦lum": 7897,
      "ork": 7898,
      "alvar": 7899,
      "ĠÃŀÃº": 7900,
      "ĠmÃ¡lunum": 7901,
      "Ġvarpa": 7902,
      "ĠFÃ©lag": 7903,
      "ĠÃºtlÃ¶ndum": 7904,
      "Ġteknir": 7905,
      "vegis": 7906,
      "Ġfullan": 7907,
      "Ġskattana": 7908,
      "Ġgreint": 7909,
      "ĠLagt": 7910,
      "Ã³tann": 7911,
      "ĠmiÃ°ar": 7912,
      "ĠsanngjÃ¶r": 7913,
      "ĠsannfÃ¦ra": 7914,
      "ĠFramkvÃ¦md": 7915,
      "ĠfÃ¦st": 7916,
      "mÃ¦lis": 7917,
      "Ġstundu": 7918,
      "ĠsjÃ³Ã°num": 7919,
      "ĠsjÃºkrahÃºs": 7920,
      "ĠkallaÃ°ir": 7921,
      "Ġveiti": 7922,
      "ĠMathi": 7923,
      "Ġeinbeita": 7924,
      "ĠrÃ½m": 7925,
      "ĠrÃ¶kstudd": 7926,
      "ĠÃŃbÃºÃ°arhÃºsnÃ¦Ã°i": 7927,
      "ĠAtvinnuleysistrygginga": 7928,
      "ĠMathiesen": 7929,
      "Ġvott": 7930,
      "sset": 7931,
      "Ġtilgreind": 7932,
      "Ġsveig": 7933,
      "ĠFjÃ¶l": 7934,
      "ĠfÃ¡rÃ¡n": 7935,
      "Ġhluthaf": 7936,
      "ĠsÃ¡tu": 7937,
      "ĠhorfiÃ°": 7938,
      "ĠhÃ¦kkar": 7939,
      "ĠbarÃ¡tt": 7940,
      "naÃ°urinn": 7941,
      "ĠstjÃ³rnarandstÃ¶Ã°una": 7942,
      "ĠÃºtskÃ½rt": 7943,
      "Ġleigja": 7944,
      "Ã¾Ã¡tttÃ¶ku": 7945,
      "ĠSigurÃ°ardÃ³ttur": 7946,
      "ĠFriÃ°leifsdÃ³ttur": 7947,
      "ĠstofnfjÃ¡reigendur": 7948,
      "Ġmarkviss": 7949,
      "ĠniÃ°urfellingu": 7950,
      "Ġpontu": 7951,
      "Ã°ra": 7952,
      "ĠsÃ¦n": 7953,
      "Ġhark": 7954,
      "eggja": 7955,
      "ĠbjÃ³": 7956,
      "ĠHafa": 7957,
      "lista": 7958,
      "ĠFrÃ©tta": 7959,
      "Ġeignast": 7960,
      "ĠII": 7961,
      "ĠskÃ½rslur": 7962,
      "ĠSamt": 7963,
      "ĠStein": 7964,
      "Ġvop": 7965,
      "Ġskuldbinding": 7966,
      "ĠandstÃ¦Ã°": 7967,
      "Ġvalin": 7968,
      "ĠlÃ¶gfrÃ¦Ã°ingar": 7969,
      "Ã¶nnunum": 7970,
      "ĠlÃ¡gmarki": 7971,
      "Ġkarl": 7972,
      "ĠklÃ¡rlega": 7973,
      "ĠJÃ³hÃ¶nnu": 7974,
      "Ġfinnast": 7975,
      "ĠstjÃ³rnarskipunarlaga": 7976,
      "Ġhjarta": 7977,
      "ĠvinsÃ¦": 7978,
      "ĠGuÃ°laugur": 7979,
      "ylli": 7980,
      "Ġmunar": 7981,
      "sturinn": 7982,
      "Ġlauk": 7983,
      "ammar": 7984,
      "alau": 7985,
      "ĠrÃŃkt": 7986,
      "ĠASÃį": 7987,
      "Ġ29": 7988,
      "ĠÃŃslenskrar": 7989,
      "Ġgengu": 7990,
      "ĠsÃ¡u": 7991,
      "ĠfÃ©lagi": 7992,
      "Ġfeli": 7993,
      "ĠupplÃ½sti": 7994,
      "ĠvandamÃ¡liÃ°": 7995,
      "Ġfyrirspurnina": 7996,
      "ĠkrÃ³nur": 7997,
      "Ġburtu": 7998,
      "sviÃ°i": 7999,
      "ĠlÃ¶ggjafarÃ¾ingi": 8000,
      "ĠKonrÃ¡Ã°": 8001,
      "ĠÃ¾vÃ¦": 8002,
      "ĠÃ¾ol": 8003,
      "Ġfynd": 8004,
      "Ġbra": 8005,
      "Ġkrist": 8006,
      "Ġskug": 8007,
      "varÃ°a": 8008,
      "ĠÃ¾jÃ³Ã°garÃ°": 8009,
      "ĠfÃ¡ir": 8010,
      "ĠskipaÃ°i": 8011,
      "Ġjafnmikil": 8012,
      "ĠÃģg": 8013,
      "ĠslÃŃkir": 8014,
      "Ġ2002": 8015,
      "ĠforsÃ¦tisrÃ¡Ã°her": 8016,
      "spor": 8017,
      "ĠsjÃ³num": 8018,
      "ĠdrÃ¶gum": 8019,
      "Ġbarst": 8020,
      "ĠÃ³hag": 8021,
      "Ġmenntunar": 8022,
      "Ġtilteknar": 8023,
      "Ġill": 8024,
      "ĠâĢ¦âĢľ": 8025,
      "Ġ1999": 8026,
      "ĠVeriÃ°": 8027,
      "Ġrefsi": 8028,
      "ĠÃ¾unga": 8029,
      "ĠDanmÃ¶rku": 8030,
      "ĠÃ¾ingskÃ¶pum": 8031,
      "ĠhrÃ¦Ã°slu": 8032,
      "Ġeykur": 8033,
      "Ġfyrirspyrjanda": 8034,
      "Ġfleirum": 8035,
      "ĠHalldÃ³r": 8036,
      "ViÃ°": 8037,
      "junnar": 8038,
      "Ġsbr": 8039,
      "ĠtÃ¶k": 8040,
      "ungu": 8041,
      "ĠknÃº": 8042,
      "ĠÃ¾vÃŃlÃŃk": 8043,
      "ĠÃ³n": 8044,
      "Ã°arÃ¡": 8045,
      "Ġalgert": 8046,
      "ĠtÃŃmamÃ³t": 8047,
      "Ġtalsmenn": 8048,
      "ĠleiÃ°um": 8049,
      "vÃ¦nt": 8050,
      "Ġpl": 8051,
      "Ġplan": 8052,
      "ĠfjÃ¡rmÃ¡lum": 8053,
      "Ġgreinir": 8054,
      "Ġheilsu": 8055,
      "Ġflokknum": 8056,
      "gangast": 8057,
      "Ġ600": 8058,
      "ĠliÃ°um": 8059,
      "Ġ700": 8060,
      "Ġlitlum": 8061,
      "ĠhliÃ°ina": 8062,
      "ĠpersÃ³nuafslÃ¡tt": 8063,
      "ĠEinari": 8064,
      "rannsÃ³k": 8065,
      "ĠSkarp": 8066,
      "ĠfjÃ¡rmÃ¡lafyrirtÃ¦kjum": 8067,
      "ĠumsagnaraÃ°ila": 8068,
      "jÃ¶fnun": 8069,
      "ĠinnlÃ¡ns": 8070,
      "Ġsendiher": 8071,
      "Ġstakk": 8072,
      "ĠÃ³Ã¾arfi": 8073,
      "ĠupplifaÃ°": 8074,
      "ĠgreiÃ°slugetu": 8075,
      "ĠFrÃ©ttablaÃ°": 8076,
      "giÃ°": 8077,
      "Ãģ": 8078,
      "ĠhÃ¡l": 8079,
      "ĠgrÃ¡": 8080,
      "aleik": 8081,
      "skrepp": 8082,
      "Ġframv": 8083,
      "ugÃ¦": 8084,
      "ĠnÃºll": 8085,
      "ĠinnviÃ°": 8086,
      "ĠinngÃ¶ngu": 8087,
      "Ġlagar": 8088,
      "Ã¾ingsins": 8089,
      "ĠBrÃ¡": 8090,
      "ĠniÃ°urgreiÃ°": 8091,
      "atil": 8092,
      "Ã¡ttÃºr": 8093,
      "ĠstarfaÃ°i": 8094,
      "ĠjafnrÃ¦Ã°": 8095,
      "Ġheilu": 8096,
      "frÃ¦Ã°ist": 8097,
      "smann": 8098,
      "Ġdetta": 8099,
      "sagnir": 8100,
      "ĠkjÃ¶rin": 8101,
      "Ġvaxtar": 8102,
      "ĠhlÃ½Ã°a": 8103,
      "Ġfrestun": 8104,
      "ĠfjÃ¡rmÃ¡lakerfinu": 8105,
      "Ġkvikmynda": 8106,
      "Ġfestu": 8107,
      "ĠmÃ¦lti": 8108,
      "bÃ½li": 8109,
      "ĠÃ³sanngjarnt": 8110,
      "ĠÃŃviln": 8111,
      "hÃ©Ã°in": 8112,
      "ĠSkarphÃ©Ã°in": 8113,
      "kunar": 8114,
      "tand": 8115,
      "ÃŃsi": 8116,
      "ĠtjÃ³ni": 8117,
      "alÃ¦kk": 8118,
      "laganna": 8119,
      "ĠFor": 8120,
      "ĠnÃ½s": 8121,
      "ĠnÃ½liÃ°": 8122,
      "ĠniÃ°urstÃ¶Ã°um": 8123,
      "Ġhlutunum": 8124,
      "Ġhluthafa": 8125,
      "fÃ©laga": 8126,
      "ĠdÃ³mara": 8127,
      "ĠÃ¡byrgÃ°ina": 8128,
      "ĠÃ¾Ã¡tttak": 8129,
      "grunn": 8130,
      "Ġathugasemda": 8131,
      "ĠbrÃ½nu": 8132,
      "ĠÃ¡fanga": 8133,
      "Ġskynsemi": 8134,
      "heimilda": 8135,
      "ĠmikilvÃ¦gara": 8136,
      "ĠÃ¡nÃ¦gÃ°": 8137,
      "ĠlÃ¶gfrÃ¦Ã°inga": 8138,
      "Ġ1991": 8139,
      "Ġathugunar": 8140,
      "Ġbeiti": 8141,
      "Ġafborganir": 8142,
      "ĠStaÃ°reyndin": 8143,
      "linn": 8144,
      "ĠsÃ¶k": 8145,
      "arins": 8146,
      "Ġhla": 8147,
      "Ġhim": 8148,
      "Ġhalli": 8149,
      "ĠÃ¡st": 8150,
      "ĠÃ¡tak": 8151,
      "ĠÃ¡vÃ¶x": 8152,
      "afrumvÃ¶rp": 8153,
      "Ġsams": 8154,
      "Ġafnum": 8155,
      "ĠÃºtgerÃ°": 8156,
      "isspar": 8157,
      "estu": 8158,
      "Ġnefndarf": 8159,
      "ĠfÃ¡ist": 8160,
      "ĠslÃŃks": 8161,
      "Ġraunin": 8162,
      "ĠSamtaka": 8163,
      "Ġ38": 8164,
      "munur": 8165,
      "brigÃ°is": 8166,
      "Ġlangur": 8167,
      "ottiÃ°": 8168,
      "ĠgÃ³Ã°ra": 8169,
      "ĠtÃŃÃ°indi": 8170,
      "ĠhlutafÃ©": 8171,
      "ĠBjargrÃ¡Ã°a": 8172,
      "Ġfluttar": 8173,
      "ĠSkip": 8174,
      "ĠundanfariÃ°": 8175,
      "ĠlandsbyggÃ°ina": 8176,
      "virÃ°i": 8177,
      "ĠrÃ¶kstyÃ°ja": 8178,
      "ĠArn": 8179,
      "ĠevrÃ³pska": 8180,
      "leitni": 8181,
      "ĠorÃ°astaÃ°": 8182,
      "ĠSÃ©rstaklega": 8183,
      "bÃŃ": 8184,
      "boÃ°i": 8185,
      "harÃ°": 8186,
      "kla": 8187,
      "munum": 8188,
      "stÃ©tt": 8189,
      "stefn": 8190,
      "ĠgeÃ°": 8191,
      "eÃ°a": 8192,
      "Ġsamspil": 8193,
      "Ġutand": 8194,
      "ĠEy": 8195,
      "ĠSkuld": 8196,
      "ĠfrÃ¡vik": 8197,
      "Ġstarfsem": 8198,
      "ĠgreiÃ°ir": 8199,
      "ĠlÃ½Ã°i": 8200,
      "Ġhagkerfi": 8201,
      "ĠBraga": 8202,
      "Ġgefnar": 8203,
      "ĠrekiÃ°": 8204,
      "ĠÃ¶rstu": 8205,
      "ĠÃ¶rva": 8206,
      "Ġvirkar": 8207,
      "Ġdregist": 8208,
      "ĠstaÃ°festingu": 8209,
      "ĠdÃ¦miÃ°": 8210,
      "ĠÃŀingmaÃ°urinn": 8211,
      "ĠbÃ¦jar": 8212,
      "ĠÃºrskurÃ°ar": 8213,
      "ĠfjÃ¶lmÃ¶rgum": 8214,
      "ĠÃ¾rÃ½stingi": 8215,
      "ĠvÃ¶nduÃ°": 8216,
      "ĠÃŀÃ³rhallsson": 8217,
      "ĠklukkutÃŃma": 8218,
      "ĠVinnumÃ¡l": 8219,
      "ĠEfnahags": 8220,
      "agskrÃ¡rum": 8221,
      "mÃ¡n": 8222,
      "tinu": 8223,
      "Ġsafna": 8224,
      "ĠÃ¾okk": 8225,
      "Ã¡her": 8226,
      "Ġmagn": 8227,
      "ĠviÃ°tali": 8228,
      "efsson": 8229,
      "ĠskjÃ³l": 8230,
      "Ġafmark": 8231,
      "vara": 8232,
      "varÃ°ar": 8233,
      "jÃ¶ku": 8234,
      "indu": 8235,
      "Ġleynd": 8236,
      "Ġskipi": 8237,
      "Ġ2001": 8238,
      "ĠHval": 8239,
      "ĠsjÃ¡varÃºtvegsins": 8240,
      "ĠhÃ¦kkanir": 8241,
      "Ġskuldavanda": 8242,
      "rautar": 8243,
      "ĠandvÃŃ": 8244,
      "ĠyrÃ°um": 8245,
      "ĠprÃ³sent": 8246,
      "reikningum": 8247,
      "Ġvissum": 8248,
      "Ġskipulagi": 8249,
      "ĠrÃ©ttarstÃ¶Ã°u": 8250,
      "ĠvelferÃ°arkerfiÃ°": 8251,
      "ĠembÃ¦ttismanna": 8252,
      "strinum": 8253,
      "ĠMats": 8254,
      "ĠtvÃ¶falda": 8255,
      "Ġgesti": 8256,
      "ĠefnahagssvÃ¦Ã°inu": 8257,
      "ĠsamanburÃ°i": 8258,
      "Ġsporum": 8259,
      "Ġskortur": 8260,
      "ĠvÃ¦ndi": 8261,
      "Ġumhugsunarefni": 8262,
      "ĠvaxtagreiÃ°slur": 8263,
      "ĠÃ³tvÃŃ": 8264,
      "ĠLÃ½Ã°rÃ¦Ã°is": 8265,
      "ĠutandagskrÃ¡rum": 8266,
      "juna": 8267,
      "jafa": 8268,
      "mu": 8269,
      "vÃ¦Ã°i": 8270,
      "ĠÃ¾Ã©r": 8271,
      "arnar": 8272,
      "Ġhang": 8273,
      "Ã¶tt": 8274,
      "Ġtilra": 8275,
      "Ġstald": 8276,
      "Ġskynd": 8277,
      "Ġvart": 8278,
      "luÃ°": 8279,
      "ako": 8280,
      "Ġdan": 8281,
      "ĠhraÃ°ar": 8282,
      "Ġheimsins": 8283,
      "tÃ¦ki": 8284,
      "Ġsein": 8285,
      "Ġheilt": 8286,
      "Ġkosningu": 8287,
      "Ġopinbert": 8288,
      "leikana": 8289,
      "ĠvÃŃsinda": 8290,
      "Ġregluverki": 8291,
      "Ã¦ndur": 8292,
      "Ġfyrirspurnum": 8293,
      "Ġgrunninn": 8294,
      "ĠskrefiÃ°": 8295,
      "grip": 8296,
      "Ġfylgdi": 8297,
      "Ġsamninganefndarinnar": 8298,
      "ĠÃ¶flugt": 8299,
      "ĠhljÃ³Ã°s": 8300,
      "ĠÃ¡ramÃ³tin": 8301,
      "ĠRagnheiÃ°i": 8302,
      "ĠfjÃ¡rmÃ¡lastofnanir": 8303,
      "ĠlÃ¶ggjafarvaldiÃ°": 8304,
      "ĠverÃ°lags": 8305,
      "ĠHarÃ°ardÃ³ttur": 8306,
      "ĠBorgarahreyfingarinnar": 8307,
      "Ġbeindi": 8308,
      "Ġundantekningar": 8309,
      "ĠsamdrÃ¡ttur": 8310,
      "ĠverÃ°mÃ¦taskÃ¶pun": 8311,
      "ĠLÃŃfeyrissjÃ³Ã°": 8312,
      "Ġgjaldeyristekjur": 8313,
      "ĠJosefsson": 8314,
      "55": 8315,
      "fulltrÃº": 8316,
      "hÃ¦ttu": 8317,
      "aÃ°komandi": 8318,
      "Ġlendir": 8319,
      "Ġbey": 8320,
      "enst": 8321,
      "Ġskau": 8322,
      "Ġfyrirliggjandi": 8323,
      "undu": 8324,
      "ĠÃ¾inghald": 8325,
      "ldar": 8326,
      "ĠforÃ°ast": 8327,
      "Ġskuldsetning": 8328,
      "Ġvirt": 8329,
      "ĠsamÃ¾ykkir": 8330,
      "ĠferliÃ°": 8331,
      "ĠutanaÃ°komandi": 8332,
      "Ġheila": 8333,
      "ĠheilmikiÃ°": 8334,
      "Ġrekur": 8335,
      "Ġefnisleg": 8336,
      "ĠiÃ°ulega": 8337,
      "ĠsmÃ¦rri": 8338,
      "ĠJÃ³nssyni": 8339,
      "Ġleggst": 8340,
      "ĠÃ¡lveriÃ°": 8341,
      "ĠjafnaÃ°ar": 8342,
      "ĠstrÃŃÃ°": 8343,
      "gengist": 8344,
      "Ġskattlagning": 8345,
      "ĠÃ¾ingfundur": 8346,
      "ĠmannrÃ©ttinda": 8347,
      "ĠÃ¾ingheimi": 8348,
      "ĠnÃ½rrar": 8349,
      "ĠstjÃ³rnarfrumvarp": 8350,
      "Ġspila": 8351,
      "ĠefnahagssvÃ¦Ã°iÃ°": 8352,
      "Ġsleppa": 8353,
      "ĠvirÃ°ulegs": 8354,
      "ĠÃ³skiljanlegt": 8355,
      "ĠSverrisdÃ³ttir": 8356,
      "ĠÃ¶Ã°last": 8357,
      "ĠÃ¡rslok": 8358,
      "ĠgaumgÃ¦f": 8359,
      "Ġafskrifa": 8360,
      "lÃ©": 8361,
      "ond": 8362,
      "ting": 8363,
      "ĠfÃŃ": 8364,
      "ĠÃ¡skor": 8365,
      "Ã³ra": 8366,
      "Ġgir": 8367,
      "Ġfrelsi": 8368,
      "ĠVG": 8369,
      "ĠVerÃ°": 8370,
      "ĠdÃ³tt": 8371,
      "Ã¡Ã°herrann": 8372,
      "ĠÃ¡rÃ©tt": 8373,
      "Ġhrinda": 8374,
      "ĠhÃ¶fn": 8375,
      "ĠskipaÃ°ur": 8376,
      "ĠlÃ½s": 8377,
      "ĠvinnuhÃ³p": 8378,
      "samninganna": 8379,
      "ĠÃ¡byrgÃ°in": 8380,
      "ĠHversu": 8381,
      "ĠSÃŃÃ°ast": 8382,
      "ĠjÃ¡ta": 8383,
      "ĠsÃ©rfrÃ¦Ã°i": 8384,
      "Ġbreitt": 8385,
      "Ġfresti": 8386,
      "Ġdeilu": 8387,
      "ĠlandbÃºnaÃ°arnefndar": 8388,
      "ĠMargt": 8389,
      "Ġsterkt": 8390,
      "Ġsterkari": 8391,
      "lants": 8392,
      "ĠKaupmanna": 8393,
      "ĠundirritaÃ°": 8394,
      "Ġkerfishrun": 8395,
      "hÃºss": 8396,
      "ĠhrÃ¦ddur": 8397,
      "lantshaf": 8398,
      "fjÃ¡reig": 8399,
      "key": 8400,
      "arÃ¡Ã°uneyti": 8401,
      "Ġvind": 8402,
      "amann": 8403,
      "ĠraÃ°": 8404,
      "Ġbeggja": 8405,
      "ĠviÃ°ur": 8406,
      "efla": 8407,
      "legs": 8408,
      "eyt": 8409,
      "ĠÃºtlend": 8410,
      "ĠhlustaÃ°i": 8411,
      "arfÃ©lag": 8412,
      "âĢ¦": 8413,
      "Ġmunn": 8414,
      "ĠfÃ¡tt": 8415,
      "ĠvoriÃ°": 8416,
      "ĠNAT": 8417,
      "Ġstyrki": 8418,
      "ĠrÃŃkisÃ¡byrgÃ°inni": 8419,
      "ĠRÃŃkharÃ°": 8420,
      "Ġtiltekinn": 8421,
      "ĠÃ³lÃŃklegt": 8422,
      "ĠÃĵskar": 8423,
      "ĠFjÃ¡rmÃ¡l": 8424,
      "ĠÃ¾jÃ³Ã°fÃ©lagiÃ°": 8425,
      "ĠGunnarssyni": 8426,
      "ĠÃ¾Ãºsundir": 8427,
      "ĠstÃ¶Ã°va": 8428,
      "Ġ1995": 8429,
      "ĠJafnvel": 8430,
      "gefiÃ°": 8431,
      "ĠtÃŃmabilinu": 8432,
      "ĠsÃ©reignarsparnaÃ°inn": 8433,
      "Ġtilkynna": 8434,
      "ĠseÃ°labankastjÃ³ri": 8435,
      "ĠhÃ¡marki": 8436,
      "ĠtÃ¶lvupÃ³st": 8437,
      "ĠBack": 8438,
      "Ġneytenda": 8439,
      "ĠumboÃ°i": 8440,
      "ĠeinkavÃ¦Ã°ingu": 8441,
      "sjÃºkra": 8442,
      "ĠhrÃ³sa": 8443,
      "arfars": 8444,
      "ĠNATO": 8445,
      "ĠBackman": 8446,
      "St": 8447,
      "fjarÃ°ar": 8448,
      "tunar": 8449,
      "Ã°un": 8450,
      "Ġslita": 8451,
      "Ã¦l": 8452,
      "stÃ¦r": 8453,
      "Ġolli": 8454,
      "ilÃŃf": 8455,
      "Ã¶pp": 8456,
      "Ġlendi": 8457,
      "Ġgist": 8458,
      "agnaÃ°": 8459,
      "Ġhefst": 8460,
      "ektar": 8461,
      "ĠÃįs": 8462,
      "ĠÃ³l": 8463,
      "ĠÃºtveg": 8464,
      "astof": 8465,
      "Ã¾ingmenn": 8466,
      "Ġyfirveg": 8467,
      "ĠnÃ¡st": 8468,
      "Ġheimildar": 8469,
      "ĠfjÃ¡rmÃ¡lakrepp": 8470,
      "ĠvarÃ°aÃ°i": 8471,
      "lÃŃna": 8472,
      "ĠtryggÃ°": 8473,
      "Ġsvarar": 8474,
      "Ġfyrsti": 8475,
      "ĠmiÃ°ju": 8476,
      "jÃ¶lda": 8477,
      "ĠstjÃ³rnmÃ¡lamanna": 8478,
      "Ġheimildum": 8479,
      "ferÃ°um": 8480,
      "uÃ°ust": 8481,
      "Ġ2016": 8482,
      "gÃ¶ng": 8483,
      "ĠÃŃtarlegar": 8484,
      "Ġumhverfisnefnd": 8485,
      "ĠrÃŃkissaksÃ³knar": 8486,
      "ĠsvÃ¦Ã°a": 8487,
      "ĠÃºrskurÃ°": 8488,
      "Ġendurskipu": 8489,
      "Ġaflamark": 8490,
      "ĠvonbrigÃ°i": 8491,
      "ĠSveinsson": 8492,
      "ĠÃįslenska": 8493,
      "Ġskipuleggja": 8494,
      "Ġeigendastefnu": 8495,
      "ĠupplÃ½singagjÃ¶f": 8496,
      "ĠÃ¦Ã°stu": 8497,
      "ĠstÃ¦rÃ°argr": 8498,
      "itta": 8499,
      "Ã¶tum": 8500,
      "ssjÃ³Ã°": 8501,
      "ĠbÃ³t": 8502,
      "ĠviÃ°leitni": 8503,
      "Ġstang": 8504,
      "ĠhÃ¦st": 8505,
      "uÃ°syn": 8506,
      "ÃŃmu": 8507,
      "eldis": 8508,
      "ĠViÃ°skip": 8509,
      "ĠtÃŃmamÃ¶rk": 8510,
      "Ġskipun": 8511,
      "ĠBrow": 8512,
      "ĠKjar": 8513,
      "otkun": 8514,
      "rÃ©ttar": 8515,
      "smanni": 8516,
      "hÃ¦fa": 8517,
      "ĠsjÃ³narmiÃ°i": 8518,
      "ĠFramsÃ³knarflokkinn": 8519,
      "ĠstjÃ³rnlagaÃ¾inginu": 8520,
      "tÃŃmi": 8521,
      "ĠvÃŃsbend": 8522,
      "ĠÃ³hÃ¦tt": 8523,
      "Ġsakir": 8524,
      "ĠlÃŃfeyrissjÃ³Ã°unum": 8525,
      "ĠrÃŃkisskatt": 8526,
      "alaganna": 8527,
      "ĠsvipuÃ°um": 8528,
      "ĠAnnar": 8529,
      "ĠfrjÃ¡ls": 8530,
      "ĠsambÃ¦rilegt": 8531,
      "ĠstefnumÃ¶r": 8532,
      "ĠEvrÃ³pusambandsaÃ°ild": 8533,
      "ĠefnahagslÃŃfsins": 8534,
      "ĠheilsugÃ¦": 8535,
      "ĠskjÃ³li": 8536,
      "ĠfatlaÃ°": 8537,
      "vÃ©": 8538,
      "Ġ[": 8539,
      "ĠmÃ¦ttu": 8540,
      "Ġohf": 8541,
      "Ġtey": 8542,
      "Ã¡lum": 8543,
      "alÃ¡n": 8544,
      "ĠÃŀÃ½": 8545,
      "ĠfyrirgreiÃ°slu": 8546,
      "ĠframfÃ¦rslu": 8547,
      "Ġhafnar": 8548,
      "ĠHlÃ¡tur": 8549,
      "aka": 8550,
      "Ġsvohl": 8551,
      "Ġinnk": 8552,
      "ĠsjÃ¡lfkrafa": 8553,
      "skipan": 8554,
      "ĠbÃºvÃ¶ru": 8555,
      "Ã°rÃ¦tt": 8556,
      "ĠskattkerfiÃ°": 8557,
      "Ġ2000": 8558,
      "Ġtryggir": 8559,
      "Ġbankinn": 8560,
      "ĠlÃ¡nsf": 8561,
      "ĠsjÃ¡varÃºtveginum": 8562,
      "Ġfelist": 8563,
      "Ġefnahagstil": 8564,
      "ĠpÃ³litÃŃskur": 8565,
      "Ġvirkj": 8566,
      "ĠÃ¡kvÃ¦Ã°a": 8567,
      "ĠsparisjÃ³Ã°ir": 8568,
      "Ġgrunnur": 8569,
      "ĠpeningamÃ¡la": 8570,
      "afyrirtÃ¦ki": 8571,
      "Ġheildarmynd": 8572,
      "ĠÃ¡greiningi": 8573,
      "ĠmilljÃ³num": 8574,
      "ĠdÃ½rt": 8575,
      "Ġveitti": 8576,
      "ĠflÃ³kin": 8577,
      "Ġtilgangur": 8578,
      "ĠtÃŃÃ°rÃ¦tt": 8579,
      "ĠHefÃ°i": 8580,
      "ĠframsÃ¶gurÃ¦Ã°u": 8581,
      "Ġpassa": 8582,
      "ĠbrÃ¡Ã°abirgÃ°aÃ¡kvÃ¦Ã°i": 8583,
      "ĠbjartsÃ½ni": 8584,
      "ĠÃ¶fugt": 8585,
      "ĠbyrjaÃ°i": 8586,
      "ĠÃģsmundur": 8587,
      "ĠrÃ¶kstuÃ°ning": 8588,
      "ĠRÃºnar": 8589,
      "ĠVigdÃŃs": 8590,
      "ĠminnisblaÃ°i": 8591,
      "ĠstefnumÃ³tun": 8592,
      "Ġhelgina": 8593,
      "ĠsvohljÃ³Ã°andi": 8594,
      "gg": 8595,
      "nag": 8596,
      "ninu": 8597,
      "ĠaÃ°skil": 8598,
      "ssp": 8599,
      "Ġskell": 8600,
      "Ġfyrram": 8601,
      "rekk": 8602,
      "ĠvaraÃ°": 8603,
      "launa": 8604,
      "Ġeinasti": 8605,
      "eiranum": 8606,
      "ĠÃºrrÃ¦Ã°um": 8607,
      "Ġhryn": 8608,
      "ĠNÃ¡ttÃºr": 8609,
      "skipulag": 8610,
      "ĠverkalÃ½Ã°": 8611,
      "ĠtillÃ¶guna": 8612,
      "Ġbanki": 8613,
      "fÃ¦rt": 8614,
      "lendis": 8615,
      "Ġaldr": 8616,
      "ĠatvinnuleysiÃ°": 8617,
      "Ġlofa": 8618,
      "Ġbirtast": 8619,
      "ĠfjÃ¶lskyldna": 8620,
      "aÃ°lÃ¶gun": 8621,
      "ĠÃŀingiÃ°": 8622,
      "ĠhundraÃ°": 8623,
      "ĠfjÃ¡rmÃ¡laeftirlit": 8624,
      "Ġhlaupa": 8625,
      "ĠSamtÃ¶kum": 8626,
      "ĠÃºrlausn": 8627,
[...]
