{
  "version": "1.0",
  "truncation": null,
  "padding": null,
  "added_tokens": [
    {
      "id": 0,
      "content": "<|endoftext|>",
      "single_word": false,
      "lstrip": false,
      "rstrip": false,
      "normalized": false,
      "special": true
    }
  ],
  "normalizer": null,
  "pre_tokenizer": {
    "type": "ByteLevel",
    "add_prefix_space": false,
    "trim_offsets": true,
    "use_regex": true
  },
  "post_processor": {
    "type": "ByteLevel",
    "add_prefix_space": true,
    "trim_offsets": false,
    "use_regex": true
  },
  "decoder": {
    "type": "ByteLevel",
    "add_prefix_space": true,
    "trim_offsets": true,
    "use_regex": true
  },
  "model": {
    "type": "BPE",
    "dropout": null,
    "unk_token": null,
    "continuing_subword_prefix": null,
    "end_of_word_suffix": null,
    "fuse_unk": false,
    "vocab": {
      "<|endoftext|>": 0,
      "!": 1,
      "\"": 2,
      "#": 3,
      "$": 4,
      "%": 5,
      "&": 6,
      "'": 7,
      "(": 8,
      ")": 9,
      "*": 10,
      "+": 11,
      ",": 12,
      "-": 13,
      ".": 14,
      "/": 15,
      "0": 16,
      "1": 17,
      "2": 18,
      "3": 19,
      "4": 20,
      "5": 21,
      "6": 22,
      "7": 23,
      "8": 24,
      "9": 25,
      ":": 26,
      ";": 27,
      "<": 28,
      "=": 29,
      ">": 30,
      "?": 31,
      "@": 32,
      "A": 33,
      "B": 34,
      "C": 35,
      "D": 36,
      "E": 37,
      "F": 38,
      "G": 39,
      "H": 40,
      "I": 41,
      "J": 42,
      "K": 43,
      "L": 44,
      "M": 45,
      "N": 46,
      "O": 47,
      "P": 48,
      "Q": 49,
      "R": 50,
      "S": 51,
      "T": 52,
      "U": 53,
      "V": 54,
      "W": 55,
      "X": 56,
      "Y": 57,
      "Z": 58,
      "[": 59,
      "\\": 60,
      "]": 61,
      "^": 62,
      "_": 63,
      "`": 64,
      "a": 65,
      "b": 66,
      "c": 67,
      "d": 68,
      "e": 69,
      "f": 70,
      "g": 71,
      "h": 72,
      "i": 73,
      "j": 74,
      "k": 75,
      "l": 76,
      "m": 77,
      "n": 78,
      "o": 79,
      "p": 80,
      "q": 81,
      "r": 82,
      "s": 83,
      "t": 84,
      "u": 85,
      "v": 86,
      "w": 87,
      "x": 88,
      "y": 89,
      "z": 90,
      "{": 91,
      "|": 92,
      "}": 93,
      "~": 94,
      "¡": 95,
      "¢": 96,
      "£": 97,
      "¤": 98,
      "¥": 99,
      "¦": 100,
      "§": 101,
      "¨": 102,
      "©": 103,
      "ª": 104,
      "«": 105,
      "¬": 106,
      "®": 107,
      "¯": 108,
      "°": 109,
      "±": 110,
      "²": 111,
      "³": 112,
      "´": 113,
      "µ": 114,
      "¶": 115,
      "·": 116,
      "¸": 117,
      "¹": 118,
      "º": 119,
      "»": 120,
      "¼": 121,
      "½": 122,
      "¾": 123,
      "¿": 124,
      "Â": 125,
      "Ã": 126,
      "Ä": 127,
      "Å": 128,
      "Æ": 129,
      "Ç": 130,
      "È": 131,
      "É": 132,
      "Ê": 133,
      "Ë": 134,
      "Ì": 135,
      "Í": 136,
      "Î": 137,
      "Ï": 138,
      "Ð": 139,
      "Ñ": 140,
      "Ò": 141,
      "Ö": 142,
      "×": 143,
      "Ø": 144,
      "Ù": 145,
      "Ú": 146,
      "Û": 147,
      "á": 148,
      "â": 149,
      "ã": 150,
      "ä": 151,
      "å": 152,
      "æ": 153,
      "ç": 154,
      "è": 155,
      "é": 156,
      "ê": 157,
      "ë": 158,
      "ì": 159,
      "í": 160,
      "ï": 161,
      "ð": 162,
      "ô": 163,
      "Ġ": 164,
      "Ģ": 165,
      "ģ": 166,
      "Ĥ": 167,
      "ĥ": 168,
      "Ħ": 169,
      "ħ": 170,
      "Ĩ": 171,
      "ĩ": 172,
      "Ī": 173,
      "ī": 174,
      "Ĭ": 175,
      "ĭ": 176,
      "Į": 177,
      "į": 178,
      "İ": 179,
      "ı": 180,
      "Ĳ": 181,
      "ĳ": 182,
      "Ĵ": 183,
      "ĵ": 184,
      "Ķ": 185,
      "ķ": 186,
      "ĸ": 187,
      "Ĺ": 188,
      "ĺ": 189,
      "Ļ": 190,
      "ļ": 191,
      "Ľ": 192,
      "ľ": 193,
      "Ŀ": 194,
      "ŀ": 195,
      "Ł": 196,
      "ł": 197,
      "Ń": 198,
      "Ã°": 199,
      "ĠÃ": 200,
      "Ġs": 201,
      "ar": 202,
      "in": 203,
      "aÃ°": 204,
      "Ġe": 205,
      "an": 206,
      "Ġh": 207,
      "Ġv": 208,
      "Ġf": 209,
      "ir": 210,
      "iÃ°": 211,
      "um": 212,
      "ur": 213,
      "Ã³": 214,
      "ĠÃ¾": 215,
      "Ã¡": 216,
      "st": 217,
      "ĠaÃ°": 218,
      "ĠÃ¡": 219,
      "ÃŃ": 220,
      "Ġm": 221,
      "Ã¦": 222,
      "ĠÃŃ": 223,
      "er": 224,
      "Ã¶": 225,
      "Ġo": 226,
      "Ġog": 227,
      "il": 228,
      "tt": 229,
      "un": 230,
      "Ġt": 231,
      "eg": 232,
      "Ġl": 233,
      "inn": 234,
      "af": 235,
      "al": 236,
      "Ã©": 237,
      "en": 238,
      "am": 239,
      "Ġb": 240,
      "Ġer": 241,
      "Ãº": 242,
      "Ġk": 243,
      "em": 244,
      "Ġg": 245,
      "kk": 246,
      "ann": 247,
      "ei": 248,
      "ing": 249,
      "ag": 250,
      "yr": 251,
      "or": 252,
      "Ġn": 253,
      "and": 254,
      "Ġsem": 255,
      "ss": 256,
      "Ġst": 257,
      "jÃ³": 258,
      "ĠS": 259,
      "Ġfr": 260,
      "ef": 261,
      "Ġtil": 262,
      "sk": 263,
      "ri": 264,
      "ra": 265,
      "Ġver": 266,
      "na": 267,
      "ĠviÃ°": 268,
      "ĠÃ¾e": 269,
      "Ġen": 270,
      "Ã°i": 271,
      "Ġum": 272,
      "Ġfyr": 273,
      "eÃ°": 274,
      "ig": 275,
      "Ġr": 276,
      "el": 277,
      "sl": 278,
      "ĠH": 279,
      "Ã½": 280,
      "ĠÃŀ": 281,
      "Ã¡l": 282,
      "on": 283,
      "Ġsk": 284,
      "ins": 285,
      "vÃŃ": 286,
      "ja": 287,
      "âĢ": 288,
      "ĠĠ": 289,
      "ta": 290,
      "Ġfyrir": 291,
      "Ã°a": 292,
      "ĠmeÃ°": 293,
      "Ġd": 294,
      "Ġvar": 295,
      "au": 296,
      "Ġhaf": 297,
      "ti": 298,
      "lu": 299,
      "nar": 300,
      "kki": 301,
      "ni": 302,
      "ey": 303,
      "ĠB": 304,
      "Ã¶g": 305,
      "und": 306,
      "Ġaf": 307,
      "ĠF": 308,
      "Ã¶r": 309,
      "leg": 310,
      "ĠÃ¾aÃ°": 311,
      "ver": 312,
      "Ġekki": 313,
      "la": 314,
      "pp": 315,
      "ĠE": 316,
      "nd": 317,
      "Ġhef": 318,
      "ĠsÃ©": 319,
      "ĠA": 320,
      "Ã°ur": 321,
      "Ġsam": 322,
      "ĠM": 323,
      "Ã©tt": 324,
      "ĠÃº": 325,
      "ĠÃ¾ess": 326,
      "eik": 327,
      "jÃ¡": 328,
      "ÃŃk": 329,
      "li": 330,
      "Ã¶l": 331,
      "Ġal": 332,
      "ĠÃ¾vÃŃ": 333,
      "inu": 334,
      "Ã¦r": 335,
      "om": 336,
      "ft": 337,
      "is": 338,
      "ning": 339,
      "end": 340,
      "ĠV": 341,
      "Ã°u": 342,
      "ĠÃį": 343,
      "ĠsÃŃ": 344,
      "Ġseg": 345,
      "andi": 346,
      "ĠG": 347,
      "re": 348,
      "ik": 349,
      "ĠâĢ": 350,
      "Ġ1": 351,
      "num": 352,
      "tta": 353,
      "rÃ³": 354,
      "ĠfrÃ¡": 355,
      "ak": 356,
      "Ġsv": 357,
      "ĠK": 358,
      "Ġhefur": 359,
      "Ġu": 360,
      "Ġ2": 361,
      "Ġfram": 362,
      "eim": 363,
      "ĠL": 364,
      "Ã¾": 365,
      "sins": 366,
      "et": 367,
      "enn": 368,
      "ĠR": 369,
      "arf": 370,
      "ald": 371,
      "Ġupp": 372,
      "nu": 373,
      "ĠĠĠ": 374,
      "Ġkom": 375,
      "ĠÃ¡r": 376,
      "jÃ³r": 377,
      "Ġsegir": 378,
      "lag": 379,
      "Ġeru": 380,
      "at": 381,
      "jar": 382,
      "est": 383,
      "inni": 384,
      "Ã³l": 385,
      "lega": 386,
      "ĠveriÃ°": 387,
      "ftir": 388,
      "kv": 389,
      "sson": 390,
      "Ã¡Ã°": 391,
      "ĠâĢŀ": 392,
      "Ġhafa": 393,
      "ek": 394,
      "aÃ°ur": 395,
      "ist": 396,
      "Ġhann": 397,
      "Ã°ar": 398,
      "ast": 399,
      "egar": 400,
      "Ġeftir": 401,
      "eiÃ°": 402,
      "eng": 403,
      "anna": 404,
      "ll": 405,
      "Ã³tt": 406,
      "rÃ©tt": 407,
      "ara": 408,
      "ang": 409,
      "Ã¦k": 410,
      "nir": 411,
      "uÃ°": 412,
      "ĠT": 413,
      "ug": 414,
      "ĠÃ¾ar": 415,
      "aÃ°i": 416,
      "ĠN": 417,
      "ĠÃ¾Ã¡": 418,
      "stu": 419,
      "rÃ¦": 420,
      "âĢľ": 421,
      "ild": 422,
      "Ãºn": 423,
      "Ã³r": 424,
      "ip": 425,
      "fir": 426,
      "ĠJ": 427,
      "it": 428,
      "ĠÃ¶": 429,
      "sm": 430,
      "ĠÃ³": 431,
      "Ġleik": 432,
      "okk": 433,
      "ÃŃm": 434,
      "ĠsÃ©r": 435,
      "ĠÃ¾eir": 436,
      "ill": 437,
      "Ġein": 438,
      "eir": 439,
      "var": 440,
      "org": 441,
      "Ġhafi": 442,
      "ĠÃºt": 443,
      "Ġger": 444,
      "gg": 445,
      "ingar": 446,
      "Ã¶f": 447,
      "Ã³k": 448,
      "Ã©r": 449,
      "Ġdag": 450,
      "Ġp": 451,
      "Ã¦m": 452,
      "ĠÃºr": 453,
      "Ġy": 454,
      "Ġfor": 455,
      "Ã©lag": 456,
      "Ġall": 457,
      "ld": 458,
      "sta": 459,
      "Ġsvo": 460,
      "jÃ¶r": 461,
      "00": 462,
      "ynd": 463,
      "Ġmik": 464,
      "rÃ©ttir": 465,
      "Ã°um": 466,
      "ygg": 467,
      "unum": 468,
      "Ã¶ld": 469,
      "ĠÃģ": 470,
      "yn": 471,
      "jÃ¡l": 472,
      "Ġyfir": 473,
      "Ġbr": 474,
      "ĠhÃ¦": 475,
      "ĠÃįsl": 476,
      "ol": 477,
      "ark": 478,
      "ands": 479,
      "Ãºs": 480,
      "ĠSt": 481,
      "Ġfl": 482,
      "eit": 483,
      "ĠD": 484,
      "Ġhv": 485,
      "Ã¶n": 486,
      "of": 487,
      "Ġveg": 488,
      "ĠnÃº": 489,
      "ĠÃ¾egar": 490,
      "ĠI": 491,
      "ĠP": 492,
      "Ã³t": 493,
      "ĠÃŀaÃ°": 494,
      "ĠÃ¾etta": 495,
      "ĠmÃ¡l": 496,
      "ĠnÃ½": 497,
      "Ġau": 498,
      "ent": 499,
      "Ġsp": 500,
      "ans": 501,
      "ĠÃ©": 502,
      "Ġund": 503,
      "ina": 504,
      "tur": 505,
      "ĠÃ©g": 506,
      "Ã¡tt": 507,
      "Ġvor": 508,
      "Ġheim": 509,
      "dÃ³tt": 510,
      "Ġinn": 511,
      "Ġsig": 512,
      "jÃ³rn": 513,
      "eld": 514,
      "erÃ°": 515,
      "Ġeig": 516,
      "Ġsag": 517,
      "itt": 518,
      "ka": 519,
      "ram": 520,
      "ars": 521,
      "all": 522,
      "Ġfj": 523,
      "unni": 524,
      "her": 525,
      "ĠeÃ°a": 526,
      "Ã³lk": 527,
      "ind": 528,
      "ot": 529,
      "as": 530,
      "ju": 531,
      "fl": 532,
      "Ġhver": 533,
      "Ã¦Ã°i": 534,
      "jÃ¡r": 535,
      "dÃ³ttir": 536,
      "Ġvoru": 537,
      "ĠlÃ¶g": 538,
      "Ġj": 539,
      "ĠÃ¾r": 540,
      "Ġef": 541,
      "ĠmÃ¡": 542,
      "Ġland": 543,
      "oÃ°": 544,
      "Ã¶k": 545,
      "es": 546,
      "Ġmill": 547,
      "FrÃ©ttir": 548,
      "ab": 549,
      "ĠverÃ°ur": 550,
      "jum": 551,
      "eild": 552,
      "ĠtÃŃm": 553,
      "slu": 554,
      "ska": 555,
      "tti": 556,
      "unar": 557,
      "Ã¦g": 558,
      "ĠstaÃ°": 559,
      "Ã³m": 560,
      "ĠC": 561,
      "ÃŃf": 562,
      "jÃ¡lf": 563,
      "lut": 564,
      "Ã¦Ã°": 565,
      "una": 566,
      "afn": 567,
      "Ġann": 568,
      "ĠhjÃ¡": 569,
      "jÃ³Ã°": 570,
      "kvÃ¦m": 571,
      "ok": 572,
      "innar": 573,
      "ari": 574,
      "tÃ¦k": 575,
      "ĠÃ¦": 576,
      "Ġvegna": 577,
      "Ġ3": 578,
      "nn": 579,
      "reg": 580,
      "Ġstarf": 581,
      "Ġ20": 582,
      "ĠliÃ°": 583,
      "Ġtv": 584,
      "ust": 585,
      "ĠhÃºn": 586,
      "Ġkv": 587,
      "unnar": 588,
      "Ġmun": 589,
      "ÃŃn": 590,
      "skip": 591,
      "im": 592,
      "Ã³n": 593,
      "ĠrÃŃk": 594,
      ",âĢľ": 595,
      "Ã¦ri": 596,
      "ĠÃŀe": 597,
      "dd": 598,
      "ÃŃu": 599,
      "ĠhÃ©r": 600,
      "ĠnÃ¡": 601,
      "Ġvera": 602,
      "ein": 603,
      "Ã¦ti": 604,
      "inna": 605,
      "ingu": 606,
      "ber": 607,
      "ĠsagÃ°i": 608,
      "Ã½r": 609,
      "yl": 610,
      "Ġokk": 611,
      "endur": 612,
      "Ġeinn": 613,
      "agn": 614,
      "ĠÃ¾eim": 615,
      "Ġvel": 616,
      "ung": 617,
      "emur": 618,
      "ĠO": 619,
      "Ã¶Ã°": 620,
      "Ġgre": 621,
      "ileg": 622,
      "anns": 623,
      "urinn": 624,
      "īg": 625,
      "br": 626,
      "Ġgr": 627,
      "fi": 628,
      "ĠHann": 629,
      "Ġtek": 630,
      "kur": 631,
      "ĠlÃŃk": 632,
      "ÃŃÃ°": 633,
      "inum": 634,
      "ĠfÃ³lk": 635,
      "mÃ¡l": 636,
      "ul": 637,
      "Ġeins": 638,
      "Ġmynd": 639,
      "bÃº": 640,
      "Ġat": 641,
      "iÃ°ur": 642,
      "ĠfjÃ¡r": 643,
      "ĠverÃ°i": 644,
      "tal": 645,
      "Ġallt": 646,
      "ÃŃs": 647,
      "Ġend": 648,
      "os": 649,
      "Ġsl": 650,
      "rif": 651,
      "ĠSig": 652,
      "Ġse": 653,
      "gi": 654,
      "nt": 655,
      "ĠU": 656,
      "lÃ½": 657,
      "ort": 658,
      "rÃ¡Ã°": 659,
      "Ġundir": 660,
      "maÃ°ur": 661,
      "ĠhÃ¶f": 662,
      "ĠÃ¾eirra": 663,
      "jÃº": 664,
      "rÃ¡": 665,
      "ĠViÃ°": 666,
      "ĠfrÃ©tt": 667,
      "ana": 668,
      "lum": 669,
      "tu": 670,
      "epp": 671,
      "Ġtak": 672,
      "ĠkrÃ³": 673,
      "ĠSam": 674,
      "arg": 675,
      "ĠÃ¡h": 676,
      "ull": 677,
      "eyr": 678,
      "hver": 679,
      "ĠnÃ¦": 680,
      "ank": 681,
      "Ġor": 682,
      "menn": 683,
      "ĠrÃ¡Ã°": 684,
      "ĠÃĵ": 685,
      "ĠstjÃ³rn": 686,
      "Ġskip": 687,
      "ĠÃŀetta": 688,
      "ĠfÃ¡": 689,
      "dag": 690,
      "lend": 691,
      "Ġgeg": 692,
      "fram": 693,
      "Ġbara": 694,
      "ĠbÃº": 695,
      "Ã¦tt": 696,
      "ĠâĢĵ": 697,
      "ĠfÃ©lag": 698,
      "rum": 699,
      "iss": 700,
      "Ġge": 701,
      "ĠleiÃ°": 702,
      "Ġmark": 703,
      "aup": 704,
      "ĠlÃ¡": 705,
      "gu": 706,
      "laÃ°": 707,
      "ĠÃ¡kv": 708,
      "Ġ8": 709,
      "jÃ¶g": 710,
      ".âĢľ": 711,
      "ĠÃ¾essu": 712,
      "Ġverk": 713,
      "ĠGuÃ°": 714,
      "eil": 715,
      "naÃ°": 716,
      "Ġfer": 717,
      "Ġ4": 718,
      "gja": 719,
      "Ãŀ": 720,
      "ru": 721,
      "herra": 722,
      "jÃ³ri": 723,
      "etur": 724,
      "unn": 725,
      "ĠÃ¡ra": 726,
      "ĠmjÃ¶g": 727,
      "sam": 728,
      "ĠfjÃ¶l": 729,
      "sku": 730,
      "fa": 731,
      "ĠÃŃsl": 732,
      "lÃ¶g": 733,
      "lug": 734,
      "sdÃ³ttir": 735,
      "ĠgÃ¦r": 736,
      "Ġhald": 737,
      "ap": 738,
      "rÃº": 739,
      "ost": 740,
      "ÃŃl": 741,
      "Ã¦t": 742,
      "Ġ201": 743,
      "sv": 744,
      "eyt": 745,
      "Ġlag": 746,
      "Ã°an": 747,
      "ĠsÃ½": 748,
      "ĠniÃ°ur": 749,
      "ĠÃ¾ur": 750,
      "ĠÃŃslen": 751,
      "inga": 752,
      "rar": 753,
      "ĠRey": 754,
      "ĠvÃ¦ri": 755,
      "ĠAl": 756,
      "Ġhl": 757,
      "veg": 758,
      "ĠSk": 759,
      "ĠEn": 760,
      "anum": 761,
      "Ġkr": 762,
      "efnd": 763,
      "rygg": 764,
      "Ġkemur": 765,
      "lÃ½s": 766,
      "Ġrey": 767,
      "ĠÃ¾ann": 768,
      "Ġkoma": 769,
      "Ġ5": 770,
      "Ġmeir": 771,
      "far": 772,
      "flokk": 773,
      "Ġjafn": 774,
      "kja": 775,
      "Ġlok": 776,
      "ert": 777,
      "Ã³p": 778,
      "ĠÃ¾Ã³": 779,
      "andar": 780,
      "lent": 781,
      "Ġfar": 782,
      "Ã¶Ã°u": 783,
      "Ġfors": 784,
      "Ġeinnig": 785,
      "nnlent": 786,
      "ĠÃ¾au": 787,
      "Ã¾rÃ³": 788,
      "ĠmilljÃ³": 789,
      "ingum": 790,
      "sp": 791,
      "Ġ7": 792,
      "sh": 793,
      "jÃ³rnar": 794,
      "illi": 795,
      "Ġnokk": 796,
      "Ġheld": 797,
      "stak": 798,
      "Ġhug": 799,
      "Ġauk": 800,
      "rÃ¦Ã°": 801,
      "ĠÃŀÃ¡": 802,
      "si": 803,
      "Ġtal": 804,
      "ĠmiÃ°": 805,
      "leik": 806,
      "ĠsjÃ¡": 807,
      "ĠÃīg": 808,
      "Ġstig": 809,
      "Ġfara": 810,
      "ĠfyrirtÃ¦k": 811,
      "anda": 812,
      "ofn": 813,
      "ĠmeÃ°al": 814,
      "kom": 815,
      "Ã³Ã°": 816,
      "imm": 817,
      "Ġskil": 818,
      "ĠbÃ¦": 819,
      "Ã¶nd": 820,
      "ÃŃt": 821,
      "Ġhr": 822,
      "Ġ6": 823,
      "ĠÃįslands": 824,
      "ĠlÃ¶greg": 825,
      "ĠsjÃ¡lf": 826,
      "Ġof": 827,
      "ga": 828,
      "gt": 829,
      "deild": 830,
      "lit": 831,
      "Ġsaman": 832,
      "ĠfÃ³r": 833,
      "Ã¡r": 834,
      "av": 835,
      "Ġvir": 836,
      "Ġbar": 837,
      "ttir": 838,
      "ĠÃ¡riÃ°": 839,
      "ĠhvaÃ°": 840,
      "Ġgera": 841,
      "legt": 842,
      "ĠrÃ©tt": 843,
      "orgun": 844,
      "Ġtaka": 845,
      "Ġeitt": 846,
      "miÃ°": 847,
      "bol": 848,
      "eig": 849,
      "Ġhans": 850,
      "ningu": 851,
      "Ġvik": 852,
      "ĠÃ¾ing": 853,
      "ĠtÃŃma": 854,
      "ĠorÃ°": 855,
      "Ġ-": 856,
      "efni": 857,
      "liÃ°": 858,
      "Ġhen": 859,
      "Ġenn": 860,
      "Ġokkur": 861,
      "ningar": 862,
      "ĠFrÃ©ttir": 863,
      "Ġhlut": 864,
      "fÃ©lag": 865,
      "rist": 866,
      "ĠÃŀÃ³r": 867,
      "Ġhlu": 868,
      "reiÃ°": 869,
      "Ġgegn": 870,
      "Ġundan": 871,
      "Ġkyn": 872,
      "ĠkrÃ³na": 873,
      "Ãį": 874,
      "Ġ200": 875,
      "vinn": 876,
      "kyn": 877,
      "ĠhÃ¡l": 878,
      "ĠprÃ³": 879,
      "ĠNor": 880,
      "ĠSigur": 881,
      "Ġfimm": 882,
      "ĠfÃ©": 883,
      "Ġhel": 884,
      "ĠrÃŃkis": 885,
      "Ġfund": 886,
      "tan": 887,
      "ĠljÃ³": 888,
      "ĠW": 889,
      "Ã°ast": 890,
      "ch": 891,
      "ĠAÃ°": 892,
      "Ġhvort": 893,
      "ĠÃ¡Ã°ur": 894,
      "vÃŃk": 895,
      "Ġra": 896,
      "Ġ(": 897,
      "gar": 898,
      "ĠÃ¦t": 899,
      "Ġsn": 900,
      "ott": 901,
      "Ã¦kk": 902,
      "Ã³la": 903,
      "Ġmikil": 904,
      "sa": 905,
      "borg": 906,
      "Ġborg": 907,
      "ĠverÃ°a": 908,
      "eins": 909,
      "ĠsÃŃnum": 910,
      "rÃ³p": 911,
      "Ġsegja": 912,
      "ĠhefÃ°i": 913,
      "landi": 914,
      "rei": 915,
      "ĠsÃ¶g": 916,
      "ĠÃ¶ll": 917,
      "ĠstÃ³r": 918,
      "Ġvinn": 919,
      "ĠmikiÃ°": 920,
      "varp": 921,
      "ĠEv": 922,
      "ĠmÃ¶r": 923,
      "ĠverÃ°": 924,
      "ĠReykja": 925,
      "enda": 926,
      "Ġvil": 927,
      "ĠhÃ¡": 928,
      "Ġfull": 929,
      "Ġop": 930,
      "ĠÃ¾essum": 931,
      "Ã°ustu": 932,
      "mi": 933,
      "Ã¾ing": 934,
      "ĠSv": 935,
      "mynd": 936,
      "ki": 937,
      "ĠsÃ©u": 938,
      "kvÃ¦md": 939,
      "Ġ19": 940,
      "lar": 941,
      "sf": 942,
      "Ã¡n": 943,
      "leiÃ°": 944,
      "ĠJÃ³n": 945,
      "ĠÃ¶Ã°": 946,
      "Ġmorgun": 947,
      "Ġmann": 948,
      "tar": 949,
      "Ġmilli": 950,
      "jÃ³n": 951,
      "Ã¦Ã°a": 952,
      "ĠmÃ¡nu": 953,
      "riÃ°": 954,
      "kkert": 955,
      "ĠlÃŃf": 956,
      "tÃ¶k": 957,
      "Ġtel": 958,
      "Ġmarg": 959,
      "Ġeinhver": 960,
      "Ġvegar": 961,
      "ĠBandar": 962,
      "ku": 963,
      "Ãºt": 964,
      "jÃ³nu": 965,
      "stjÃ³ri": 966,
      "ĠAr": 967,
      "stur": 968,
      "kvÃ¦mt": 969,
      "ma": 970,
      "Ġsinn": 971,
      "onum": 972,
      "ĠmÃ¦": 973,
      "ĠkomiÃ°": 974,
      "son": 975,
      "jÃºk": 976,
      "ĠsÃŃÃ°ustu": 977,
      "ĠkvÃ¶ld": 978,
      "band": 979,
      "Ġgef": 980,
      "Ġfyrr": 981,
      "ĠtÃ³k": 982,
      "Ġmenn": 983,
      "yrir": 984,
      "Ã¶m": 985,
      "Ã¶rf": 986,
      "Ã³knar": 987,
      "mund": 988,
      "ĠsÃŃÃ°an": 989,
      "Ġfeng": 990,
      "ViÃ°": 991,
      "Ġrek": 992,
      "Ġgrein": 993,
      "Ġhins": 994,
      "ĠÃ¡ri": 995,
      "jÃ¶l": 996,
      "Ġheldur": 997,
      "ĠÃ¡fram": 998,
      "hald": 999,
      "ĠEvrÃ³p": 1000,
      "Ġskor": 1001,
      "Ã¶ng": 1002,
      "ĠÃ¾Ã¦r": 1003,
      "manna": 1004,
      "ski": 1005,
      "ĠÃ¾annig": 1006,
      "ĠJÃ³": 1007,
      "Ġerum": 1008,
      "ĠvarÃ°": 1009,
      "Ġald": 1010,
      "ĠhÃ¦gt": 1011,
      "vel": 1012,
      "Ġokkar": 1013,
      "Ġfyl": 1014,
      "fest": 1015,
      "Ã°ist": 1016,
      "Ġsum": 1017,
      "Ã¾rÃ³ttir": 1018,
      "anir": 1019,
      "ed": 1020,
      "aÃ°a": 1021,
      "Ġannars": 1022,
      "Ġekkert": 1023,
      "jald": 1024,
      "ĠBandarÃŃk": 1025,
      "ĠKrist": 1026,
      "su": 1027,
      "Ãºsund": 1028,
      "sti": 1029,
      "Ã°ir": 1030,
      "Ġminn": 1031,
      "Ġaftur": 1032,
      "if": 1033,
      "Ġkl": 1034,
      "ĠÃĵl": 1035,
      "Ġtilkyn": 1036,
      "ĠdÃ³m": 1037,
      "Ġgeng": 1038,
      "ĠmÃ©r": 1039,
      "eitt": 1040,
      "ĠhÃºs": 1041,
      "ĠEr": 1042,
      "Ġheil": 1043,
      "Ġbygg": 1044,
      "ĠhafÃ°i": 1045,
      "arinnar": 1046,
      "ĠlÃŃka": 1047,
      "Ġgert": 1048,
      "ut": 1049,
      "Ã¶lu": 1050,
      "ĠrÃº": 1051,
      "orÃ°": 1052,
      "Ġley": 1053,
      "Ġsvona": 1054,
      "bÃ¦": 1055,
      "ferÃ°": 1056,
      "Ġranns": 1057,
      "ĠframkvÃ¦md": 1058,
      "Ġkost": 1059,
      "ĠÃĸ": 1060,
      "ĠÃ¾Ãºsund": 1061,
      "Ġendur": 1062,
      "Ġsinni": 1063,
      "ĠBjÃ¶r": 1064,
      "Ġsm": 1065,
      "Ġlang": 1066,
      "ĠIn": 1067,
      "vaÃ°": 1068,
      "ĠprÃ³s": 1069,
      "vÃ¶ld": 1070,
      "nig": 1071,
      "ĠÃŀar": 1072,
      "ttu": 1073,
      "amenn": 1074,
      "Ġgeta": 1075,
      "ĠupplÃ½s": 1076,
      "ĠaÃ°st": 1077,
      "ĠÃ¾essa": 1078,
      "mÃ¦": 1079,
      "haf": 1080,
      "rig": 1081,
      "ĠdÃ¦m": 1082,
      "ĠHÃºn": 1083,
      "Ġspil": 1084,
      "rÃ¡Ã°herra": 1085,
      "Ã¶nnum": 1086,
      "ĠÃŃslensk": 1087,
      "arl": 1088,
      "Ġflug": 1089,
      "ĠGr": 1090,
      "Ġfyrsta": 1091,
      "list": 1092,
      "hÃºs": 1093,
      "ĠÃ¾Ã¡tt": 1094,
      "ĠfrÃ©ttir": 1095,
      "verk": 1096,
      "ĠÃ¡n": 1097,
      "ĠmÃŃn": 1098,
      "ÃŃÃ°ar": 1099,
      "fer": 1100,
      "aus": 1101,
      "tum": 1102,
      "Ġsama": 1103,
      "eggja": 1104,
      "lukk": 1105,
      "trÃº": 1106,
      "Ġ9": 1107,
      "ĠBr": 1108,
      "Ġmilljar": 1109,
      "tir": 1110,
      "Ġbyr": 1111,
      "Ġkon": 1112,
      "stjÃ³rn": 1113,
      "ĠÃ¾arf": 1114,
      "ilega": 1115,
      "mann": 1116,
      "hag": 1117,
      "rÃŃk": 1118,
      "ĠaÃ°g": 1119,
      "Ġerf": 1120,
      "Ġsveit": 1121,
      "Ġhonum": 1122,
      "yld": 1123,
      "Ãºl": 1124,
      "Ġber": 1125,
      "ĠfjÃ³r": 1126,
      "ell": 1127,
      "Ġhag": 1128,
      "ĠhÃ¦kk": 1129,
      "jÃ¶": 1130,
      "tak": 1131,
      "ĠaÃ°eins": 1132,
      "ĠgÃ³": 1133,
      "Ġklukk": 1134,
      "ĠmilljÃ³nir": 1135,
      "erk": 1136,
      "Ġleng": 1137,
      "ĠmaÃ°ur": 1138,
      "Ġflokk": 1139,
      "ĠmÃ³t": 1140,
      "stÃ¶Ã°": 1141,
      "Ġgang": 1142,
      "vÃŃkur": 1143,
      "ĠauÃ°": 1144,
      "bolti": 1145,
      "Ġbank": 1146,
      "Ġhalda": 1147,
      "tÃŃÃ°": 1148,
      "vÃ¦g": 1149,
      "ĠlÃ½": 1150,
      "Ġmeira": 1151,
      "ĠprÃ³sent": 1152,
      "ett": 1153,
      "smenn": 1154,
      "ĠÃįslandi": 1155,
      "jan": 1156,
      "ĠsÃŃna": 1157,
      "eist": 1158,
      "ĠLands": 1159,
      "ĠstjÃ³rnar": 1160,
      "Ġ10": 1161,
      "Ã³kn": 1162,
      "ulag": 1163,
      "gur": 1164,
      "eiri": 1165,
      "ĠsÃ¦ti": 1166,
      "Ġsamning": 1167,
      "ember": 1168,
      "gj": 1169,
      "ĠfÃ¦r": 1170,
      "ĠÃ¡hrif": 1171,
      "aÃ°ar": 1172,
      "ĠÃĵlaf": 1173,
      "Innlent": 1174,
      "alla": 1175,
      "ÃŀaÃ°": 1176,
      "eita": 1177,
      "ĠfariÃ°": 1178,
      "Ġhvernig": 1179,
      "lands": 1180,
      "ĠferÃ°": 1181,
      "Ãīg": 1182,
      "starf": 1183,
      "eppni": 1184,
      "ax": 1185,
      "irk": 1186,
      "Ġinnan": 1187,
      "rey": 1188,
      "Ġvinna": 1189,
      "ingur": 1190,
      "Ġeng": 1191,
      "Ġkaup": 1192,
      "ĠFram": 1193,
      "ĠBandarÃŃkj": 1194,
      "ĠviÃ°skip": 1195,
      "ĠÃ¾jÃ³Ã°": 1196,
      "ona": 1197,
      "egi": 1198,
      "ĠmÃ³": 1199,
      "amÃ¡l": 1200,
      "ĠÃ¡kveÃ°": 1201,
      "ĠannaÃ°": 1202,
      "efn": 1203,
      "ĠÃ¡st": 1204,
      "Ã¶rn": 1205,
      "yrÃ°i": 1206,
      "Ġeld": 1207,
      "lendar": 1208,
      "og": 1209,
      "ĠÃģr": 1210,
      "ĠÃ¾essi": 1211,
      "jÃ³ra": 1212,
      "Ġdeild": 1213,
      "boÃ°": 1214,
      "ĠSp": 1215,
      "enna": 1216,
      "ĠÃŃbÃº": 1217,
      "ili": 1218,
      "dÃ³m": 1219,
      "Ġutan": 1220,
      "ega": 1221,
      "Ġfyrra": 1222,
      "ÃŃÃ°a": 1223,
      "ĠEvrÃ³pu": 1224,
      "ĠhÃ³p": 1225,
      "brig": 1226,
      ",\"": 1227,
      "Ġeiga": 1228,
      "ĠskÃ½r": 1229,
      "ĠtÃ¦k": 1230,
      "ĠHel": 1231,
      "sla": 1232,
      "ex": 1233,
      "Ã¦p": 1234,
      "Ġbl": 1235,
      "rÃ¦Ã°i": 1236,
      "ĠtekiÃ°": 1237,
      "itaÃ°": 1238,
      "ĠÃ¡rum": 1239,
      "ĠGuÃ°mund": 1240,
      "ĠUm": 1241,
      "emm": 1242,
      "ĠÃįsland": 1243,
      "ers": 1244,
      "Ġteng": 1245,
      "ĠbÃ¦Ã°i": 1246,
      "Ãºr": 1247,
      "ĠsÃ©rstak": 1248,
      "aust": 1249,
      "ĠJÃ³h": 1250,
      "verÃ°": 1251,
      "ĠstÃ¦r": 1252,
      "uÃ°u": 1253,
      "Ġatvinn": 1254,
      "Ã°asta": 1255,
      "jast": 1256,
      "oss": 1257,
      "Ġlandi": 1258,
      "ĠGunnar": 1259,
      "frÃ¦Ã°": 1260,
      "Ġraun": 1261,
      "ĠnÃ¦stu": 1262,
      "ĠsÃŃÃ°asta": 1263,
      "ĠBjar": 1264,
      "Ġsku": 1265,
      "ĠOg": 1266,
      "ĠslÃŃk": 1267,
      "Ġdr": 1268,
      "jÃ³nustu": 1269,
      "erf": 1270,
      "ĠEin": 1271,
      "ce": 1272,
      "Ġmeiri": 1273,
      "ĠÃ½": 1274,
      "Ã¶rÃ°": 1275,
      "ĠInnlent": 1276,
      "auÃ°": 1277,
      "sem": 1278,
      "bank": 1279,
      "ĠsÃ¡": 1280,
      "ĠÃ¡tt": 1281,
      "ĠvÃŃs": 1282,
      "Ġnot": 1283,
      "ĠÃ¶llum": 1284,
      "ĠorÃ°iÃ°": 1285,
      "Ġgetur": 1286,
      "ĠtÃ³n": 1287,
      "jÃ³l": 1288,
      "Ã¦Ã°inu": 1289,
      "Ġgagn": 1290,
      "smÃ¡l": 1291,
      "uÃ°ur": 1292,
      "arÃ¡Ã°": 1293,
      "Ġhennar": 1294,
      "oll": 1295,
      "ota": 1296,
      "bur": 1297,
      "tali": 1298,
      "ĠVest": 1299,
      "kum": 1300,
      "ĠlÃ©": 1301,
      "art": 1302,
      "ĠmÃ¡liÃ°": 1303,
      "ĠÃ¾riÃ°": 1304,
      "Ġgl": 1305,
      "ĠrÃºm": 1306,
      "Ġbreyt": 1307,
      "att": 1308,
      "ĠgreiÃ°": 1309,
      "nun": 1310,
      "yk": 1311,
      "orf": 1312,
      "stÃ¶Ã°u": 1313,
      "Ġtrygg": 1314,
      "rÃ½": 1315,
      "yrirtÃ¦k": 1316,
      "ad": 1317,
      "Ġkann": 1318,
      "ĠlÃŃt": 1319,
      "Ã¶ll": 1320,
      "Ġhand": 1321,
      "Ġnem": 1322,
      "hvaÃ°": 1323,
      "Ġung": 1324,
      "ĠhÃ¶fuÃ°": 1325,
      "ĠmikilvÃ¦g": 1326,
      "ÃįÃ¾rÃ³ttir": 1327,
      "Ġfleiri": 1328,
      "Ġbest": 1329,
      "Ġbir": 1330,
      "Ġsex": 1331,
      "brigÃ°i": 1332,
      "ĠstÃ¶Ã°u": 1333,
      "lun": 1334,
      "akk": 1335,
      "ildi": 1336,
      "ĠtÃŃmab": 1337,
      "Ġbak": 1338,
      "Ã¶kk": 1339,
      "Ã©f": 1340,
      "ykk": 1341,
      "lan": 1342,
      "vi": 1343,
      "Ġ15": 1344,
      "Ã©l": 1345,
      "ĠVal": 1346,
      "verandi": 1347,
      "rein": 1348,
      "ĠRÃº": 1349,
      "Ġher": 1350,
      "jur": 1351,
      "Ġbrey": 1352,
      "Ġalla": 1353,
      "ess": 1354,
      "ĠeitthvaÃ°": 1355,
      "enning": 1356,
      "Ġsumar": 1357,
      "ĠrÃ¦Ã°a": 1358,
      "arnir": 1359,
      "skÃ³la": 1360,
      "Ã¶Ã°um": 1361,
      "ĠfÃ©kk": 1362,
      "ĠÃ¶Ã°rum": 1363,
      "nast": 1364,
      "ah": 1365,
      "sliÃ°": 1366,
      "Ġalveg": 1367,
      "ĠÃŀor": 1368,
      "Ġklukkan": 1369,
      "Ġhluta": 1370,
      "Ġenda": 1371,
      "Ġlo": 1372,
      "sst": 1373,
      "hug": 1374,
      "sÃ½": 1375,
      "ĠÃŀeir": 1376,
      "Ġskrif": 1377,
      "Ġeigin": 1378,
      "mark": 1379,
      "Ġmet": 1380,
      "skyld": 1381,
      "Ġget": 1382,
      "Ġeinstak": 1383,
      "Ġgam": 1384,
      "ĠsjÃºk": 1385,
      "arsv": 1386,
      "slit": 1387,
      "Ġla": 1388,
      "ĠbÃŃl": 1389,
      "ĠsÃŃÃ°ar": 1390,
      "vik": 1391,
      "ĠformaÃ°ur": 1392,
      "Ġvon": 1393,
      "skur": 1394,
      "bÃ¦r": 1395,
      "ĠNorÃ°ur": 1396,
      "aÃ°ir": 1397,
      "19": 1398,
      "Ġmest": 1399,
      "skrÃ¡": 1400,
      "arÃ°": 1401,
      "ĠmÃ³ti": 1402,
      "afl": 1403,
      "flokkaÃ°": 1404,
      "ĠlÃ¦kk": 1405,
      "ĠhÃ¶fum": 1406,
      "Ã³flokkaÃ°": 1407,
      "ĠsamkvÃ¦mt": 1408,
      "Ġfrum": 1409,
      "stri": 1410,
      "Ã³tbolti": 1411,
      "ĠnÃºna": 1412,
      "rÃŃ": 1413,
      "ĠY": 1414,
      "vald": 1415,
      "sg": 1416,
      "val": 1417,
      "Ġfrek": 1418,
      "ĠyrÃ°i": 1419,
      "vert": 1420,
      "Ġgeti": 1421,
      "Ġbyrj": 1422,
      "Ġkos": 1423,
      "Ġset": 1424,
      "ĠEy": 1425,
      "jÃ¡n": 1426,
      "ĠFor": 1427,
      "Ġforse": 1428,
      "Ġ12": 1429,
      "Ġmat": 1430,
      "Ġalltaf": 1431,
      "oÃ°a": 1432,
      "nefnd": 1433,
      "hlut": 1434,
      "gum": 1435,
      "land": 1436,
      "tek": 1437,
      "Ġsagt": 1438,
      "bygg": 1439,
      "Ġerlend": 1440,
      "ĠÃįslend": 1441,
      "Ġsigur": 1442,
      "ĠReykjavÃŃkur": 1443,
      "Ġnor": 1444,
      "aga": 1445,
      "ĠBre": 1446,
      "stof": 1447,
      "op": 1448,
      "ĠsÃº": 1449,
      "ĠnÃ¡tt": 1450,
      "ĠAlÃ¾ing": 1451,
      "ĠÃļ": 1452,
      "Ġreg": 1453,
      "Ġskemm": 1454,
      "Ġhenni": 1455,
      "Ã¡s": 1456,
      "yrk": 1457,
      "urnar": 1458,
      "ĠAkur": 1459,
      "srÃ¡Ã°herra": 1460,
      "atn": 1461,
      "efna": 1462,
      "Ġsend": 1463,
      "Ġsveitarf": 1464,
      "ĠÃ¶r": 1465,
      "indi": 1466,
      "Ġlist": 1467,
      "ĠtÃ¶l": 1468,
      "hlu": 1469,
      "Ġfyrstu": 1470,
      "ĠauÃ°v": 1471,
      "ĠAkureyr": 1472,
      "Ġstofn": 1473,
      "ĠfjÃ¡rmÃ¡l": 1474,
      "ĠsamÃ¾": 1475,
      "Ġaldrei": 1476,
      "Ġspur": 1477,
      "ji": 1478,
      "stÃ¦Ã°i": 1479,
      "heim": 1480,
      "isk": 1481,
      "Ġlandsins": 1482,
      "pa": 1483,
      "aÃ°urinn": 1484,
      "Ġallir": 1485,
      "Ġand": 1486,
      "Ġannar": 1487,
      "ĠnÃ¦sta": 1488,
      "ĠlÃ¶greglu": 1489,
      "ck": 1490,
      "ĠmÃ¡nuÃ°i": 1491,
      "Ãºar": 1492,
      "ĠReykjavÃŃk": 1493,
      "Ġbetur": 1494,
      "rit": 1495,
      "bo": 1496,
      "sÃ³knar": 1497,
      "ĠtÃ¦p": 1498,
      "Ã¶fn": 1499,
      "ulega": 1500,
      "els": 1501,
      "isins": 1502,
      "fu": 1503,
      "lutning": 1504,
      "ĠsÃŃn": 1505,
      "eimur": 1506,
      "ĠmÃ¶g": 1507,
      "ĠliÃ°iÃ°": 1508,
      "jÃ³Ã°a": 1509,
      "ĠHaf": 1510,
      "Ġma": 1511,
      "eidd": 1512,
      "fur": 1513,
      "Ã¶ngu": 1514,
      "Ġsitt": 1515,
      "fall": 1516,
      "eÃ°ur": 1517,
      "astjÃ³ri": 1518,
      "ÃŃa": 1519,
      "Ã¾jÃ³Ã°": 1520,
      "vÃ¶r": 1521,
      "Ġmanns": 1522,
      "ĠsamfÃ©lag": 1523,
      "ĠsjÃ¶": 1524,
      "ĠPÃ¡l": 1525,
      "ĠfengiÃ°": 1526,
      "ita": 1527,
      "Ġmig": 1528,
      "Ġ13": 1529,
      "skÃ³l": 1530,
      "Ã¶rÃ°un": 1531,
      "ĠtvÃ¶": 1532,
      "Ġ14": 1533,
      "Ġviku": 1534,
      "Ġmis": 1535,
      "ĠÃ¡tti": 1536,
      "ĠTh": 1537,
      "ĠgÃ¦ti": 1538,
      "ĠbÃ³k": 1539,
      "ĠstuÃ°": 1540,
      "Ġvinnu": 1541,
      "ĠbÃŃ": 1542,
      "gang": 1543,
      "dal": 1544,
      "viÃ°": 1545,
      "Ġsak": 1546,
      "Ġfinn": 1547,
      "fleik": 1548,
      "Ġskuld": 1549,
      "ĠbÃ¶rn": 1550,
      "ĠAll": 1551,
      "unnu": 1552,
      "ĠÃŀess": 1553,
      "Ġtveimur": 1554,
      "Ġsett": 1555,
      "ĠsÃ³tt": 1556,
      "Ã¦ru": 1557,
      "Ġfyrst": 1558,
      "ĠFl": 1559,
      "Ġmuni": 1560,
      "ĠkrÃ³n": 1561,
      "ĠnÃ³": 1562,
      "ĠCh": 1563,
      "Ġlau": 1564,
      "ĠJÃ³hann": 1565,
      "fÃ¦r": 1566,
      "Ġ11": 1567,
      "ĠhÃ¡lfleik": 1568,
      "ĠNÃº": 1569,
      "pt": 1570,
      "stjÃ³rnar": 1571,
      "ĠnÃ¦r": 1572,
      "tist": 1573,
      "ĠmÃ¶rk": 1574,
      "lÃ¡": 1575,
      "ĠmilljarÃ°a": 1576,
      "ĠskoraÃ°i": 1577,
      "ĠSuÃ°ur": 1578,
      "unda": 1579,
      "ĠMeÃ°": 1580,
      "ilegt": 1581,
      "yÃ°": 1582,
      "Ġvef": 1583,
      "di": 1584,
      "irnir": 1585,
      "Ã©lÃ¶g": 1586,
      "ÃŃnu": 1587,
      "ng": 1588,
      "vin": 1589,
      "ĠÃ¾Ãº": 1590,
      "Ġhana": 1591,
      "ĠMagn": 1592,
      "anka": 1593,
      "ĠsjÃ³": 1594,
      "Ġ18": 1595,
      "ĠgÃ¦": 1596,
      "ĠÃ¡g": 1597,
      "ĠmÃ¡li": 1598,
      "Ġeigi": 1599,
      "spyr": 1600,
      "etta": 1601,
      "ĠfÃ©lagsins": 1602,
      "ĠfjÃ¡rfest": 1603,
      "Ġunn": 1604,
      "yg": 1605,
      "Ã³f": 1606,
      "ger": 1607,
      "skipti": 1608,
      "cel": 1609,
      "nahag": 1610,
      "daginn": 1611,
      "ĠsÃŃÃ°ast": 1612,
      "us": 1613,
      "uleik": 1614,
      "ĠEf": 1615,
      "bjÃ¶r": 1616,
      "einn": 1617,
      "Ã¶ndum": 1618,
      "Ġkannski": 1619,
      "Ã¶greg": 1620,
      "Ġsegist": 1621,
      "ĠnÃ¦st": 1622,
      "for": 1623,
      "nis": 1624,
      "Ġlig": 1625,
      "Ġhaft": 1626,
      "Ġ0": 1627,
      "ĠÃ½m": 1628,
      "ĠhÃ¡tt": 1629,
      "rir": 1630,
      "Ġleggja": 1631,
      "ĠÃŀann": 1632,
      "naÃ°ar": 1633,
      "ĠmÃŃnÃº": 1634,
      "sleg": 1635,
      "ĠLand": 1636,
      "Ãºru": 1637,
      "opp": 1638,
      "ekk": 1639,
      "ĠEkki": 1640,
      "sÃ¶g": 1641,
      "fis": 1642,
      "ĠÃ¾Ã½": 1643,
      "ĠSjÃ¡lf": 1644,
      "Ġtap": 1645,
      "ĠskoÃ°": 1646,
      "Ġ16": 1647,
      "Ġlit": 1648,
      "ĠhÃ¶fuÃ°borg": 1649,
      "Ġlandinu": 1650,
      "ĠFrÃ©tt": 1651,
      "Ã¦ra": 1652,
      "ĠblaÃ°": 1653,
      "tÃŃm": 1654,
      "Ã¶ldi": 1655,
      "ÃŃna": 1656,
      "ĠTil": 1657,
      "Ġveit": 1658,
      "ĠsamÃ¾ykk": 1659,
      "byr": 1660,
      "tast": 1661,
      "ĠkjÃ¶r": 1662,
      "endum": 1663,
      "ĠsÃŃnu": 1664,
      "Ġalls": 1665,
      "ĠgÃ³Ã°": 1666,
      "Ġflu": 1667,
      "ĠÃ¾urf": 1668,
      "ĠÃ¾ekk": 1669,
      "Ġdaga": 1670,
      "Ġfinna": 1671,
      "Ġaug": 1672,
      "Ġheims": 1673,
      "Ġvill": 1674,
      "Ġmyndi": 1675,
      "Ġ\"": 1676,
      "ĠÃŀegar": 1677,
      "Ġstendur": 1678,
      "natt": 1679,
      "000": 1680,
      "20": 1681,
      "slum": 1682,
      "ĠfÃ¶": 1683,
      "vart": 1684,
      "ĠÃ¡kvÃ¶rÃ°un": 1685,
      "ĠÃ¾jÃ³": 1686,
      "lÃŃf": 1687,
      "Ġvilja": 1688,
      "arar": 1689,
      "semi": 1690,
      "vÃ¦": 1691,
      "ĠBer": 1692,
      "ĠbÃ¦jar": 1693,
      "ĠbÃºiÃ°": 1694,
      "Ãºst": 1695,
      "ssonar": 1696,
      "Ġhluti": 1697,
      "set": 1698,
      "Ġflest": 1699,
      "amanna": 1700,
      "Ġvann": 1701,
      "ĠrÃ¦": 1702,
      "ĠvÃ¶r": 1703,
      "Ġreynd": 1704,
      "Ġgjald": 1705,
      "Ġtekur": 1706,
      "ĠÃŀannig": 1707,
      "gr": 1708,
      "Ġopin": 1709,
      "ĠÃ¡hug": 1710,
      "lau": 1711,
      "ĠEl": 1712,
      "ĠvÃ¦": 1713,
      "Ġheild": 1714,
      "Ġstanda": 1715,
      "yf": 1716,
      "ĠumrÃ¦": 1717,
      "Ġoft": 1718,
      "Ġnokkur": 1719,
      "Ã¦f": 1720,
      "ĠHÃ©r": 1721,
      "ĠHÃ¡": 1722,
      "ĠboÃ°": 1723,
      "ĠÃ¶Ã°ru": 1724,
      "naÃ°i": 1725,
      "ĠÃ¾rÃ³": 1726,
      "mar": 1727,
      "Ġtelur": 1728,
      "Ġumhver": 1729,
      "fyl": 1730,
      "stjÃ³ra": 1731,
      "ĠstÃ¶rf": 1732,
      "Ġfyrri": 1733,
      "astof": 1734,
      "Ġundanfar": 1735,
      "ĠforsÃ¦ti": 1736,
      "ĠhÃ©rna": 1737,
      "ĠveiÃ°": 1738,
      "llu": 1739,
      "ÃŃsk": 1740,
      "unin": 1741,
      "Ġfang": 1742,
      "illa": 1743,
      "yni": 1744,
      "ĠStef": 1745,
      "ĠMar": 1746,
      "Ġeinstakl": 1747,
      "ĠsÃ©rstaklega": 1748,
      "Ġkepp": 1749,
      "Ġgott": 1750,
      "Ġgegnum": 1751,
      "ĠlÃŃ": 1752,
      "Ġ17": 1753,
      "Ġbein": 1754,
      "ĠAt": 1755,
      "ĠstÃ¶Ã°": 1756,
      "ĠSamkvÃ¦mt": 1757,
      "Ġvald": 1758,
      "Ġstr": 1759,
      "od": 1760,
      "aliÃ°": 1761,
      "ĠnÃ¡ttÃºru": 1762,
      "smanna": 1763,
      "samt": 1764,
      "Ã¶gum": 1765,
      "ĠÃ¡tta": 1766,
      "Ġbor": 1767,
      "mÃ¶r": 1768,
      "ĠHr": 1769,
      "ĠÃ¡rs": 1770,
      "ĠunniÃ°": 1771,
      "ĠtÃŃu": 1772,
      "Ġhund": 1773,
      "ĠFÃ³tbolti": 1774,
      "ĠIS": 1775,
      "Ġbrot": 1776,
      "ÃŃtal": 1777,
      "Ġstef": 1778,
      "Ġefnahag": 1779,
      "utt": 1780,
      "inda": 1781,
      "ĠfjÃ¶lskyld": 1782,
      "ĠauÃ°vitaÃ°": 1783,
      "Ġvan": 1784,
      "hl": 1785,
      "ustur": 1786,
      "ĠÃ¾essari": 1787,
      "Ġfel": 1788,
      "Ġleit": 1789,
      "Ġraf": 1790,
      "Ġsamstarf": 1791,
      "Ġmiklu": 1792,
      "olt": 1793,
      "ĠmeÃ°an": 1794,
      "mer": 1795,
      "asam": 1796,
      ".\"": 1797,
      "Ġhor": 1798,
      "rÃ¦n": 1799,
      "ĠfÃ³lki": 1800,
      "Ġeinu": 1801,
      "agnar": 1802,
      "uk": 1803,
      "ĠfjÃ¶lmiÃ°": 1804,
      "ĠnÃ³tt": 1805,
      "rek": 1806,
      "ĠÃ¡rinu": 1807,
      "spyrnu": 1808,
      "rÃºn": 1809,
      "amÃ³t": 1810,
      "ala": 1811,
      "Ġvit": 1812,
      "jarÃ°ar": 1813,
      "Ġstund": 1814,
      "Ã¶gur": 1815,
      "ĠstuÃ°ning": 1816,
      "ĠljÃ³s": 1817,
      "ĠÃ¾arna": 1818,
      "tug": 1819,
      "Ġ25": 1820,
      "ĠaÃ°al": 1821,
      "rÃŃkis": 1822,
      "ĠfjÃ¡rm": 1823,
      "dÃ³ttur": 1824,
      "Ãŀetta": 1825,
      "uleg": 1826,
      "Ġvand": 1827,
      "ĠÃ¾urfi": 1828,
      "aÃ°s": 1829,
      "eÃ°la": 1830,
      "nnur": 1831,
      "str": 1832,
      "ĠHar": 1833,
      "ĠÃ¡samt": 1834,
      "ĠKristjÃ¡n": 1835,
      "ĠnÃ¡m": 1836,
      "ĠAf": 1837,
      "Ġnefnd": 1838,
      "ason": 1839,
      "ĠSjÃ¡lfstÃ¦Ã°i": 1840,
      "erÃ°ir": 1841,
      "ĠÃ¾jÃ¡lf": 1842,
      "ĠDan": 1843,
      "ĠÃŃslenska": 1844,
      "Ġtilkynningu": 1845,
      "ĠkrÃ¶f": 1846,
      "Ġfinnst": 1847,
      "ĠÃ¾urfa": 1848,
      "ĠBjÃ¶rn": 1849,
      "undi": 1850,
      "jÃ¶rÃ°um": 1851,
      "ila": 1852,
      "keppni": 1853,
      "ĠhÃ¦tti": 1854,
      "Ġalm": 1855,
      "hluta": 1856,
      "ĠvÃŃ": 1857,
      "Ã³lf": 1858,
      "ĠÃ¾eirri": 1859,
      "allaÃ°": 1860,
      "Ã¦Ã°ur": 1861,
      "ĠlandsliÃ°": 1862,
      "Ġmargir": 1863,
      "mÃ¡la": 1864,
      "samband": 1865,
      "le": 1866,
      "ĠhÃ³f": 1867,
      "ĠÃºti": 1868,
      "ĠBir": 1869,
      "Ġ30": 1870,
      "va": 1871,
      "raut": 1872,
      "ĠvirÃ°ist": 1873,
      "sflokk": 1874,
      "sn": 1875,
      "ĠjÃ¡": 1876,
      "Ġath": 1877,
      "ĠKaup": 1878,
      "ĠheilbrigÃ°i": 1879,
      "rÃ©": 1880,
      "allar": 1881,
      "lÃŃk": 1882,
      "ĠtÃ³nlist": 1883,
      "ĠAnd": 1884,
      "ĠSn": 1885,
      "ĠErlendar": 1886,
      "ĠHau": 1887,
      "Ġkomast": 1888,
      "uÃ°um": 1889,
      "Ġerfitt": 1890,
      "Ġopinber": 1891,
      "taka": 1892,
      "ĠÃºrslit": 1893,
      "arÃ¡Ã°herra": 1894,
      "ĠSel": 1895,
      "ĠstjÃ³rnvÃ¶ld": 1896,
      "ĠljÃ³st": 1897,
      "ĠsÃ¶gn": 1898,
      "ĠÃ¡k": 1899,
      "ĠÃ¾jÃ³nustu": 1900,
      "Ġverkefni": 1901,
      "ĠupplÃ½singar": 1902,
      "Ġminni": 1903,
      "ningum": 1904,
      "Ġganga": 1905,
      "run": 1906,
      "Ã¶p": 1907,
      "Ġbet": 1908,
      "afÃ©lag": 1909,
      "ĠrÃ¡": 1910,
      "Ġleikinn": 1911,
      "ĠAn": 1912,
      "aut": 1913,
      "Ġfrekar": 1914,
      "Ġalvar": 1915,
      "amann": 1916,
      "ĠBar": 1917,
      "ferÃ°ar": 1918,
      "sen": 1919,
      "jarÃ°": 1920,
      "byrg": 1921,
      ".:": 1922,
      "ĠhÃ¶fÃ°u": 1923,
      "irÃ°i": 1924,
      "ĠÃ¡f": 1925,
      "Ġlands": 1926,
      "ĠÃ¦tla": 1927,
      "amm": 1928,
      "ĠÃ¾essar": 1929,
      "Ġkar": 1930,
      "ĠbÃ³": 1931,
      "ou": 1932,
      "ĠgerÃ°i": 1933,
      "eyti": 1934,
      "iliÃ°": 1935,
      "ew": 1936,
      "Er": 1937,
      "Ġreyna": 1938,
      "bb": 1939,
      "ken": 1940,
      "Ġupphaf": 1941,
      "Ġmunu": 1942,
      "ĠgengiÃ°": 1943,
      "ĠsviÃ°": 1944,
      "kt": 1945,
      "ĠfyrirtÃ¦ki": 1946,
      "ĠÃ³sk": 1947,
      "ĠkjÃ¶l": 1948,
      "Ġhugmynd": 1949,
      "ĠLÃ¶greg": 1950,
      "ĠEinar": 1951,
      "rakk": 1952,
      "ĠframleiÃ°": 1953,
      "yt": 1954,
      "Ġversl": 1955,
      "dÃŃs": 1956,
      "ĠlÃ¡t": 1957,
      "ĠAkureyri": 1958,
      "sum": 1959,
      "aldur": 1960,
      "kun": 1961,
      "ĠnÃ½r": 1962,
      "Ġvak": 1963,
      "Ġlagt": 1964,
      "ĠÃ¾Ã³tt": 1965,
      "Ġfast": 1966,
      "ĠfjÃ¶gur": 1967,
      "Ġheyr": 1968,
      "sveit": 1969,
      "ic": 1970,
      "ĠvÃ¦ru": 1971,
      "ĠviÃ°skipta": 1972,
      "ĠÃ¡Ã¦t": 1973,
      "blaÃ°": 1974,
      "gun": 1975,
      "Ġatvinnul": 1976,
      "Ġkomu": 1977,
      "ĠforsÃ¦tisrÃ¡Ã°herra": 1978,
      "Ã¦gt": 1979,
      "ĠborÃ°": 1980,
      "Ġlaun": 1981,
      "ssk": 1982,
      "ĠnÃ½ja": 1983,
      "ĠframkvÃ¦mdastjÃ³ri": 1984,
      "ĠrÃŃkisstjÃ³rn": 1985,
      "engi": 1986,
      "Ġskot": 1987,
      "Ġnema": 1988,
      "Ġsann": 1989,
      "Ġborgar": 1990,
      "Ġgefa": 1991,
      "ljÃ³": 1992,
      "ĠhÃ¶fuÃ°borgarsv": 1993,
      "ĠhefÃ°u": 1994,
      "ĠRÃŃk": 1995,
      "ĠlÃ¡n": 1996,
      "ĠsÃ¶m": 1997,
      "ĠnokkuÃ°": 1998,
      "Ġfylg": 1999,
      "Ġsetja": 2000,
      "ĠMarg": 2001,
      "ĠniÃ°urst": 2002,
      "ĠEftir": 2003,
      "ĠnÃ½tt": 2004,
      "ĠOr": 2005,
      "ĠnÃ½ju": 2006,
      "ĠHal": 2007,
      "ĠMik": 2008,
      "Ġfyrrverandi": 2009,
      "dÃ¦m": 2010,
      "legum": 2011,
      "ĠerfiÃ°": 2012,
      "ĠKat": 2013,
      "ĠkrÃ³nur": 2014,
      "Ġkjar": 2015,
      "Ġskap": 2016,
      "nÃ¦Ã°i": 2017,
      "anlega": 2018,
      "Ġspila": 2019,
      "ĠskÃ³l": 2020,
      "ĠhljÃ³": 2021,
      "ĠFr": 2022,
      "Ã¦Ã°um": 2023,
      "Ġbarna": 2024,
      "ĠhaldiÃ°": 2025,
      "ĠkjÃ¶lfar": 2026,
      "ĠBen": 2027,
      "Ġleg": 2028,
      "tÃŃÃ°ar": 2029,
      "ĠÃ¾riÃ°ja": 2030,
      "ĠgÃ¦rkv": 2031,
      "ulltrÃº": 2032,
      "rik": 2033,
      "Ġstra": 2034,
      "ingin": 2035,
      "ĠgagnrÃ½": 2036,
      "Ġsel": 2037,
      "ofnun": 2038,
      "komulag": 2039,
      "ĠSjÃ¡lfstÃ¦Ã°isflokk": 2040,
      "estur": 2041,
      "ĠnauÃ°": 2042,
      "Ġleiknum": 2043,
      "Ã¶nnun": 2044,
      "dr": 2045,
      "ĠhjÃ¡l": 2046,
      "ĠnÃ¡Ã°": 2047,
      "flug": 2048,
      "ndi": 2049,
      "Ġfann": 2050,
      "Ã³ber": 2051,
      "Erlendar": 2052,
      "Ġbarn": 2053,
      "Ġem": 2054,
      "ĠEinn": 2055,
      "ĠstaÃ°fest": 2056,
      "Ġkvik": 2057,
      "ninga": 2058,
      "ĠÃ¡rsins": 2059,
      "ard": 2060,
      "sb": 2061,
      "ĠStjÃ³rn": 2062,
      "stÃ¦Ã°": 2063,
      "Ã¦st": 2064,
      "ĠtrÃº": 2065,
      "ĠÃĵlafur": 2066,
      "ĠÃ¡rang": 2067,
      "stjÃ³r": 2068,
      "ĠEng": 2069,
      "eldi": 2070,
      "ep": 2071,
      "Ġjafnvel": 2072,
      "ĠÃ¡kveÃ°iÃ°": 2073,
      "ow": 2074,
      "Ġhundr": 2075,
      "elli": 2076,
      "ĠVÃŃs": 2077,
      "ĠlÃ¡ta": 2078,
      "ĠÃ¾jÃ³Ã°ar": 2079,
      "jÃ³nvarp": 2080,
      "bÃºn": 2081,
      "veit": 2082,
      "Ġsamtali": 2083,
      "Ġatkv": 2084,
      "ĠsÃ½na": 2085,
      "ĠÃ¾rjÃº": 2086,
      "hn": 2087,
      "ĠdÃ¦mis": 2088,
      "ĠÃįs": 2089,
      "Ġhugs": 2090,
      "eÃ°labank": 2091,
      "ĠÃ¶rygg": 2092,
      "ĠsÃ¶lu": 2093,
      "ĠÃŀÃ³": 2094,
      "ĠStefÃ¡n": 2095,
      "Ġviss": 2096,
      "undur": 2097,
      "ĠNÃ½": 2098,
      "uneyt": 2099,
      "ĠtillÃ¶g": 2100,
      "ĠIcel": 2101,
      "Ġmikla": 2102,
      "bl": 2103,
      "ĠÃ¾remur": 2104,
      "Ġtveggja": 2105,
      "erfi": 2106,
      "spur": 2107,
      "ygli": 2108,
      "Ġheimild": 2109,
      "ĠIngi": 2110,
      "ĠÃ¶llu": 2111,
      "Ġvin": 2112,
      "gjÃ¶r": 2113,
      "framt": 2114,
      "ĠIng": 2115,
      "ogi": 2116,
      "ĠlÃŃtiÃ°": 2117,
      "ÃŃtiÃ°": 2118,
      "ĠRÃºss": 2119,
      "ĠHver": 2120,
      "Ã°ust": 2121,
      "Ġknatt": 2122,
      "Ġinni": 2123,
      "Ġloft": 2124,
      "ĠHalld": 2125,
      "Ã¡ra": 2126,
      "aÃ°an": 2127,
      "ĠHer": 2128,
      "Ġey": 2129,
      "Ġbandar": 2130,
      "ĠtÃ¦kif": 2131,
      "Ġallra": 2132,
      "Ġeina": 2133,
      "ĠMan": 2134,
      "bolta": 2135,
      "ĠumferÃ°": 2136,
      "ĠsveitarfÃ©lag": 2137,
      "fÃ¶r": 2138,
      "ĠÃįÃ¾rÃ³ttir": 2139,
      "irnar": 2140,
      "ĠnÃ¡l": 2141,
      "Ġhverju": 2142,
      "Ã¡m": 2143,
      "eiÃ°i": 2144,
      "ling": 2145,
      "anefnd": 2146,
      "ĠfÃ©lagiÃ°": 2147,
      "Ġbreytingar": 2148,
      "ĠneÃ°": 2149,
      "smiÃ°": 2150,
      "sfÃ³lk": 2151,
      "ĠÃĸr": 2152,
      "irkj": 2153,
      "Ġauka": 2154,
      "Ġallan": 2155,
      "Ġney": 2156,
      "ablaÃ°": 2157,
      "ĠÃ³v": 2158,
      "ĠrannsÃ³kn": 2159,
      "Ã¶kum": 2160,
      "raun": 2161,
      "ob": 2162,
      "kar": 2163,
      "bÃ³t": 2164,
      "ĠmÃ³tmÃ¦": 2165,
      "ĠÃ¡her": 2166,
      "ĠgreiÃ°a": 2167,
      "Ġreyn": 2168,
      "ÃŃÃ°u": 2169,
      "hr": 2170,
      "greiÃ°": 2171,
      "ay": 2172,
      "ĠBandarÃŃkjunum": 2173,
      "ĠÃ¦tti": 2174,
      "ne": 2175,
      "ĠÃ¡byrg": 2176,
      "deildinni": 2177,
      "send": 2178,
      "..": 2179,
      "ĠlÃ¦k": 2180,
      "ennan": 2181,
      "ĠjÃ³": 2182,
      "ĠrÃºmlega": 2183,
      "tun": 2184,
      "ĠAlÃ¾ingi": 2185,
      "legu": 2186,
      "ĠstjÃ³rnmÃ¡l": 2187,
      "alt": 2188,
      "ĠmÃ¡linu": 2189,
      "ÃŃma": 2190,
      "Ã¾jÃ³nustu": 2191,
      "Ġlaus": 2192,
      "ĠÃ¶nnur": 2193,
      "ĠeÃ°": 2194,
      "leika": 2195,
      "rÃŃl": 2196,
      "hÃ¡": 2197,
      "Ġmanna": 2198,
      "Ġkraf": 2199,
      "annlÃŃf": 2200,
      "Ġheimil": 2201,
      "Ġlangt": 2202,
      "Ġlei": 2203,
      "ĠHeim": 2204,
      "Ġalmenn": 2205,
      "mannaey": 2206,
      "Ġfylgja": 2207,
      "ĠMiÃ°": 2208,
      "ĠhvaÃ°a": 2209,
      "Ġnota": 2210,
      "legar": 2211,
      "ĠÃºtg": 2212,
      "Ã½ra": 2213,
      "ĠmikilvÃ¦gt": 2214,
      "agna": 2215,
      "ĠfulltrÃº": 2216,
      "ĠfjÃ¶ld": 2217,
      "Ġkvenna": 2218,
      "fr": 2219,
      "velli": 2220,
      "ĠVestmannaey": 2221,
      "ĠsÃŃÃ°astliÃ°": 2222,
      "ĠGÃŃ": 2223,
      "vals": 2224,
      "id": 2225,
      "Ġvax": 2226,
      "ĠskÃ³la": 2227,
      "ĠLeik": 2228,
      "Ġsek": 2229,
      "Ġbre": 2230,
      "ĠsÃ¶gu": 2231,
      "ĠfÃ³lks": 2232,
      "se": 2233,
      "sli": 2234,
      "ĠgerÃ°": 2235,
      "ĠfÃ³t": 2236,
      "Ã¦tir": 2237,
      "ham": 2238,
      "rÃŃm": 2239,
      "ĠstaÃ°ar": 2240,
      "ĠsÃ¦k": 2241,
      "ĠÃ¾rÃ¡tt": 2242,
      "Ġsamband": 2243,
      "nÃ½": 2244,
      "ĠDa": 2245,
      "alli": 2246,
      "deg": 2247,
      "ia": 2248,
      "Ġengin": 2249,
      "ĠmarkaÃ°": 2250,
      "Ġeinf": 2251,
      "ĠFrÃ©ttablaÃ°": 2252,
      "slur": 2253,
      "Ġgerir": 2254,
      "ĠLi": 2255,
      "Ã¶t": 2256,
      "smaÃ°ur": 2257,
      "fylk": 2258,
      "ÃŃr": 2259,
      "Ġfisk": 2260,
      "Ġfrumvarp": 2261,
      "Ġol": 2262,
      "ĠFyr": 2263,
      "ĠSigurÃ°": 2264,
      "ĠskoÃ°a": 2265,
      "linum": 2266,
      "Ġtryggja": 2267,
      "gina": 2268,
      "lur": 2269,
      "ĠtÃ¶lu": 2270,
      "Ġev": 2271,
      "ÃŃska": 2272,
      "ĠSigurÃ°ur": 2273,
      "ĠÃ¡nÃ¦g": 2274,
      "komu": 2275,
      "jaf": 2276,
      "horf": 2277,
      "ĠÃ¡huga": 2278,
      "ĠsÃ¦": 2279,
      "jÃ¶ld": 2280,
      "ĠÃ¾ri": 2281,
      "ĠsjÃ¡var": 2282,
      "ĠMagnÃºs": 2283,
      "Ġbjar": 2284,
      "gÃ¶ng": 2285,
      "ĠfrÃ¡bÃ¦r": 2286,
      "vang": 2287,
      "ĠferÃ°a": 2288,
      "ĠviÃ°ur": 2289,
      "ĠBjÃ¶rg": 2290,
      "Ġdreg": 2291,
      "ĠHalldÃ³r": 2292,
      "Ġhversu": 2293,
      "ĠÃ¡hygg": 2294,
      "Ġofan": 2295,
      "Ġjan": 2296,
      "Ġstrax": 2297,
      "ĠJo": 2298,
      "ĠÃįslen": 2299,
      "reng": 2300,
      "sÃ¡": 2301,
      "ĠhÃ¡lf": 2302,
      "ĠÃ¾ennan": 2303,
      "ĠBret": 2304,
      "aleik": 2305,
      "komandi": 2306,
      "Ġ199": 2307,
      "valda": 2308,
      "Ġsamt": 2309,
      "nason": 2310,
      "Ġstyrk": 2311,
      "Ġathygli": 2312,
      "ĠlÃ¶gregl": 2313,
      "Ġfjar": 2314,
      "tÃ¶ku": 2315,
      "jandi": 2316,
      "ĠhÃ¶fuÃ°borgarsvÃ¦Ã°inu": 2317,
      "ĠfrÃ©ttastof": 2318,
      "Ġkomi": 2319,
      "Ġgest": 2320,
      "ĠjanÃºar": 2321,
      "ley": 2322,
      "ĠstaÃ°iÃ°": 2323,
      "ĠSjÃ¡": 2324,
      "ĠRagnar": 2325,
      "vÃŃs": 2326,
      "ĠjÃºn": 2327,
      "Ãºtveg": 2328,
      "eftir": 2329,
      "amaÃ°ur": 2330,
      "Ġkomin": 2331,
      "ĠaÃ°ra": 2332,
      "aflokk": 2333,
      "ov": 2334,
      "ĠSelf": 2335,
      "Ġgrunn": 2336,
      "ĠJÃ³nsson": 2337,
      "last": 2338,
      "Ġsinna": 2339,
      "Ġsit": 2340,
      "Ġlyf": 2341,
      "veir": 2342,
      "%.": 2343,
      "ĠKef": 2344,
      "Ġpen": 2345,
      "naÃ°ur": 2346,
      "Ã¶mm": 2347,
      "ĠÃ³h": 2348,
      "ĠsnÃº": 2349,
      "ĠSamfylk": 2350,
      "Ġgekk": 2351,
      "Ġskatt": 2352,
      "urÃ°u": 2353,
      "ĠgrÃŃÃ°ar": 2354,
      "Ġforseti": 2355,
      "Ġtala": 2356,
      "Ġknattspyrnu": 2357,
      "Ġallar": 2358,
      "nes": 2359,
      "ĠfÃ¶stu": 2360,
      "ĠGuÃ°mundur": 2361,
      "Ġ21": 2362,
      "Ġframhald": 2363,
      "Ġvirk": 2364,
      "Ġskemmt": 2365,
      "ĠvÃŃÃ°a": 2366,
      "Ġtilf": 2367,
      "Ġmikill": 2368,
      "ĠÃ¡l": 2369,
      "Ġilla": 2370,
      "Ġlengi": 2371,
      "ĠmilljÃ³num": 2372,
      "Ġumf": 2373,
      "ĠArnar": 2374,
      "ĠmilljÃ¶rÃ°um": 2375,
      "Ġmars": 2376,
      "Ġmiss": 2377,
      "legur": 2378,
      "30": 2379,
      "ĠÃ¾yr": 2380,
      "bÃ¦tt": 2381,
      "Ġhaust": 2382,
      "Ġsvip": 2383,
      "Ġtvo": 2384,
      "ĠliÃ°sins": 2385,
      "Ġenginn": 2386,
      "asta": 2387,
      "Ġ100": 2388,
      "Ġveik": 2389,
      "syn": 2390,
      "ĠtaliÃ°": 2391,
      "Ġdraga": 2392,
      "Ġfundi": 2393,
      "ĠtvÃ¦r": 2394,
      "ĠjÃºnÃŃ": 2395,
      "Ġkonur": 2396,
      "eyp": 2397,
      "Ġfari": 2398,
      "ace": 2399,
      "nin": 2400,
      "ĠFyrir": 2401,
      "ĠvÃ¦nt": 2402,
      "flutning": 2403,
      "app": 2404,
      "ĠdÃ½r": 2405,
      "Ġ22": 2406,
      "Ġafar": 2407,
      "Ã³ta": 2408,
      "ddi": 2409,
      "ass": 2410,
      "ĠlÃ¶greglum": 2411,
      "Ġgrun": 2412,
      "skipta": 2413,
      "Ġform": 2414,
      "MannlÃŃf": 2415,
      "ptember": 2416,
      "Ġnet": 2417,
      "ggja": 2418,
      "laun": 2419,
      "Ġtelja": 2420,
      "ikt": 2421,
      "Ġreik": 2422,
      "ĠÃŀvÃŃ": 2423,
      "ĠBjarni": 2424,
      "ĠÃŃslenskra": 2425,
      "da": 2426,
      "Ġsko": 2427,
      "rÃ¡s": 2428,
      "ĠmaÃŃ": 2429,
      "ĠAustur": 2430,
      "ĠhÃ³t": 2431,
      "ĠÃŃslensku": 2432,
      "Ã¦tti": 2433,
      "ĠÃ¡rÃ¡s": 2434,
      "rÃ¦Ã°um": 2435,
      "ĠstÃ³Ã°": 2436,
      "ĠPÃ©": 2437,
      "Ġforeld": 2438,
      "brey": 2439,
      "ingaÃ°": 2440,
      "Ã¶nn": 2441,
      "firÃ°i": 2442,
      "Ġles": 2443,
      "eistara": 2444,
      "ĠbÃºa": 2445,
      "ant": 2446,
      "ĠNew": 2447,
      "ĠÃ¡ratug": 2448,
      "ĠsjÃ³nvarp": 2449,
      "Ġskr": 2450,
      "nit": 2451,
      "Ã¶st": 2452,
      "Ġfannst": 2453,
      "Ġjafnframt": 2454,
      "slega": 2455,
      "tÃ¡n": 2456,
      "Ġhvor": 2457,
      "Ġsly": 2458,
      "ĠJÃ¡": 2459,
      "Ġalmenning": 2460,
      "ĠSte": 2461,
      "ssyni": 2462,
      "repp": 2463,
      "ĠÃŃÃ¾rÃ³": 2464,
      "ĠtÃŃmabil": 2465,
      "Ġumhverfis": 2466,
      "Ġnokkrum": 2467,
      "ĠhÃºsnÃ¦Ã°i": 2468,
      "ĠsmÃ¡": 2469,
      "arinn": 2470,
      "erfiÃ°": 2471,
      "ĠjarÃ°": 2472,
      "uneyti": 2473,
      "ĠSvo": 2474,
      "Ġap": 2475,
      "ĠMark": 2476,
      "ĠsÃ¶mu": 2477,
      "Ġokt": 2478,
      "ĠaÃ°rir": 2479,
      "ĠFÃ©lag": 2480,
      "ĠfÃ³ru": 2481,
      "Ã³ra": 2482,
      "ĠÃºrvals": 2483,
      "ĠFriÃ°": 2484,
      "ĠmiÃ°aÃ°": 2485,
      "vÃŃÃ°": 2486,
      "Ġseptember": 2487,
      "ĠmÃ¶guleik": 2488,
      "Ġ50": 2489,
      "Ġsterk": 2490,
      "ĠBl": 2491,
      "ĠVil": 2492,
      "ĠforstjÃ³ri": 2493,
      "ĠbÃ¦ta": 2494,
      "Ġhelgina": 2495,
      "ĠtÃ¦kifÃ¦ri": 2496,
      "legri": 2497,
      "ĠnÃŃu": 2498,
      "ĠÃĵsk": 2499,
      "Ġdes": 2500,
      "ester": 2501,
      "Ġlaugar": 2502,
      "ndar": 2503,
      "ĠmarkmiÃ°": 2504,
      "ĠPÃ©tur": 2505,
      "jÃ³ta": 2506,
      "gÃ¦": 2507,
      "ĠoktÃ³ber": 2508,
      "okki": 2509,
      "Ġloka": 2510,
      "brot": 2511,
      "ĠEvrÃ³pusamband": 2512,
      "Ġgildi": 2513,
      "Ġton": 2514,
      "ĠsjÃºkra": 2515,
      "Ġkarl": 2516,
      "indum": 2517,
      "Ġheima": 2518,
      "brÃ©f": 2519,
      "Ġsvar": 2520,
      "Ġefni": 2521,
      "Ġkaupa": 2522,
      "ĠlÃ¦g": 2523,
      "ĠpÃ³": 2524,
      "brÃ¶g": 2525,
      "ĠyfirlÃ½s": 2526,
      "mÃ¶nnum": 2527,
      "endir": 2528,
      "ĠBerg": 2529,
      "book": 2530,
      "rump": 2531,
      "ĠiÃ°": 2532,
      "ĠÃ¾riggja": 2533,
      "jÃ³nust": 2534,
      "Ġdeil": 2535,
      "ĠFjÃ¶l": 2536,
      "frÃ¦Ã°ingur": 2537,
      "rÃ¦Ã°ur": 2538,
      "nan": 2539,
      "ĠnÃ¡ttÃºrulega": 2540,
      "einu": 2541,
      "vember": 2542,
      "Ġstarfsemi": 2543,
      "pÃŃtal": 2544,
      "Ġvatn": 2545,
      "mÃ¦li": 2546,
      "ĠupplÃ½singum": 2547,
      "Ġtveir": 2548,
      "emst": 2549,
      "ĠBorg": 2550,
      "elsi": 2551,
      "ĠKR": 2552,
      "Ġseinni": 2553,
      "ĠKefla": 2554,
      "ĠgefiÃ°": 2555,
      "ĠBandarÃŃkjanna": 2556,
      "ĠundirbÃº": 2557,
      "ĠÃŀau": 2558,
      "ea": 2559,
      "Ãļ": 2560,
      "Ġleikur": 2561,
      "ndur": 2562,
      "Ġtekin": 2563,
      "Ġdesember": 2564,
      "Ã¦ttu": 2565,
      "tals": 2566,
      "alega": 2567,
      "Ġfe": 2568,
      "ĠnÃ¡Ã°i": 2569,
      "ĠKarl": 2570,
      "aleg": 2571,
      "Ã³nu": 2572,
      "ĠVer": 2573,
      "egin": 2574,
      "Ġkvikmynd": 2575,
      "Ġvita": 2576,
      "ĠSvÃŃ": 2577,
      "ĠaÃ°ger": 2578,
      "Ġhring": 2579,
      "Ġgetum": 2580,
      "eftirlit": 2581,
      "acebook": 2582,
      "ĠSm": 2583,
      "Ġleyti": 2584,
      "ĠrÃŃkisins": 2585,
      "ens": 2586,
      "ĠlÃ¶gum": 2587,
      "po": 2588,
      "ĠTrump": 2589,
      "ninni": 2590,
      "Ã¶x": 2591,
      "ingarinnar": 2592,
      "ĠFrakk": 2593,
      "Ãºsson": 2594,
      "ĠÃ¶rug": 2595,
      "ĠLau": 2596,
      "ĠÃ¾urfum": 2597,
      "ĠÃįslendingar": 2598,
      "ĠnÃ³vember": 2599,
      "Ġums": 2600,
      "Ġkarla": 2601,
      "ĠÃģsg": 2602,
      "ĠSeÃ°labank": 2603,
      "ĠDavÃŃÃ°": 2604,
      "ĠVeg": 2605,
      "hÃ³p": 2606,
      "raust": 2607,
      "ildur": 2608,
      "eyriss": 2609,
      "nas": 2610,
      "Ġ40": 2611,
      "ĠrannsÃ³knar": 2612,
      "Ã¶tu": 2613,
      "berg": 2614,
      "ĠfÃ¦": 2615,
      "ĠSigurÃ°sson": 2616,
      "ĠmÃ¶rg": 2617,
      "ĠÃ¾rjÃ¡": 2618,
      "ĠÃŀorst": 2619,
      "bund": 2620,
      "50": 2621,
      "ĠmÃ¡lsins": 2622,
      "ĠÃ¡byrgÃ°": 2623,
      "Ã°ung": 2624,
      "ĠrÃŃkiss": 2625,
      "ĠhingaÃ°": 2626,
      "ettvang": 2627,
      "ĠhliÃ°": 2628,
      "Ġleita": 2629,
      "ĠReyk": 2630,
      "ĠutanrÃŃkis": 2631,
      "tÃŃu": 2632,
      "Ġminna": 2633,
      "Ġliggur": 2634,
      "ofnunar": 2635,
      "ĠnauÃ°syn": 2636,
      "yfir": 2637,
      "Ã¦Ã°iÃ°": 2638,
      "ĠfyrirtÃ¦kisins": 2639,
      "Ġbetri": 2640,
      "aÃ°ist": 2641,
      "enni": 2642,
      "jal": 2643,
      "ttur": 2644,
      "Ġkringum": 2645,
      "ĠSelfoss": 2646,
      "ĠbÃ³lu": 2647,
      "deildar": 2648,
      "ĠmÃŃnÃºtu": 2649,
      "ĠRe": 2650,
      "ĠHv": 2651,
      "yst": 2652,
      "Ġ24": 2653,
      "Ãºss": 2654,
      "ĠframtÃŃÃ°": 2655,
      "ĠhÃ¦tta": 2656,
      "Ġkomst": 2657,
      "ĠÃŀessi": 2658,
      "ĠVin": 2659,
      "Ġhefst": 2660,
      "ĠÃŀr": 2661,
      "ĠhÃ¦ttu": 2662,
      "ĠÃ¾urft": 2663,
      "ĠbrÃ©f": 2664,
      "ĠSigurÃ°ar": 2665,
      "efnum": 2666,
      "ĠtÃŃÃ°": 2667,
      "ĠbÃ¡": 2668,
      "ĠaprÃŃl": 2669,
      "Ġleikmenn": 2670,
      "Ġval": 2671,
      "Ġlagi": 2672,
      "skrif": 2673,
      "Ġfall": 2674,
      "kon": 2675,
      "ĠliÃ°inu": 2676,
      "ĠalÃ¾jÃ³Ã°": 2677,
      "afor": 2678,
      "ĠCo": 2679,
      "Ġminnsta": 2680,
      "ĠÃŀÃ½": 2681,
      "ĠPÃ¡ll": 2682,
      "ĠkÃŃl": 2683,
      "undar": 2684,
      "ĠsveitarfÃ©lÃ¶g": 2685,
      "Ġstarfsmenn": 2686,
      "brÃºar": 2687,
      "alag": 2688,
      "Ġ23": 2689,
      "skri": 2690,
      "ĠUpp": 2691,
      "ĠAlÃ¾ingis": 2692,
      "ĠKjar": 2693,
      "Ġstarfa": 2694,
      "Ġforseta": 2695,
      "jÃ³t": 2696,
      "ĠHam": 2697,
      "ĠrÃŃkisstjÃ³rnar": 2698,
      "ĠFramsÃ³knar": 2699,
      "Ġbanka": 2700,
      "Ġgangi": 2701,
      "ĠtÃ¶lv": 2702,
      "ĠEins": 2703,
      "ĠThe": 2704,
      "ĠsvÃ¦Ã°inu": 2705,
      "Ã¾Ã³r": 2706,
      "skoÃ°": 2707,
      "raf": 2708,
      "ĠhjÃ¡lp": 2709,
      "ĠGuÃ°mundsson": 2710,
      "frÃ¦Ã°i": 2711,
      "ĠLandspÃŃtal": 2712,
      "Ġannarra": 2713,
      "co": 2714,
      "ĠstarfsfÃ³lk": 2715,
      "ĠbÃ¡Ã°": 2716,
      "ennar": 2717,
      "ĠÃŀjÃ³Ã°": 2718,
      "Ã¶Ã°ur": 2719,
      "ĠfjÃ¶lda": 2720,
      "ĠfjÃ³rum": 2721,
      "slag": 2722,
      "Ġkominn": 2723,
      "aÃ°sdÃ³m": 2724,
      "hjÃ¡l": 2725,
      "ĠtÃ¦plega": 2726,
      "Ã¶ldum": 2727,
      "Ġspenn": 2728,
      "ĠrÃ¡Ã°herra": 2729,
      "Ġkosti": 2730,
      "ĠsÃ³l": 2731,
      "ĠZ": 2732,
      "insÃ¦": 2733,
      "ĠprÃ³f": 2734,
      "bjÃ¶rn": 2735,
      "ĠfyrirtÃ¦kiÃ°": 2736,
      "ÃŃnum": 2737,
      "Ġskamm": 2738,
      "ĠÃļt": 2739,
      "ĠGar": 2740,
      "ĠUnit": 2741,
      "Ġbeint": 2742,
      "Ġfal": 2743,
      "ĠgÃ³Ã°a": 2744,
      "Ġvildi": 2745,
      "ĠbjÃ¶r": 2746,
      "hÃ¦Ã°": 2747,
      "Ġsendi": 2748,
      "ĠÃ¡gÃºst": 2749,
      "ĠÃ¾rÃ³un": 2750,
      "enti": 2751,
      "eistar": 2752,
      "skum": 2753,
      "Ġeftirlit": 2754,
      "ĠrÃ¶Ã°": 2755,
      "ĠneÃ°an": 2756,
      "enju": 2757,
      "ĠfebrÃºar": 2758,
      "Ġbyrjun": 2759,
      "Ã¶rfu": 2760,
      "ĠUnited": 2761,
      "ĠRo": 2762,
      "Ġvorum": 2763,
      "Ġfrest": 2764,
      "breyt": 2765,
      "ĠskÃ½rslu": 2766,
      "Ġupphafi": 2767,
      "Ġnafn": 2768,
      "200": 2769,
      "ĠsvÃ¦Ã°i": 2770,
      "ton": 2771,
      "Ġhandtek": 2772,
      "ferÃ°i": 2773,
      "oÃ°ar": 2774,
      "Ġleikjum": 2775,
      "ÃºÃ°": 2776,
      "ĠHafnar": 2777,
      "ĠtÃ³ku": 2778,
      "Ġskipulag": 2779,
      "slan": 2780,
      "einsson": 2781,
      "ĠsÃ©Ã°": 2782,
      "ungis": 2783,
      "Ã³s": 2784,
      "hel": 2785,
      "eif": 2786,
      "ĠbjÃ³Ã°a": 2787,
      "kÃ¶st": 2788,
      "ĠDÃ³m": 2789,
      "Ġleiki": 2790,
      "aka": 2791,
      "ĠFacebook": 2792,
      "ĠveÃ°ur": 2793,
      "Ġ/": 2794,
      "ĠEg": 2795,
      "ĠfyrirtÃ¦kja": 2796,
      "ĠMÃ¡l": 2797,
      "Ġflyt": 2798,
      "ĠÃ¦f": 2799,
      "ĠMo": 2800,
      "eina": 2801,
      "etra": 2802,
      "lÃ¦g": 2803,
      "ĠStÃ¶Ã°": 2804,
      "sdÃ³ttur": 2805,
      "ÃºlÃŃ": 2806,
      "amÃ¶nnum": 2807,
      "ĠdÃ¶gum": 2808,
      "Ã³knir": 2809,
      "Ġathug": 2810,
      "ĠbiÃ°": 2811,
      "las": 2812,
      "ĠÃºrskur": 2813,
      "Ġvest": 2814,
      "ningi": 2815,
      "Ġbesta": 2816,
      "nuÃ°": 2817,
      "Ġofb": 2818,
      "ĠLandsbank": 2819,
      "Ġstof": 2820,
      "ĠmÃ¦ta": 2821,
      "Ġfengu": 2822,
      "ĠkjÃ³": 2823,
      "ĠlÃŃkam": 2824,
      "ĠaÃ°stÃ¦Ã°ur": 2825,
      "ĠÃ¦tlar": 2826,
      "ĠniÃ°urstÃ¶Ã°u": 2827,
      "Ã¶kkv": 2828,
      "ĠsamÃ¾ykkt": 2829,
      "ĠBened": 2830,
      "eiÃ°ar": 2831,
      "Ġsamkeppni": 2832,
      "dir": 2833,
      "Ġmegi": 2834,
      "ĠlÃŃklega": 2835,
      "ÃŃÃ°an": 2836,
      "Ġflugv": 2837,
      "Ġheimili": 2838,
      "geng": 2839,
      "ĠeÃ°l": 2840,
      "undir": 2841,
      "Ã¶gn": 2842,
      "ĠEinnig": 2843,
      "amark": 2844,
      "ity": 2845,
      "Ġgengur": 2846,
      "ĠGeir": 2847,
      "Ġeink": 2848,
      "ĠmÃŃnÃºtur": 2849,
      "Ġpl": 2850,
      "10": 2851,
      "Ġeinfald": 2852,
      "Ġbendir": 2853,
      "ĠGuÃ°jÃ³n": 2854,
      "ry": 2855,
      "ĠÃ¡kÃ¦r": 2856,
      "ĠmÃ¶rgum": 2857,
      "Ġmati": 2858,
      "ĠBÃ¦": 2859,
      "Ã©lt": 2860,
      "ĠÃ³lÃŃk": 2861,
      "Ġpers": 2862,
      "Ġ27": 2863,
      "Ġrit": 2864,
      "skal": 2865,
      "ĠAÃ°al": 2866,
      "ĠÃģrni": 2867,
      "ĠDag": 2868,
      "mur": 2869,
      "ĠbÃºin": 2870,
      "jÃ¶rn": 2871,
      "Ã¦tlun": 2872,
      "ĠBenedikt": 2873,
      "ran": 2874,
      "ĠleikmaÃ°ur": 2875,
      "ĠsÃ¡tt": 2876,
      "Ġhre": 2877,
      "ĠundanfÃ¶r": 2878,
      "ĠlagÃ°i": 2879,
      "Ġskipti": 2880,
      "rÃŃÃ°ur": 2881,
      "laus": 2882,
      "Ġkaf": 2883,
      "ĠFjÃ¡r": 2884,
      "Ġmynda": 2885,
      "stofu": 2886,
      "ĠSÃ³l": 2887,
      "Ġtopp": 2888,
      "Ã½st": 2889,
      "rÃŃn": 2890,
      "ĠurÃ°u": 2891,
      "ĠfÃ¦ri": 2892,
      "ĠsÃŃÃ°": 2893,
      "lÃ¦k": 2894,
      "ĠMÃ¡r": 2895,
      "Ġkonar": 2896,
      "chester": 2897,
      "15": 2898,
      "ViÃ°skipti": 2899,
      "Ġvettvang": 2900,
      "Ġbankans": 2901,
      "ĠjÃ¡kv": 2902,
      "ĠsamrÃ¦": 2903,
      "Ġa": 2904,
      "bjÃ¶rg": 2905,
      "Ġ2008": 2906,
      "ĠfarÃ¾": 2907,
      "fell": 2908,
      "brÃ¶gÃ°": 2909,
      "Ġuppi": 2910,
      "ĠjÃºlÃŃ": 2911,
      "arfÃ©lag": 2912,
      "akka": 2913,
      "ĠÃ¾urfti": 2914,
      "Ġel": 2915,
      "ddur": 2916,
      "ĠrÃ¦tt": 2917,
      "ĠkÃ¦r": 2918,
      "eym": 2919,
      "vegar": 2920,
      "ingi": 2921,
      "Ã¡ri": 2922,
      "laug": 2923,
      "ĠÃ¡stand": 2924,
      "ĠaÃ°ild": 2925,
      "liÃ°a": 2926,
      "Ġskyld": 2927,
      "trygg": 2928,
      "Ġbyggja": 2929,
      "Ã¾Ã¡": 2930,
      "enningar": 2931,
      "ĠHl": 2932,
      "ĠrÃŃki": 2933,
      "ĠdÃ¦mi": 2934,
      "ĠmilljÃ³n": 2935,
      "banka": 2936,
      "abr": 2937,
      "ork": 2938,
      "ĠÃŃt": 2939,
      "afna": 2940,
      "ĠKatrÃŃn": 2941,
      "ĠmilljarÃ°ar": 2942,
      "18": 2943,
      "ĠaÃ°gerÃ°ir": 2944,
      "ĠsÃ¦kja": 2945,
      "bÃ³l": 2946,
      "ĠgÃ¦rkvÃ¶ldi": 2947,
      "ĠHÃ¦gt": 2948,
      "ĠhÃ©lt": 2949,
      "Ġbil": 2950,
      "ĠskrÃ¡": 2951,
      "mun": 2952,
      "pool": 2953,
      "slunni": 2954,
      "Ã°urinn": 2955,
      "ÃļV": 2956,
      "Ġvona": 2957,
      "Ġbolt": 2958,
      "ĠmÃ¡naÃ°": 2959,
      "Ġhlaup": 2960,
      "jaÃ°": 2961,
      "gir": 2962,
      "Ġbera": 2963,
      "efniÃ°": 2964,
      "ĠstÃ¶rfum": 2965,
      "stÃ³l": 2966,
      "Ġ26": 2967,
      "ĠManchester": 2968,
      "Ġfasteig": 2969,
      "Ġvarnar": 2970,
      "gjaf": 2971,
      "ĠsjÃ¡varÃºtveg": 2972,
      "Ġhverjum": 2973,
      "hÃ¦": 2974,
      "Ġsamkomulag": 2975,
      "Ġsunnu": 2976,
      "Ġhn": 2977,
      "Ġtilkynnt": 2978,
      "smÃ¶nnum": 2979,
      "ĠÃ³g": 2980,
      "ĠKÃ³p": 2981,
      "Ġheit": 2982,
      "aug": 2983,
      "ĠfriÃ°": 2984,
      "Ġ28": 2985,
      "ris": 2986,
      "BV": 2987,
      "ĠRÃļV": 2988,
      "ĠÃŀÃ½skal": 2989,
      "andair": 2990,
      "Ġstyr": 2991,
      "Ġeinungis": 2992,
      "Ġhagsm": 2993,
      "ĠtilbÃº": 2994,
      "ĠvinsÃ¦": 2995,
      "ich": 2996,
      "ĠhÃ¦r": 2997,
      "Ġsvok": 2998,
      "ĠsÃŃnar": 2999,
      "ĠfÃ¡i": 3000,
      "Ġstarfi": 3001,
      "vinnu": 3002,
      "ĠatvinnulÃŃf": 3003,
      "Ġdrei": 3004,
      "ba": 3005,
      "Ġjafnt": 3006,
      "strar": 3007,
      "ningunni": 3008,
      "Ġveitt": 3009,
      "ĠstÃºl": 3010,
      "Ġlengur": 3011,
      "orn": 3012,
      "ĠbÃºinn": 3013,
      "ĠÃ¾riÃ°ju": 3014,
      "ĠhlÃ½": 3015,
      "Ġvikur": 3016,
      "verpool": 3017,
      "Ġlof": 3018,
      "ĠbarÃ¡tt": 3019,
      "ĠfÃŃk": 3020,
      "ingast": 3021,
      "ĠlandiÃ°": 3022,
      "fyrirtÃ¦k": 3023,
      "ĠHelga": 3024,
      "ĠolÃŃu": 3025,
      "angaÃ°": 3026,
      "ĠÃįBV": 3027,
      "ĠsÃ¦t": 3028,
      "skil": 3029,
      "ĠIcelandair": 3030,
      "afyrirtÃ¦k": 3031,
      "ĠlÃ©t": 3032,
      "ĠÃįslendinga": 3033,
      "ĠnÃ½ta": 3034,
      "Ġhin": 3035,
      "Ġgaf": 3036,
      "ĠbÃŃla": 3037,
      "ĠSh": 3038,
      "nti": 3039,
      "ĠmÃ¡lum": 3040,
      "sÃ¾": 3041,
      "Ġuppbygg": 3042,
      "ĠmÃ¦tti": 3043,
      "ĠfÃ©laginu": 3044,
      "âĢĿ": 3045,
      "saÃ°": 3046,
      "degis": 3047,
      "ĠhÃ©": 3048,
      "ĠfrÃ¡kÃ¶st": 3049,
      "umÃ¡l": 3050,
      "Ã¶ku": 3051,
      "ĠVar": 3052,
      "msveit": 3053,
      "ĠfÃ¦kk": 3054,
      "ĠhÃ³fst": 3055,
      "Ġhvert": 3056,
      "Ã¦kt": 3057,
      "yll": 3058,
      "ĠLiverpool": 3059,
      "Ġmiklum": 3060,
      "ĠmÃ¦l": 3061,
      "ningin": 3062,
      "ĠHeil": 3063,
      "ĠLe": 3064,
      "ĠviÃ°bÃ³t": 3065,
      "Ã¡fu": 3066,
      "Ġmetra": 3067,
      "Ġsmit": 3068,
      "ĠÃģg": 3069,
      "Ġgrund": 3070,
      "lÃŃtiÃ°": 3071,
      "eiÃ°ur": 3072,
      "SÃį": 3073,
      "Ġundanfarin": 3074,
      "ĠBreiÃ°": 3075,
      "ĠGunn": 3076,
      "ĠrÃŃkiÃ°": 3077,
      "Ġskipt": 3078,
      "stÃ¶Ã°var": 3079,
      "ĠÃ¾ingmaÃ°ur": 3080,
      "ingunni": 3081,
      "Ġbreyta": 3082,
      "fjÃ¡r": 3083,
      "ĠStein": 3084,
      "Ġhelm": 3085,
      "ĠKÃ³pav": 3086,
      "ĠsjÃ³Ã°": 3087,
      "ĠVinstri": 3088,
      "ĠSl": 3089,
      "rak": 3090,
      "Ġkynnt": 3091,
      "ĠlokiÃ°": 3092,
      "eta": 3093,
      "ĠliÃ°i": 3094,
      "nda": 3095,
      "raum": 3096,
      "ĠHoll": 3097,
      "ĠÃ¾ung": 3098,
      "erfinu": 3099,
      "ĠembÃ¦tt": 3100,
      "ĠaÃ°stoÃ°": 3101,
      "to": 3102,
      "kjÃ¶r": 3103,
      "ĠsagÃ°ist": 3104,
      "ilar": 3105,
      "Ġbreytt": 3106,
      "ĠVestur": 3107,
      "ĠstjÃ³rnvalda": 3108,
      "jir": 3109,
      "skap": 3110,
      "ĠFinn": 3111,
      "ĠGunnarsson": 3112,
      "ĠÃĸrn": 3113,
      "esi": 3114,
      "ĠalgjÃ¶r": 3115,
      "Ġgagnvart": 3116,
      "ĠHÃ¦st": 3117,
      "Ġvetur": 3118,
      "Ġdeildarinnar": 3119,
      "Ġhitt": 3120,
      "ĠÃĨ": 3121,
      "ĠHelgi": 3122,
      "Ġ=": 3123,
      "Ġeinum": 3124,
      "Ġhendur": 3125,
      "Ġveita": 3126,
      "Ġkeppni": 3127,
      "Ġflytja": 3128,
      "Ġskref": 3129,
      "ĠArn": 3130,
      "Ġdaginn": 3131,
      "ĠEig": 3132,
      "ĠHag": 3133,
      "Ġgaman": 3134,
      "ĠtjÃ¡": 3135,
      "ĠsnjÃ³": 3136,
      "ĠnÃ©": 3137,
      "ĠÃ¡hyggjur": 3138,
      "Ġvegum": 3139,
      "ĠgÃ¦tu": 3140,
      "ĠljÃ³si": 3141,
      "ĠumrÃ¦Ã°u": 3142,
      "ĠRÃŃkis": 3143,
      "riÃ°i": 3144,
      "ĠnÃ¡nast": 3145,
      "ĠÃģsgeir": 3146,
      "Ġkosning": 3147,
      "ĠkveÃ°": 3148,
      "Ġafh": 3149,
      "ras": 3150,
      "ĠauglÃ½s": 3151,
      "ĠLÃ¶greglan": 3152,
      "Ġfrekari": 3153,
      "ĠsÃ¶ng": 3154,
      "ĠÃ¡herslu": 3155,
      "Ġbaka": 3156,
      "Ġgild": 3157,
      "hf": 3158,
      "__": 3159,
      "ĠtÃ³nlistar": 3160,
      "ĠsjÃ¡lfur": 3161,
      "Ġframl": 3162,
      "agreiÃ°": 3163,
      "ĠfrÃ©ttastofu": 3164,
      "endi": 3165,
      "Ã¶kkviliÃ°": 3166,
      "Ġhest": 3167,
      "Ġ2016": 3168,
      "bÃ¦jar": 3169,
      "jÃ¡lft": 3170,
      "ĠslÃŃkt": 3171,
      "Ġhinn": 3172,
      "ViÃ°horf": 3173,
      "Ġensku": 3174,
      "Ġorku": 3175,
      "ĠVerk": 3176,
      "ĠdagskrÃ¡": 3177,
      "bÃŃ": 3178,
      "Ġbo": 3179,
      "ĠSjÃ¡lfstÃ¦Ã°isflokksins": 3180,
      "ĠFH": 3181,
      "Ġbirt": 3182,
      "ĠÃ¾Ã©r": 3183,
      "lik": 3184,
      "oft": 3185,
      "Ġbreg": 3186,
      "Ġflokksins": 3187,
      "ĠpÃ³lit": 3188,
      "ĠhvÃŃ": 3189,
      "ĠfjÃ¡rhag": 3190,
      "Ġfimmtu": 3191,
      "ĠsÃŃÃ°ur": 3192,
      "srÃ¡Ã°": 3193,
      "Ġhrein": 3194,
      "hÃ¶f": 3195,
      "agi": 3196,
      "Ġhuga": 3197,
      "jarnan": 3198,
      "ĠÃ¾angaÃ°": 3199,
      "skÃ½r": 3200,
      "Ġhvers": 3201,
      "ningur": 3202,
      "Ġstigum": 3203,
      "ĠÃŀing": 3204,
      "ĠaÃ°stoÃ°ar": 3205,
      "ĠrÃ¡Ã°st": 3206,
      "janna": 3207,
      "til": 3208,
      "ĠGyl": 3209,
      "ĠJa": 3210,
      "ĠFramsÃ³knarflokk": 3211,
      "ĠES": 3212,
      "Ġkomist": 3213,
      "ĠtvÃŃ": 3214,
      "ĠHvaÃ°": 3215,
      "ĠmaÃ°urinn": 3216,
      "Ġnam": 3217,
      "olf": 3218,
      "ĠMynd": 3219,
      "ĠAri": 3220,
      "ĠvarÃ°andi": 3221,
      "ĠlÃ½st": 3222,
      "smynd": 3223,
      "ĠskÃ¶mm": 3224,
      "ĠmÃ¡nuÃ°um": 3225,
      "Ġselja": 3226,
      "Ãģ": 3227,
      "),": 3228,
      "ĠlÃŃfi": 3229,
      "ĠveÃ°": 3230,
      "ĠlÃŃkt": 3231,
      "he": 3232,
      "rip": 3233,
      "ĠÃ¾or": 3234,
      "staÃ°a": 3235,
      "oti": 3236,
      "Ġgreina": 3237,
      "Ġtals": 3238,
      "Ġhorfa": 3239,
      "Ġlyk": 3240,
      "Ġvikunni": 3241,
      "hÃ¶fn": 3242,
      "Ġtaki": 3243,
      "ugu": 3244,
      "Ġsamh": 3245,
      "ĠÃ³s": 3246,
      "ings": 3247,
      "bor": 3248,
      "ĠÃ¡rangur": 3249,
      "Ġeldri": 3250,
      "kvÃŃ": 3251,
      "lin": 3252,
      "ĠÃ¾essara": 3253,
      "stÃ¶Ã°um": 3254,
      "Ã©lar": 3255,
      "ĠmÃŃnÃºt": 3256,
      "ĠCity": 3257,
      "ĠfÃŃkni": 3258,
      "orku": 3259,
      "sir": 3260,
      "ĠÃ³trÃº": 3261,
      "Ġmerk": 3262,
      "ĠbeÃ°": 3263,
      "Ġsinnum": 3264,
      "ĠtÃŃmabili": 3265,
      "25": 3266,
      "Ġhlutverk": 3267,
      "jall": 3268,
      "skra": 3269,
      "lÃ¶gum": 3270,
      "ĠVig": 3271,
      "ĠlÃ©k": 3272,
      "ĠviÃ°tali": 3273,
      "gjÃ¶f": 3274,
      "ĠkynferÃ°i": 3275,
      "Ġneitt": 3276,
      "ĠAuk": 3277,
      "ĠtÃ³lf": 3278,
      "Ã¦tur": 3279,
      "slunnar": 3280,
      "ĠKristÃŃn": 3281,
      "inguna": 3282,
      "ĠÃ¾Ã¶rf": 3283,
      "ĠMargrÃ©": 3284,
      "ĠtÃŃ": 3285,
      "ĠframtÃŃÃ°ar": 3286,
      "ĠhÃ¦kkaÃ°": 3287,
      "ĠTrygg": 3288,
      "Ġ2010": 3289,
      "ĠKon": 3290,
      "ĠboÃ°iÃ°": 3291,
      "ĠnÃºverandi": 3292,
      "ĠhÃ¦tt": 3293,
      "bar": 3294,
      "ĠstyÃ°": 3295,
      "Ġeigu": 3296,
      "iti": 3297,
      "Ġreyndar": 3298,
      "ldu": 3299,
      "Ġ35": 3300,
      "Ġlos": 3301,
      "ĠÃŃslenskum": 3302,
      "ĠÃĵlafsson": 3303,
      "jÃ¶rÃ°": 3304,
      "liti": 3305,
      "ĠslÃ¦m": 3306,
      "ĠhÃ³tel": 3307,
      "ĠMenn": 3308,
      "Ġverulega": 3309,
      "heyr": 3310,
      "ĠLit": 3311,
      "Ġborginni": 3312,
      "Ġgengi": 3313,
      "viku": 3314,
      "ĠÃ¡ttu": 3315,
      "ĠpersÃ³nu": 3316,
      "Ġfremst": 3317,
      "ĠHÃºs": 3318,
      "ress": 3319,
      "Ġsty": 3320,
      "Ġannan": 3321,
      "Ã¶llu": 3322,
      "anga": 3323,
      "asem": 3324,
      "ndu": 3325,
      "man": 3326,
      "Ã¾jÃ³Ã°a": 3327,
      "kost": 3328,
      "Ġgerist": 3329,
      "ĠgrÃ¦n": 3330,
      "Ġkynna": 3331,
      "ĠstaÃ°an": 3332,
      "Ġreynslu": 3333,
      "ĠgÃ¶m": 3334,
      "ond": 3335,
      "eysi": 3336,
      "ĠÃŀÃ¦r": 3337,
      "Ġsigri": 3338,
      "Ġ2009": 3339,
      "afÃ³lk": 3340,
      "ĠBryn": 3341,
      "Ã³li": 3342,
      "Ã¡nar": 3343,
      "ĠÃ³vart": 3344,
      "jÃ³Ã°s": 3345,
      "hildur": 3346,
      "Ġsenda": 3347,
      "bÃ¦tti": 3348,
      "Ġkenn": 3349,
      "ĠÃ¾iÃ°": 3350,
      "Ġuppli": 3351,
      "Ã½ri": 3352,
      "Ġspreng": 3353,
      "ĠHÃ¡skÃ³la": 3354,
      "Ġforset": 3355,
      "Ġdeildinni": 3356,
      "eira": 3357,
      "staÃ°": 3358,
      "ĠnÃ½jum": 3359,
      "ĠfÃ¶r": 3360,
      "Ġhelgi": 3361,
      "uneytiÃ°": 3362,
      "ĠfjÃ³rÃ°a": 3363,
      "skir": 3364,
      "Ã¶gg": 3365,
      "bandi": 3366,
      "ssam": 3367,
      "Ġehf": 3368,
      "Ġdug": 3369,
      "ĠHall": 3370,
      "tÃ¶kin": 3371,
      "Ġfag": 3372,
      "arÃ©tt": 3373,
      "Ġ2015": 3374,
      "Ġfylgjast": 3375,
      "Ġvilji": 3376,
      "ulltrÃºi": 3377,
      ").": 3378,
      "Ã¶gunum": 3379,
      "Ġmargt": 3380,
      "Ġtonn": 3381,
      "Ġlista": 3382,
      "mundur": 3383,
      "Ġmestu": 3384,
      "ager": 3385,
      "bÃŃl": 3386,
      "degi": 3387,
      "gan": 3388,
      "ĠBÃº": 3389,
      "ĠhjÃºk": 3390,
      "Ġviljum": 3391,
      "ĠMÃ©r": 3392,
      "Ġsamein": 3393,
      "ĠÃįslandsm": 3394,
      "Ġgreidd": 3395,
      "ĠkrÃ¶fu": 3396,
      "ĠÃ¡ramÃ³t": 3397,
      "ĠStarf": 3398,
      "ĠReykjan": 3399,
      "ĠÃ¶ryggis": 3400,
      "Ġhrey": 3401,
      "Ã³nlist": 3402,
      "ĠKÃŃna": 3403,
      "jÃ¶f": 3404,
      "kkur": 3405,
      "dÃ¦mi": 3406,
      "ĠVÃŃk": 3407,
      "arsam": 3408,
      "ĠvÃ©l": 3409,
      "ĠMeÃ°al": 3410,
      "smann": 3411,
      "Ġlokum": 3412,
      "ĠtÃ³nleik": 3413,
      "umark": 3414,
      "vit": 3415,
      "Ġ2017": 3416,
      "Ġstefnu": 3417,
      "Ġhygg": 3418,
      "ĠSteing": 3419,
      "gaÃ°": 3420,
      "ĠYfir": 3421,
      "rau": 3422,
      "Ã³rÃ³": 3423,
      "ĠjÃ³l": 3424,
      "Ġlauk": 3425,
      "lÃ½st": 3426,
      "Ã¦Ã°u": 3427,
      "gast": 3428,
      "old": 3429,
      "ĠreiÃ°": 3430,
      "manns": 3431,
      "ĠBÃ¦jar": 3432,
      "ĠskrÃ¡Ã°": 3433,
      "Ġstutt": 3434,
      "arsdÃ³ttir": 3435,
      "ĠfÃ¶studag": 3436,
      "ĠafleiÃ°": 3437,
      "28": 3438,
      "ĠljÃº": 3439,
      "Ġ29": 3440,
      "Ġell": 3441,
      "ĠnÃ¡gr": 3442,
      "ikar": 3443,
      "Ġtald": 3444,
      "skeiÃ°": 3445,
      "breytt": 3446,
      "Ġspyr": 3447,
      "ĠÃ¾ingmenn": 3448,
      "ĠRÃºnar": 3449,
      "Ġhorf": 3450,
      "ĠfjÃ¡rmagn": 3451,
      "ĠlÃ©tt": 3452,
      "Ġref": 3453,
      "ĠJak": 3454,
      "ĠsÃ½nt": 3455,
      "Ġleiksins": 3456,
      "ĠbÃŃÃ°a": 3457,
      "einuÃ°u": 3458,
      "ĠumfjÃ¶l": 3459,
      "ĠfjallaÃ°": 3460,
      "ĠAlls": 3461,
      "ĠlÃ¡g": 3462,
      "ĠÃ¾yk": 3463,
      "ÃŃg": 3464,
      "ttast": 3465,
      "Ġhvar": 3466,
      "sviÃ°": 3467,
      "Ġ2014": 3468,
      "Ġhrun": 3469,
      "Ġtilefni": 3470,
      "virkj": 3471,
      "magn": 3472,
      "Ġhelstu": 3473,
      "ĠSteingrÃŃm": 3474,
      "ĠFrÃ¡": 3475,
      "ĠhundruÃ°": 3476,
      "sar": 3477,
      "ĠÃ¡kvaÃ°": 3478,
      "Ġeinhvern": 3479,
      "kaup": 3480,
      "Ġskila": 3481,
      "ĠnÃ¦g": 3482,
      "efnu": 3483,
      "ĠspÃ¡": 3484,
      "Ġkalla": 3485,
      "ĠFriÃ°rik": 3486,
      "ĠriÃ°": 3487,
      "Ġdegi": 3488,
      "upp": 3489,
      "skor": 3490,
      "yss": 3491,
      "reik": 3492,
      "braut": 3493,
      "ĠlÃ¡tiÃ°": 3494,
      "Ġliggja": 3495,
      "dur": 3496,
      "laga": 3497,
      "ĠKol": 3498,
      "pu": 3499,
      "Ġ60": 3500,
      "afirÃ°i": 3501,
      "Ġhra": 3502,
      "afni": 3503,
      "Ġreglu": 3504,
      "ĠbÃ¶r": 3505,
      "pi": 3506,
      "ĠVeÃ°ur": 3507,
      "eint": 3508,
      "ddu": 3509,
      "ez": 3510,
      "Ġatvinnu": 3511,
      "bands": 3512,
      "eldur": 3513,
      "ĠSe": 3514,
      "Ġsent": 3515,
      "ĠaÃ°ila": 3516,
      "ĠViÃ°skipta": 3517,
      "ekt": 3518,
      "uÃ°v": 3519,
      "ĠMa": 3520,
      "rÃ³f": 3521,
      "Ġflutning": 3522,
      "ro": 3523,
      "Ġflutt": 3524,
      "ĠVilhjÃ¡l": 3525,
      "ĠsÃŃst": 3526,
      "ĠÃģgÃºst": 3527,
      "Ã¦n": 3528,
      "uneytisins": 3529,
      "borgar": 3530,
      "ĠDanmÃ¶r": 3531,
      "ĠyfirlÃ½singu": 3532,
      "ĠleiÃ°ir": 3533,
      "gerÃ°": 3534,
      "ĠFrÃ©ttablaÃ°iÃ°": 3535,
      "ĠHÃ¶r": 3536,
      "ĠHM": 3537,
      "Ġrekstri": 3538,
      "ĠgrÃŃÃ°arlega": 3539,
      "ifreiÃ°": 3540,
      "ĠaÃ°rar": 3541,
      "eigin": 3542,
      "Ġmyndir": 3543,
      "ĠnorÃ°ur": 3544,
      "ĠmÃ¡la": 3545,
      "manni": 3546,
      "ĠmÃ¶guleika": 3547,
      "ons": 3548,
      "ĠFÃ³lk": 3549,
      "Ã³Ã°ir": 3550,
      "Ã¡ttar": 3551,
      "ĠÃ¶kum": 3552,
      "Ġmar": 3553,
      "hÃºsinu": 3554,
      "Ã¶llum": 3555,
      "ĠmÃ¡naÃ°a": 3556,
      "ĠSÃ½": 3557,
      "ĠÃ¾ykir": 3558,
      "Ġ2012": 3559,
      "Ġbann": 3560,
      "ĠÃ¾jÃ¡lfari": 3561,
      "tÃ¶l": 3562,
      "ĠkjÃ¶lfariÃ°": 3563,
      "Ġstarfsmanna": 3564,
      "Ġeinfaldlega": 3565,
      "ĠMagnÃºsson": 3566,
      "uttugu": 3567,
      "ĠKaupÃ¾ing": 3568,
      "Ġhelst": 3569,
      "ĠverÃ°bÃ³l": 3570,
      "ĠÃŃtrek": 3571,
      "ama": 3572,
      "Ġmegin": 3573,
      "ĠSameinuÃ°u": 3574,
      "Ġengu": 3575,
      "ĠvitaÃ°": 3576,
      "ĠAnna": 3577,
      "anska": 3578,
      "ĠMad": 3579,
      "rinum": 3580,
      "Ġeigum": 3581,
      "ileik": 3582,
      "Ġ2011": 3583,
      "gunarsv": 3584,
      "Ġreynt": 3585,
      "ĠFer": 3586,
      "herr": 3587,
      "gÃ¶ngu": 3588,
      "FÃ³tbolti": 3589,
      "irkju": 3590,
      "ĠsvolÃŃtiÃ°": 3591,
      "ĠrÃ³": 3592,
      "Ã¡Ã¦tlun": 3593,
      "Ġyng": 3594,
      "ĠJakob": 3595,
      "Ġ2013": 3596,
      "Ġmyndu": 3597,
      "ĠsvÃ¶r": 3598,
      "ĠÃ¾Ã½Ã°ir": 3599,
      "Ġstundum": 3600,
      "Ġkref": 3601,
      "Ġham": 3602,
      "ĠvarÃ°ar": 3603,
      "ĠlÃ½Ã°": 3604,
      "ĠJohn": 3605,
      "ĠatkvÃ¦Ã°i": 3606,
      "Ġerlendis": 3607,
      "pur": 3608,
      "Ġrekstur": 3609,
      "Ġvek": 3610,
      "Ġgefur": 3611,
      "Ã½Ã°": 3612,
      "ĠFlug": 3613,
      "ĠhiÃ°": 3614,
      "ĠFre": 3615,
      "Ġ2018": 3616,
      "ĠÃ¡rin": 3617,
      "Ġalmennt": 3618,
      "Ġleigu": 3619,
      "Ġbe": 3620,
      "slegt": 3621,
      "elsea": 3622,
      "ĠverÃ°um": 3623,
      "ĠÃŃbÃºa": 3624,
      "Ġskipta": 3625,
      "nina": 3626,
      "ĠÃ³Ã¾": 3627,
      "gre": 3628,
      "ĠlÃ¶greglunnar": 3629,
      "Ġunnu": 3630,
      "Ġmiklar": 3631,
      "era": 3632,
      "bend": 3633,
      "rett": 3634,
      "ĠgerÃ°u": 3635,
      "ĠHÃ©raÃ°sdÃ³m": 3636,
      "skot": 3637,
      "Ġhugsa": 3638,
      "ĠÃ¶flug": 3639,
      "ĠSÃº": 3640,
      "Ãºtvarp": 3641,
      "Ã³ttur": 3642,
      "Ġtrey": 3643,
      "ĠÃŃÃ¾rÃ³tt": 3644,
      "bÃ½": 3645,
      "Ġaukist": 3646,
      "Ã¾jÃ³": 3647,
      "exti": 3648,
      "ĠTal": 3649,
      "junum": 3650,
      "ĠNorÃ°": 3651,
      "mitt": 3652,
      "ĠvandamÃ¡l": 3653,
      "Ġhinum": 3654,
      "Ġgreindi": 3655,
      "ĠsÃ©rfrÃ¦Ã°": 3656,
      "sett": 3657,
      "Ġvop": 3658,
      "Ġlaga": 3659,
      "bÃ³k": 3660,
      "Ġyr": 3661,
      "Ġfangelsi": 3662,
      "ĠleiÃ°a": 3663,
      "Ġstiga": 3664,
      "Ġmarka": 3665,
      "Ġw": 3666,
      "Ġheimas": 3667,
      "ĠfÃ©ll": 3668,
      "Ġ2007": 3669,
      "Ġopna": 3670,
      "ĠGrÃŃm": 3671,
      "ĠEm": 3672,
      "Ġmist": 3673,
      "vÃ¶ru": 3674,
      "ĠhÃ¶ndum": 3675,
      "ĠhÃ¦kka": 3676,
      "Ġsveitar": 3677,
      "rid": 3678,
      "ĠHug": 3679,
      "ĠlÃ¶greglan": 3680,
      "eyris": 3681,
      "Ġpr": 3682,
      "svar": 3683,
      "linga": 3684,
      "Ġellef": 3685,
      "vid": 3686,
      "hol": 3687,
      "Ã©Ã°": 3688,
      "ĠOl": 3689,
      "Ã©fa": 3690,
      "ĠmilljÃ³na": 3691,
      "ĠChelsea": 3692,
      "Ġhagn": 3693,
      "ĠMorgun": 3694,
      "ĠlÃŃfeyriss": 3695,
      "ĠBretlandi": 3696,
      "âĢľ.": 3697,
      "ĠkÃŃlÃ³m": 3698,
      "ĠmeiÃ°": 3699,
      "alan": 3700,
      "ĠhÃ¶nd": 3701,
      "Ġak": 3702,
      "ĠAkureyrar": 3703,
      "jÃ³rÃ°ung": 3704,
      "Ã¦Ã°agreiÃ°": 3705,
      "Ġmunum": 3706,
      "anleg": 3707,
      "ĠfjÃ¶ldi": 3708,
      "ĠGu": 3709,
      "ĠnÃ½rri": 3710,
      "form": 3711,
      "Ġskiptir": 3712,
      "Ġhlutfall": 3713,
      "ĠdÃ¶gunum": 3714,
      "21": 3715,
      "ĠESB": 3716,
      "ĠSÃ¡": 3717,
      "ĠÃįsra": 3718,
      "ĠYork": 3719,
      "Ãºrslit": 3720,
      "ĠfrÃŃ": 3721,
      "Ġlandam": 3722,
      "ĠÃļr": 3723,
      "nist": 3724,
      "Ġskuli": 3725,
      "Ġrekstrar": 3726,
      "ĠrÃ¡Ã°a": 3727,
      "auÃ°a": 3728,
      "ĠjÃ³la": 3729,
      "ĠkÃ³rÃ³": 3730,
      "ĠfjÃ¶lskyldu": 3731,
      "ĠfÃ¦ra": 3732,
      "ĠlÃ¶gÃ°": 3733,
      "Ġtengslum": 3734,
      "Ġtr": 3735,
      "ĠgrÃŃ": 3736,
      "Ġflestir": 3737,
      "ĠhundraÃ°": 3738,
      "ĠhÃ¡tÃŃÃ°": 3739,
      "Ġbyrja": 3740,
      "skrift": 3741,
      "ph": 3742,
      "Ġnotkun": 3743,
      "ĠklÃ¡r": 3744,
      "ĠframboÃ°": 3745,
      "ĠSigrÃŃÃ°ur": 3746,
      "199": 3747,
      "onald": 3748,
      "Ġmikinn": 3749,
      "Ã¾jÃ³nust": 3750,
      "ĠNoregi": 3751,
      "ĠMargrÃ©t": 3752,
      "ista": 3753,
      "ĠsamrÃ¦mi": 3754,
      "ĠÃ¶ld": 3755,
      "eldis": 3756,
      "Ġkall": 3757,
      "atta": 3758,
      "lunar": 3759,
      "ĠupplÃ½sing": 3760,
      "hÃ¦kk": 3761,
      "skÃ¶p": 3762,
      "Ġeignar": 3763,
      "ĠgÃ³Ã°u": 3764,
      "gunarsveit": 3765,
      "Ġgat": 3766,
      "lir": 3767,
      "io": 3768,
      "emma": 3769,
      "Ġsameigin": 3770,
      "rÃ³Ã°ur": 3771,
      "hluti": 3772,
      "Ã¡t": 3773,
      "ÃŃnver": 3774,
      "ĠlÃŃtil": 3775,
      "gjandi": 3776,
      "gis": 3777,
      "Ġnein": 3778,
      "ĠstjÃ³rnarskrÃ¡": 3779,
      "lt": 3780,
      "ĠsÃŃÃ°ari": 3781,
      "Ã¶gu": 3782,
      "byggÃ°": 3783,
      "sleik": 3784,
      "Ġhaldi": 3785,
      "Ġfylgi": 3786,
      "ĠhÃ¦kkun": 3787,
      "nefndar": 3788,
      "ĠbÃ¦tir": 3789,
      "ĠHins": 3790,
      "BC": 3791,
      "sÃŃÃ°u": 3792,
      "Ġmanni": 3793,
      "deildarinnar": 3794,
      "ĠframkvÃ¦mdast": 3795,
      "hÃ¶ll": 3796,
      "greiÃ°slu": 3797,
      "Ġsamstarfi": 3798,
      "Ġfory": 3799,
      "tÃ¶kum": 3800,
      "Ġ198": 3801,
      "ĠnÃ¦rri": 3802,
      "ĠkÃ¶nnun": 3803,
      "ĠframleiÃ°slu": 3804,
      "ood": 3805,
      "bert": 3806,
      "ĠVestmannaeyjum": 3807,
      "maÃ°urinn": 3808,
      "sag": 3809,
      "ĠSÃŃ": 3810,
      "Ã¶nnu": 3811,
      "ĠrÃ¶k": 3812,
      "skuld": 3813,
      "ĠLaugar": 3814,
      "alÃ¦k": 3815,
      "Ġkennar": 3816,
      "Ġeinstaklinga": 3817,
      "ĠSigurÃ°ardÃ³ttir": 3818,
      "ĠGuÃ°rÃºn": 3819,
      "ĠGl": 3820,
      "ĠstoÃ°": 3821,
      "ĠÃ¾rÃŃr": 3822,
      "eri": 3823,
      "Ġlaugardag": 3824,
      "ĠhefÃ°": 3825,
      "Ġhlaut": 3826,
      "enta": 3827,
      "afram": 3828,
      "ĠgreiÃ°slu": 3829,
      "jun": 3830,
      "ĠnÃ¡lgast": 3831,
      "ĠstÃ¦rsta": 3832,
      "kl": 3833,
      "Ã¦mi": 3834,
      "Ġbestu": 3835,
      "Ġmarki": 3836,
      "ĠrÃ½": 3837,
      "Ġeinmitt": 3838,
      "ĠRÃ¡Ã°": 3839,
      "ĠÃºrvalsdeildinni": 3840,
      "ĠembÃ¦tti": 3841,
      "Ġdoll": 3842,
      "ash": 3843,
      "ĠSamfylkingarinnar": 3844,
      "ĠaÃ°gang": 3845,
      "ĠnÃ½jan": 3846,
      "Ġneit": 3847,
      "ĠMaÃ°urinn": 3848,
      "bÃºÃ°": 3849,
      "andinn": 3850,
      "ĠorÃ°in": 3851,
      "ĠValur": 3852,
      "ĠfjÃ¶lmiÃ°la": 3853,
      "ĠlÃŃfiÃ°": 3854,
      "ĠyrÃ°u": 3855,
      "agerÃ°": 3856,
      "ĠFj": 3857,
      "yÃ°ju": 3858,
      "ĠsÃŃm": 3859,
      "eypt": 3860,
      "Ã¶ngum": 3861,
      "Ġheimsm": 3862,
      "ĠhÃ¦g": 3863,
      "verki": 3864,
      "ĠSch": 3865,
      "ĠgeÃ°": 3866,
      "Ġful": 3867,
      "Ġheiminum": 3868,
      "virk": 3869,
      "enÃ¦r": 3870,
      "ĠÃįtal": 3871,
      "varÃ°": 3872,
      "Ġfullyr": 3873,
      "Ġkeyp": 3874,
      "ĠskoÃ°un": 3875,
      "ĠÃ³viss": 3876,
      "ĠsÃ³ttkvÃŃ": 3877,
      "esk": 3878,
      "Ã¡ttur": 3879,
      "ĠAllt": 3880,
      "ĠbregÃ°ast": 3881,
      "Ġmeirihluta": 3882,
      "Ġtuttugu": 3883,
      "ĠgÃ¦rkvÃ¶ld": 3884,
      "ĠÃ¦tlaÃ°": 3885,
      "ĠsviÃ°i": 3886,
      "versl": 3887,
      "ĠliÃ°in": 3888,
      "ĠDanmÃ¶rku": 3889,
      "Ġstu": 3890,
      "ĠhjÃ³": 3891,
      "ĠMat": 3892,
      "Ġraunver": 3893,
      "ĠSkip": 3894,
      "ĠÃ¡lag": 3895,
      "Ġofbeldi": 3896,
      "gef": 3897,
      "Ġgreind": 3898,
      "ĠHrafn": 3899,
      "Ġsitja": 3900,
      "shÃ³p": 3901,
      "Ġleyfi": 3902,
      "oup": 3903,
      "uneytinu": 3904,
      "ĠbÃ¦num": 3905,
      "ingurinn": 3906,
      "Ãºssins": 3907,
      "ĠBo": 3908,
      "Ġ36": 3909,
      "Ġlauna": 3910,
      "ĠbÃ¶rnum": 3911,
      "sÃ¶k": 3912,
      "lingar": 3913,
      "Ġtug": 3914,
      "Ġlesa": 3915,
      "ĠrÃŃf": 3916,
      "ĠsekÃº": 3917,
      "ĠÃºtsend": 3918,
      "ĠSkÃº": 3919,
      "ĠEir": 3920,
      "Ġeinhverjum": 3921,
      "Ġgreint": 3922,
      "vir": 3923,
      "ĠrÃŃkisstjÃ³rnarinnar": 3924,
      "ym": 3925,
      "ĠÃ¾rjÃ¡r": 3926,
      "ys": 3927,
      "Ġhefja": 3928,
      "Ġ31": 3929,
      "ĠsÃ³ttvar": 3930,
      "ĠÃ¡Ã¦tlun": 3931,
      "ian": 3932,
      "sÃ¶gn": 3933,
      "Ġnef": 3934,
      "Ġstandi": 3935,
      "eistari": 3936,
      "ĠÃ¡rangri": 3937,
      "ĠstrÃ¡": 3938,
      "ĠMatt": 3939,
      "ĠtÃ³kst": 3940,
      "liÃ°i": 3941,
      "ĠSvÃŃÃ¾jÃ³Ã°": 3942,
      "ĠHeilbrigÃ°i": 3943,
      "Ġgeri": 3944,
      "ĠviÃ°tal": 3945,
      "ĠlokaÃ°": 3946,
      "ĠnÃ³g": 3947,
      "kka": 3948,
      "skiptum": 3949,
      "ĠmeÃ°ferÃ°": 3950,
      "etrar": 3951,
      "Ġdagsins": 3952,
      "Ġtit": 3953,
      "ĠgerÃ°ar": 3954,
      "ĠÃŀrÃ¡tt": 3955,
      "ĠstÃ¦rstu": 3956,
      "ĠmÃ¡tt": 3957,
      "ĠArsen": 3958,
      "ĠOrku": 3959,
      "ĠhlutabrÃ©f": 3960,
      "mÃ¦ti": 3961,
      "ĠmiÃ°viku": 3962,
      "lind": 3963,
      "ĠInd": 3964,
      "ĠUnd": 3965,
      "hÃ¡tÃŃÃ°": 3966,
      "ĠnÃ¡nar": 3967,
      "hv": 3968,
      "Ġklukkust": 3969,
      "geir": 3970,
      "reyf": 3971,
      "uld": 3972,
      "ĠVerÃ°": 3973,
      "ĠstaÃ°inn": 3974,
      "ĠLiÃ°": 3975,
      "ĠtÃ¦kni": 3976,
      "ĠSÃ¦": 3977,
      "ĠSelfossi": 3978,
      "ĠOdd": 3979,
      "ĠsÃŃÃ°astliÃ°inn": 3980,
      "ĠKl": 3981,
      "vist": 3982,
      "ĠStjÃ³rnmÃ¡l": 3983,
      "ĠfjÃ¶gurra": 3984,
      "Ġkosningar": 3985,
      "ella": 3986,
      "ĠfrjÃ¡l": 3987,
      "Ġhratt": 3988,
      "ĠsÃ³lar": 3989,
      "ĠspÃŃtal": 3990,
      "unarinnar": 3991,
      "ĠSÃ½r": 3992,
      "Ġstyrkja": 3993,
      "Ġheildar": 3994,
      "laÃ°i": 3995,
      "ĠJÃ³na": 3996,
      "pÃ³": 3997,
      "jÃ³Ã°i": 3998,
      "Ġforystu": 3999,
      "takanna": 4000,
      "ĠJÃ³nsdÃ³ttir": 4001,
      "skvÃ¶ld": 4002,
      "ĠmÃ¡nuÃ°": 4003,
      "Ġmismun": 4004,
      "Ġ[": 4005,
      "ĠMarÃŃa": 4006,
      "ĠbÃ¦tt": 4007,
      "oka": 4008,
      "fti": 4009,
      "Ġ70": 4010,
      "ĠharÃ°": 4011,
      "Ġreglur": 4012,
      "undum": 4013,
      "ĠkostnaÃ°": 4014,
      "veiÃ°": 4015,
      "ĠhljÃ³Ã°": 4016,
      "ĠstyÃ°ja": 4017,
      "ie": 4018,
      "vÃ¶x": 4019,
      "ĠÃ³lÃ¶g": 4020,
      "rabb": 4021,
      "ĠBlÃ¶nd": 4022,
      "Ġmenningar": 4023,
      "unk": 4024,
      "ĠPar": 4025,
      "Ġkeyr": 4026,
      "ĠGrinda": 4027,
      "framleiÃ°": 4028,
      "ĠlÃŃta": 4029,
      "Ġathugasem": 4030,
      "hÃ¦f": 4031,
      "ĠAlex": 4032,
      "Ġheilsu": 4033,
      "Ã¡ld": 4034,
      "ĠhljÃ³msveit": 4035,
      "Ġgamla": 4036,
      "lak": 4037,
      "ĠKeflavÃŃk": 4038,
      "Ġgerast": 4039,
      "ĠÃŃbÃºÃ°": 4040,
      "ĠÃ¾jÃ³Ã°anna": 4041,
      "ĠvÃŃÃ°": 4042,
      "esta": 4043,
      "ĠmÃ¶rkum": 4044,
      "Ġtekist": 4045,
      "Ġmitt": 4046,
      "Ġvikum": 4047,
      "one": 4048,
      "ĠviÃ°brÃ¶gÃ°": 4049,
      "spurn": 4050,
      "ĠJÃ³hanna": 4051,
      "ĠgjÃ¶r": 4052,
      "urÃ°": 4053,
      "tÃŃma": 4054,
      "ĠsÃ½nir": 4055,
      "Ġbrott": 4056,
      "11": 4057,
      "ĠmÃ¦tt": 4058,
      "ĠtÃ¶luvert": 4059,
      "bjar": 4060,
      "skar": 4061,
      "ĠslÃ¶kkviliÃ°": 4062,
      "Ġmennt": 4063,
      "vatn": 4064,
      "Ġmargar": 4065,
      "ĠEnn": 4066,
      "Ġtilfinn": 4067,
      "ĠbÃ½": 4068,
      "ĠsveitarfÃ©laga": 4069,
      "ĠfrÃ©ttum": 4070,
      "ho": 4071,
      "ĠÃ¾ig": 4072,
      "ĠbyrjaÃ°i": 4073,
      "arlega": 4074,
      "Ġvenju": 4075,
      "ĠLa": 4076,
      "ĠViÃ°skiptablaÃ°": 4077,
      "ĠKr": 4078,
      "Ġveir": 4079,
      "ĠDr": 4080,
      "ĠBjÃ¶rk": 4081,
      "Ã¡k": 4082,
      "Ġafl": 4083,
      "Ġtraust": 4084,
      "ĠAron": 4085,
      "ĠMikil": 4086,
      "Ġborgarinnar": 4087,
      "sÃ¦ti": 4088,
      "ĠhÃ¦kkaÃ°i": 4089,
      "ĠdregiÃ°": 4090,
      "Ġhjar": 4091,
      "Ġlax": 4092,
      "eys": 4093,
      "du": 4094,
      "Ã³re": 4095,
      "Ġtakmark": 4096,
      "ĠGlit": 4097,
      "Ġtekjur": 4098,
      "skon": 4099,
      "Ġumhverfi": 4100,
      "ĠBorgar": 4101,
      "ĠHa": 4102,
      "ĠnorÃ°an": 4103,
      "Ġleidd": 4104,
      "Ġleggur": 4105,
      "ĠSÃ©r": 4106,
      "ĠskÃ¶mmu": 4107,
      "ĠHÃ³l": 4108,
      "Ġleika": 4109,
      "ĠflÃ³tt": 4110,
      "mÃ¶rk": 4111,
      "ĠfjÃ¡rmÃ¡larÃ¡Ã°herra": 4112,
      "sÃ³kn": 4113,
      "ĠmiÃ°ur": 4114,
      "vernd": 4115,
      "ĠstÃ³ra": 4116,
      "ĠtÃ¶lvu": 4117,
      "afa": 4118,
      "ĠÃ¾Ã¦tt": 4119,
      "fang": 4120,
      "Ġ,": 4121,
      "sÃ¦": 4122,
      "nuÃ°u": 4123,
      "ĠviÃ°komandi": 4124,
      "ĠnÃ¦stkomandi": 4125,
      "ĠnÃ¡kvÃ¦m": 4126,
      "ĠvÃ¶ru": 4127,
      "ĠsÃ³knar": 4128,
      "fÃ©lagiÃ°": 4129,
      "ĠSport": 4130,
      "ĠFyl": 4131,
      "Ġ80": 4132,
      "ĠPort": 4133,
      "Ã°arson": 4134,
      "ĠÃ¦ttu": 4135,
      "junni": 4136,
      "Ġeiginlega": 4137,
      "dÃ½r": 4138,
      "ĠRagn": 4139,
      "ĠauÃ°veld": 4140,
      "ĠstÃŃ": 4141,
      "skipt": 4142,
      "Ġsunnudag": 4143,
      "ĠhryÃ°ju": 4144,
      "ĠsjÃ¡lfsÃ¶g": 4145,
      "ter": 4146,
      "Ġskemmtileg": 4147,
      "jung": 4148,
      "uni": 4149,
      "Ġsafn": 4150,
      "ĠCovid": 4151,
      "ĠÃ¡rsf": 4152,
      "haldi": 4153,
      "fjarÃ°ar": 4154,
      "Ġeinka": 4155,
      "ĠboÃ°i": 4156,
      "ĠfÃ³tbolta": 4157,
      "ĠafstÃ¶Ã°u": 4158,
      "Ġskatta": 4159,
      "ĠRanns": 4160,
      "ĠNorÃ°url": 4161,
      "ĠviÃ°bÃ³tar": 4162,
      "ola": 4163,
      "Ġfremur": 4164,
      "ĠutanrÃŃkisrÃ¡Ã°herra": 4165,
      "hÃºsiÃ°": 4166,
      "ĠskÃ³": 4167,
      "Ã¾r": 4168,
      "erki": 4169,
      "ĠMeistara": 4170,
      "Ġdreng": 4171,
      "ĠVÃŃsi": 4172,
      "ilja": 4173,
      "ĠKar": 4174,
      "undiÃ°": 4175,
      "ĠlÃ¦kkaÃ°": 4176,
      "boÃ°i": 4177,
      "Ġsvara": 4178,
      "eyja": 4179,
      "Ġtekju": 4180,
      "Ġbjart": 4181,
      "VI": 4182,
      "Ġellefu": 4183,
      "ca": 4184,
      "ĠEM": 4185,
      "yfirvÃ¶ld": 4186,
      "Ġlif": 4187,
      "Ġfjall": 4188,
      "ĠvirÃ°i": 4189,
      "Ġbetra": 4190,
      "bjÃ³Ã°": 4191,
      "snar": 4192,
      "ĠGroup": 4193,
      "ĠÃ¶ryggi": 4194,
      "stan": 4195,
      "Ġtilvik": 4196,
      "celona": 4197,
      "vÃ¦Ã°": 4198,
      "ĠlÃ¦kka": 4199,
      "Ġsetti": 4200,
      "Ġhvorki": 4201,
      "Ġvinnumark": 4202,
      "Ġneik": 4203,
      "ĠÃ¾yrfti": 4204,
      "ĠhvenÃ¦r": 4205,
      "efli": 4206,
      "setningu": 4207,
      "Ġ2019": 4208,
      "Ġkanna": 4209,
      "ĠHauk": 4210,
      "Ã¡ni": 4211,
      "ors": 4212,
      "Ġkomnir": 4213,
      "ĠtapaÃ°i": 4214,
      "rÃŃki": 4215,
      "hÃºsi": 4216,
      "Ġsyn": 4217,
      "runar": 4218,
      "Ġneyt": 4219,
      "ĠyfirvÃ¶ld": 4220,
      "Ġnefna": 4221,
      "ĠlitiÃ°": 4222,
      "ĠumferÃ°ar": 4223,
      "dda": 4224,
      "ĠÃ¾jÃ³Ã°arinnar": 4225,
      "Ġbreska": 4226,
      "ĠtÃŃmann": 4227,
      "Ġkjarasam": 4228,
      "ĠSum": 4229,
      "ĠCO": 4230,
      "Ġdagana": 4231,
      "ĠSver": 4232,
      "verndar": 4233,
      "Ġtilkynnti": 4234,
      "Ġdreif": 4235,
      "vegi": 4236,
      "dar": 4237,
      "ĠumboÃ°": 4238,
      "ĠgÃ³Ã°um": 4239,
      "legra": 4240,
      "ĠfjÃ¶lmiÃ°lum": 4241,
      "hring": 4242,
      "ĠtÃŃmi": 4243,
      "urum": 4244,
      "Ġskora": 4245,
      "Ġbur": 4246,
      "ĠspilaÃ°": 4247,
      "ĠsamgÃ¶ng": 4248,
      "ĠniÃ°urstÃ¶Ã°ur": 4249,
      "ĠviÃ°urk": 4250,
      "ĠkrÃ¶fur": 4251,
      "uleiÃ°": 4252,
      "ĠgÃ³Ã°ur": 4253,
      "Ġalvarlega": 4254,
      "ĠtalaÃ°": 4255,
      "Ġfundar": 4256,
      "ĠArsenal": 4257,
      "ĠJafn": 4258,
      "ĠnÃ¡ttÃºr": 4259,
      "ĠtilboÃ°": 4260,
      "ĠÃ¾akk": 4261,
      "ĠendurskoÃ°": 4262,
      "ĠsÃ¦n": 4263,
      "legan": 4264,
      "ĠMc": 4265,
      "13": 4266,
      "estir": 4267,
      "ĠBarcelona": 4268,
      "tÃŃmab": 4269,
      "ĠmÃŃnÃºtum": 4270,
      "Ġbrug": 4271,
      "Ġborist": 4272,
      "jÃ³st": 4273,
      "ĠÃ¶rugg": 4274,
      "Ġauki": 4275,
      "Ġdeildar": 4276,
      "ĠnjÃ³ta": 4277,
      "ĠEld": 4278,
      "ĠVestmannaeyja": 4279,
      "nÃ¡m": 4280,
      "Ã¦s": 4281,
      "ĠÃ¡horf": 4282,
      "nuveir": 4283,
      "ĠsuÃ°ur": 4284,
      "ĠInn": 4285,
      "Ã¶gnum": 4286,
      "60": 4287,
      "Ġslepp": 4288,
      "aldri": 4289,
      "Ġnemendur": 4290,
      "Ġatvik": 4291,
      "gerÃ°ir": 4292,
      "bann": 4293,
      "Ġmarkv": 4294,
      "ĠLÃ¡": 4295,
      "Ġnokkra": 4296,
      "ĠSem": 4297,
      "Ġbent": 4298,
      "Ġvild": 4299,
      "ĠneyÃ°ar": 4300,
      "Ġbenda": 4301,
      "amiÃ°": 4302,
      "Ġsamtals": 4303,
      "ĠGe": 4304,
      "ilinn": 4305,
      "ĠklÃ¡ra": 4306,
      "ĠÃ¦tlum": 4307,
      "ĠUng": 4308,
      "ĠsjÃºkdÃ³m": 4309,
      "vak": 4310,
      "ĠstaÃ°a": 4311,
      "ĠTveir": 4312,
      "ĠhÃ¶r": 4313,
      "ĠÃĵskar": 4314,
      "Ãºna": 4315,
      "stjÃ³rinn": 4316,
      "ĠEgil": 4317,
      "ĠlÃ¶ndum": 4318,
      "ĠdrÃ³": 4319,
      "ĠKeflavÃŃkur": 4320,
      "Ġmeta": 4321,
      "andbolti": 4322,
      "Ġskapa": 4323,
      "ĠennÃ¾Ã¡": 4324,
      "Ġheimav": 4325,
      "Ġengar": 4326,
      "Ġspennandi": 4327,
      "ĠgarÃ°": 4328,
      "ĠsjÃ¡lfsÃ¶gÃ°u": 4329,
      "Ġmarga": 4330,
      "ĠhÃ³pi": 4331,
      "seti": 4332,
      "Ġstofnun": 4333,
      "stig": 4334,
      "ĠbÃ¦tti": 4335,
      "ĠStr": 4336,
      "dum": 4337,
      "ĠSkag": 4338,
      "ĠgetaÃ°": 4339,
      "Ġslys": 4340,
      "ĠbrÃ¡": 4341,
      "ĠSÃŃÃ°an": 4342,
      "Ġminnk": 4343,
      "Ġnemur": 4344,
      "gunar": 4345,
      "eiti": 4346,
      "stand": 4347,
      "ine": 4348,
      "ĠhÃ¦st": 4349,
      "ĠEirÃŃk": 4350,
      "marg": 4351,
      "eink": 4352,
      "ĠheilbrigÃ°is": 4353,
      "ĠBaldur": 4354,
      "Ġmyndband": 4355,
      "rabbam": 4356,
      "ĠNokk": 4357,
      "70": 4358,
      "ĠdÃ³msmÃ¡l": 4359,
      "Ġmagn": 4360,
      "Ġuppbyggingu": 4361,
      "Ġvind": 4362,
      "Ġtilraun": 4363,
      "burÃ°i": 4364,
      "Ef": 4365,
      "ĠBjÃ¶rgvin": 4366,
      "ĠmÃ¦tir": 4367,
      "Ġforg": 4368,
      "ĠnÃ¡Ã°u": 4369,
      "insson": 4370,
      "ĠlÃŃkur": 4371,
      "ĠÃ½msum": 4372,
      "ĠfljÃ³t": 4373,
      "Ġeinstaklingar": 4374,
      "Ġbirtist": 4375,
      "ĠSigf": 4376,
      "ĠleitaÃ°": 4377,
      "ĠBu": 4378,
      "ĠaÃ°gerÃ°a": 4379,
      "ĠmÃŃnum": 4380,
      "ĠliÃ°s": 4381,
      "raÃ°i": 4382,
      "ĠAnnar": 4383,
      "Ġgreinir": 4384,
      "Ġhar": 4385,
      "ĠheimasÃŃÃ°u": 4386,
      "ĠfÃ³lkiÃ°": 4387,
      "bÃºnaÃ°ar": 4388,
      "abrÃ©f": 4389,
      "23": 4390,
      "Ã°ingu": 4391,
      "ĠsjÃ³nar": 4392,
      "ĠstÃ¦rri": 4393,
      "net": 4394,
      "ĠgÃ¦slu": 4395,
      "ĠAnt": 4396,
      "bÃ½li": 4397,
      "ĠÃŀÃ½skalandi": 4398,
      "jÃºp": 4399,
      "ĠbifreiÃ°": 4400,
      "...": 4401,
      "Ġeinhverju": 4402,
      "gangi": 4403,
      "verka": 4404,
      "Ġfyrsti": 4405,
      "anlegt": 4406,
      "Ġbraut": 4407,
      "ĠÃŀorsteinn": 4408,
      "Ġheyra": 4409,
      "anefndar": 4410,
      "witt": 4411,
      "ĠskaÃ°": 4412,
      "ĠgrÃ¦": 4413,
      "slok": 4414,
      "rumvarp": 4415,
      "Ġafla": 4416,
      "Ġspilar": 4417,
      "ĠÃ³m": 4418,
      "sluna": 4419,
      "Ġhreyf": 4420,
      "Ġskyn": 4421,
      "Ã°arinnar": 4422,
      "ĠHÃ¶f": 4423,
      "Ġskal": 4424,
      "ames": 4425,
      "Ġhluthaf": 4426,
      "Ġfalla": 4427,
      "ĠhÃ¦rri": 4428,
      "ĠvÃ¦ntanlega": 4429,
      "ĠhÃ¡lfu": 4430,
      "ĠkÃ³rÃ³nuveir": 4431,
      "ĠvÃŃsind": 4432,
      "Ġspar": 4433,
      "leitt": 4434,
      "ĠbeÃ°iÃ°": 4435,
      "Ġverslun": 4436,
      "ĠGylfi": 4437,
      "ĠLandsbankans": 4438,
      "ĠÃºrskurÃ°": 4439,
      "ve": 4440,
      "ave": 4441,
      "40": 4442,
      "vÃ¶ll": 4443,
      "niÃ°": 4444,
      "ĠlÃ©st": 4445,
      "ĠtÃŃmabilinu": 4446,
      "ĠfalliÃ°": 4447,
      "Ġveginn": 4448,
      "com": 4449,
      "ĠÃ¾Ã©tt": 4450,
      "Ġli": 4451,
      "Ġvinnur": 4452,
      "Ġrang": 4453,
      "ĠslÃ³": 4454,
      "ĠstÃ³rt": 4455,
      "ilum": 4456,
      "launa": 4457,
      "ĠAs": 4458,
      "ĠhÃ¡skÃ³l": 4459,
      "ĠÃ¡stÃ¦Ã°a": 4460,
      "ĠsÃŃÃ°degis": 4461,
      "eti": 4462,
      "Ã¡f": 4463,
      "witter": 4464,
      "borÃ°": 4465,
      "Ġ300": 4466,
      "VID": 4467,
      "ĠsammÃ¡la": 4468,
      "ĠLÃŃk": 4469,
      "urn": 4470,
      "ĠstÃ½r": 4471,
      "reynd": 4472,
      "ĠJÃ³hannes": 4473,
      "198": 4474,
      "tion": 4475,
      "Ġverkfall": 4476,
      "ĠÃ¦tt": 4477,
      "Ġfundinum": 4478,
      "ĠÃŀÃº": 4479,
      "Ġrafmagn": 4480,
      "raÃ°": 4481,
      "ĠbandarÃŃska": 4482,
      "ĠMart": 4483,
      "ĠEinarsson": 4484,
      "mÃ¡lum": 4485,
      "ĠÃģrnason": 4486,
      "ĠAir": 4487,
      "Ġbaki": 4488,
      "amma": 4489,
      "stra": 4490,
      "Handbolti": 4491,
      "ĠNiÃ°ur": 4492,
      "unna": 4493,
      "ĠfyrirtÃ¦kjum": 4494,
      "ĠhraÃ°": 4495,
      "ĠkallaÃ°": 4496,
      "frÃ©tt": 4497,
      "Ġ90": 4498,
      "kast": 4499,
      "Ġhandtekinn": 4500,
      "Ġfullt": 4501,
      "ĠhÃ¡mark": 4502,
      "Ġ32": 4503,
      "Ġthe": 4504,
      "Ġskilab": 4505,
      "Ġaustur": 4506,
      "ĠCOVID": 4507,
      "eigu": 4508,
      "ĠBBC": 4509,
      "ĠstjÃ³rnarand": 4510,
      "aland": 4511,
      "ĠtvÃ¶f": 4512,
      "ĠmÃ¶nnum": 4513,
      "ĠsÃŃns": 4514,
      "ĠdÃ³ttur": 4515,
      "vÃ¦nt": 4516,
      "Ġrif": 4517,
      "ĠumfjÃ¶llun": 4518,
      "jÃ³Ã°ur": 4519,
      "Ġgerst": 4520,
      "Ġhf": 4521,
      "ĠÃ¡rsfjÃ³rÃ°ung": 4522,
      "ĠniÃ°urstaÃ°a": 4523,
      "ĠferÃ°amenn": 4524,
      "ĠJÃºl": 4525,
      "ĠbeiÃ°": 4526,
      "Ġfangels": 4527,
      "ĠTÃ³m": 4528,
      "Ġsnemma": 4529,
      "ĠmeÃ°altali": 4530,
      "ĠhÃ¦f": 4531,
      "Ġaldur": 4532,
      "Ġ2006": 4533,
      "ĠstrÃŃÃ°": 4534,
      "ĠnotaÃ°": 4535,
      "yng": 4536,
      "ĠnÃ³gu": 4537,
      "ĠsÃ©rst": 4538,
      "ĠvÃ¶rn": 4539,
      "ĠFÃ¦r": 4540,
      "ĠhÃºsinu": 4541,
      "ĠstÃ¦rÃ°": 4542,
      "eppninni": 4543,
      "burÃ°ar": 4544,
      "Ã³Ã°u": 4545,
      "ĠbandarÃŃsk": 4546,
      "Ġvarafor": 4547,
      "ĠDe": 4548,
      "ĠsnÃºa": 4549,
      "ĠmannrÃ©tt": 4550,
      "arÃ°an": 4551,
      "Ġnokkrar": 4552,
      "ata": 4553,
      "ĠfÃ©laga": 4554,
      "Ġlent": 4555,
      "ĠkÃŃlÃ³metra": 4556,
      "Ġeinkum": 4557,
      "ĠbÃºnir": 4558,
      "ĠmarkaÃ°i": 4559,
      "Ġ2020": 4560,
      "Ġhafnar": 4561,
      "ranns": 4562,
      "ĠReykjanes": 4563,
      "ĠspilaÃ°i": 4564,
      "St": 4565,
      "ĠnauÃ°synlegt": 4566,
      "ĠbÃ¶rnin": 4567,
      "mat": 4568,
      "afrÃ¦Ã°": 4569,
      "brag": 4570,
      "Ġfars": 4571,
      "Ġlengri": 4572,
      "ĠDav": 4573,
      "ĠrÃ©ttar": 4574,
      "ĠbÃºast": 4575,
      "Ġseld": 4576,
      "ĠstÃ¶Ã°um": 4577,
      "ĠGri": 4578,
      "ĠÃºtvarp": 4579,
      "atni": 4580,
      "ykki": 4581,
      "ts": 4582,
      "ĠÃŃÃ¾rÃ³tta": 4583,
      "Ġhugmyndir": 4584,
      "aÃ°st": 4585,
      "sstÃ¶Ã°um": 4586,
      "ĠuppÃ¡": 4587,
      "ĠÃģriÃ°": 4588,
      "kra": 4589,
      "ĠgÃ³Ã°an": 4590,
      "svÃ¦Ã°i": 4591,
      "vo": 4592,
      "ĠviÃ°skiptum": 4593,
      "ĠaÃ°gerÃ°": 4594,
      "ÃŃra": 4595,
      "ĠhÃºsiÃ°": 4596,
      "Ġdollara": 4597,
      "Ġframan": 4598,
      "halds": 4599,
      "ĠHÃ¡skÃ³l": 4600,
      "ĠVestf": 4601,
      "ustu": 4602,
      "Ġkona": 4603,
      "ĠHil": 4604,
      "ĠStjÃ¶rn": 4605,
      "ĠbÃ½r": 4606,
      "Ã¶lur": 4607,
      "Ġkomust": 4608,
      "ĠJap": 4609,
      "Ġumfang": 4610,
      "Ġleitt": 4611,
      "ĠslÃ¡": 4612,
      "bÃ¦tur": 4613,
      "ĠhefÃ°bund": 4614,
      "Ġaldri": 4615,
      "Ġefstu": 4616,
      "ĠHafnarfirÃ°i": 4617,
      "ĠBjarnason": 4618,
      "Ġtaldi": 4619,
      "16": 4620,
      "ĠstoÃ°send": 4621,
      "17": 4622,
      "ĠlagiÃ°": 4623,
      "Ġjafntefli": 4624,
      "Ġvettvangi": 4625,
      "auk": 4626,
      "fÃ©lÃ¶g": 4627,
      "ĠGÃŃsli": 4628,
      "Ġvissulega": 4629,
      "heiÃ°ur": 4630,
      "ĠGunnlaug": 4631,
      "ĠSigurjÃ³n": 4632,
      "ĠKjartan": 4633,
      "ĠVinn": 4634,
      "ymp": 4635,
      "ĠalgjÃ¶rlega": 4636,
      "ĠfÃ©lÃ¶g": 4637,
      "Ġeing": 4638,
      "ĠmÃ¡nudag": 4639,
      "ĠgÃ¶gn": 4640,
      "ĠstÃ¶kk": 4641,
      "Ġrauninni": 4642,
      "ĠtillÃ¶gur": 4643,
      "ĠÃŀorg": 4644,
      "ĠGrein": 4645,
      "Ġkonu": 4646,
      "ĠljÃºka": 4647,
      "ĠfjÃ¶r": 4648,
      "ĠsÃ¡l": 4649,
      "ĠblaÃ°amann": 4650,
      "ĠÃ³skaÃ°": 4651,
      "ĠVald": 4652,
      "ĠsaksÃ³knar": 4653,
      "ĠSnor": 4654,
      "Ġkol": 4655,
      "ĠAllir": 4656,
      "reisnar": 4657,
      "ĠfulltrÃºa": 4658,
      "koma": 4659,
      "ĠEvrÃ³pusambandsins": 4660,
      "ĠstÃ¦kk": 4661,
      "Ġdre": 4662,
      "arfrÃ¦Ã°": 4663,
      "ĠAd": 4664,
      "ĠBandarÃŃkin": 4665,
      "Ġyngri": 4666,
      "not": 4667,
      "ĠviÃ°urken": 4668,
      "avar": 4669,
      "Ġmikilli": 4670,
      "llinn": 4671,
      "ĠKrÃ³": 4672,
      "ci": 4673,
      "ĠhÃº": 4674,
      "ĠundanfÃ¶rnum": 4675,
      "sak": 4676,
      "ĠNei": 4677,
      "Ġhendi": 4678,
      "ĠsamfÃ©laginu": 4679,
      "ĠTim": 4680,
      "ĠrÃŃkisstjÃ³rnin": 4681,
      "hall": 4682,
      "kos": 4683,
      "fÃ¦ri": 4684,
      "ĠStefÃ¡nsson": 4685,
      "Ġsendir": 4686,
      "ddir": 4687,
      "ĠmÃŃnu": 4688,
      "ĠÃ¡nÃ¦gÃ°ur": 4689,
      "ĠGer": 4690,
      "ĠFimm": 4691,
      "ĠlÃ¶gregla": 4692,
      "ĠSu": 4693,
      "ĠfyrirtÃ¦kinu": 4694,
      "Ġverja": 4695,
      "agni": 4696,
      "milli": 4697,
      "ĠhÃ³pur": 4698,
      "ĠkÃ¶rfu": 4699,
      "rasil": 4700,
      "afundi": 4701,
      "Ġvonast": 4702,
      "ĠrÃ¦ddi": 4703,
      "Ġja": 4704,
      "ĠlÃ¦kkaÃ°i": 4705,
      "ĠBenediktsson": 4706,
      "ĠÃįsrael": 4707,
      "mik": 4708,
      "ĠsÃ½k": 4709,
      "ĠSuÃ°urnes": 4710,
      "ĠÃ¦tli": 4711,
      "Ġlykil": 4712,
      "ĠbrÃ¡Ã°": 4713,
      "esson": 4714,
      "ĠTyrk": 4715,
      "yrirtÃ¦kiÃ°": 4716,
      "ĠsjÃ¡um": 4717,
      "skipulag": 4718,
      "ĠAk": 4719,
      "12": 4720,
      "ĠÃ³k": 4721,
      "arÃ©ttar": 4722,
      "ĠsÃ©st": 4723,
      "ĠaÃ°ilar": 4724,
      "eyri": 4725,
      "Ġstel": 4726,
      "aum": 4727,
      "ĠmÃ³Ã°ur": 4728,
      "jÃ³nusta": 4729,
      "eÃ°ferÃ°": 4730,
      "ĠgÃ¦sluvarÃ°": 4731,
      "ÃŃsku": 4732,
      "ĠMatth": 4733,
      "%,": 4734,
      "ĠglÃ¦p": 4735,
      "ĠSamtaka": 4736,
      "ĠSteingrÃŃmur": 4737,
      "ĠmÃ¦li": 4738,
      "Ġbyggingar": 4739,
      "ĠstÃ¶Ã°ug": 4740,
      "ĠÃ¡lyk": 4741,
      "Ġbot": 4742,
      "ĠhÃ¡r": 4743,
      "jÃ³tt": 4744,
      "Ġri": 4745,
      "ĠsÃ½ni": 4746,
      "Ġteg": 4747,
      "ĠmÃ¶gulega": 4748,
      "Ġfyrirhug": 4749,
      "ong": 4750,
      "ces": 4751,
      "brÃ©fa": 4752,
      "Ġbekk": 4753,
      "ĠMann": 4754,
      "ĠkynferÃ°is": 4755,
      "ĠPep": 4756,
      "Ġfimmtudag": 4757,
      "Ġefla": 4758,
      "ĠSeg": 4759,
      "ĠÃ³ttast": 4760,
      "holti": 4761,
      "par": 4762,
      "Ġstol": 4763,
      "ĠfimmtÃ¡n": 4764,
      "alaust": 4765,
      "ĠKÃ³pavogi": 4766,
      "ĠfjarlÃ¦g": 4767,
      "Ġbankanna": 4768,
      "ĠÃºrslitum": 4769,
      "ĠundanfÃ¶rnu": 4770,
      "Ġforeldra": 4771,
      "ĠsjÃ¡lfstÃ¦Ã°i": 4772,
      "Ġopinbera": 4773,
      "ĠvaldiÃ°": 4774,
      "ĠTaliÃ°": 4775,
      "fel": 4776,
      "ĠIceland": 4777,
      "Ġkomandi": 4778,
      "ĠJÃ³hannsson": 4779,
      "Ġhaldin": 4780,
      "ĠmÃ¡naÃ°ar": 4781,
      "Ġheitir": 4782,
      "Ġ500": 4783,
      "ĠiÃ°naÃ°ar": 4784,
      "ĠHin": 4785,
      "ĠvÃ¶ldum": 4786,
      "ĠKristjÃ¡nsson": 4787,
      "ĠLÃ¶g": 4788,
      "ĠstjÃ³rnarfor": 4789,
      "ĠÃģrna": 4790,
      "Ġframleng": 4791,
      "Ġupplif": 4792,
      "fÃ³lk": 4793,
      "Ġhve": 4794,
      "Ġsunn": 4795,
      "ĠferÃ°aÃ¾jÃ³nustu": 4796,
      "Ã³ti": 4797,
      "ĠdÃ¦mdur": 4798,
      "ĠBjarna": 4799,
      "etja": 4800,
      "helgis": 4801,
      "amb": 4802,
      "Ã¦rum": 4803,
      "ĠembÃ¦ttis": 4804,
      "ĠorÃ°inn": 4805,
      "ĠverÃ°laun": 4806,
      "Ġgrip": 4807,
      "ĠSeÃ°labankans": 4808,
      "ĠKristinn": 4809,
      "Ġerlendum": 4810,
      "ĠmistÃ¶k": 4811,
      "ĠprÃ³senta": 4812,
      "herja": 4813,
      "steinn": 4814,
      "Ġfylgir": 4815,
      "vara": 4816,
      "ĠsÃ¶gÃ°u": 4817,
      "ĠrannsÃ³knir": 4818,
      "Ġberjast": 4819,
      "Ġengan": 4820,
      "Ġveru": 4821,
      "ĠKÃ¡ri": 4822,
      "Ġalmennings": 4823,
      "Ġvist": 4824,
      "mÃ³t": 4825,
      "Ġborga": 4826,
      "ĠskilaÃ°": 4827,
      "ĠfÃ¦Ã°": 4828,
      "ĠjafnaÃ°i": 4829,
      "Ġodd": 4830,
      "ĠReal": 4831,
      "fÃ©lagsins": 4832,
      "alest": 4833,
      "bir": 4834,
      "ĠnÃ½lega": 4835,
      "Ġbeita": 4836,
      "ĠskrifaÃ°i": 4837,
      "ĠatvinnulÃŃfsins": 4838,
      "ĠMich": 4839,
      "Ġhefjast": 4840,
      "22": 4841,
      "ac": 4842,
      "sturinn": 4843,
      "Ġjafna": 4844,
      "lunum": 4845,
      "ĠÃ¡runum": 4846,
      "rÃ³l": 4847,
      "ĠnÃ½jar": 4848,
      "Ġskrifa": 4849,
      "slÃ¶greg": 4850,
      "Ġhinsvegar": 4851,
      "Ġgamall": 4852,
      "Ġbeitt": 4853,
      "Ġeignir": 4854,
      "Ġseinna": 4855,
      "gangur": 4856,
      "ven": 4857,
      "bÃŃu": 4858,
      "ĠÃģl": 4859,
      "Ã³Ã°a": 4860,
      "ĠInga": 4861,
      "verÃ°u": 4862,
      "Ġgos": 4863,
      "Ġleiks": 4864,
      "fundi": 4865,
      "helgisgÃ¦": 4866,
      "qu": 4867,
      "ĠMenning": 4868,
      "mist": 4869,
      "ĠBreiÃ°ab": 4870,
      "Ġspurning": 4871,
      "Ġspr": 4872,
      "ĠeingÃ¶ngu": 4873,
      "Ġros": 4874,
      "ĠvÃŃsaÃ°": 4875,
      "ĠEx": 4876,
      "ĠvirÃ°ast": 4877,
      "Ġ33": 4878,
      "ĠleikiÃ°": 4879,
      "ĠheimsÃ³kn": 4880,
      "Ġ45": 4881,
      "ix": 4882,
      "Ġrig": 4883,
      "litt": 4884,
      "Ġsemja": 4885,
      "ĠArion": 4886,
      "ungu": 4887,
      "Ã¶kul": 4888,
      "grein": 4889,
      "veriÃ°": 4890,
      "Ġvanda": 4891,
      "En": 4892,
      "ĠMorgunblaÃ°": 4893,
      "Ãºg": 4894,
      "Ġgist": 4895,
      "jÃ³s": 4896,
      "ĠbÃºs": 4897,
      "ĠEll": 4898,
      "Ġfleira": 4899,
      "hverfi": 4900,
      "Ġheimildum": 4901,
      "Ġsund": 4902,
      "ĠÃįslenska": 4903,
      "Ġfullu": 4904,
      "Ġtalsvert": 4905,
      "Ġleysa": 4906,
      "ĠtillÃ¶gu": 4907,
      "ingarnar": 4908,
      "eyjum": 4909,
      "aksÃ³knar": 4910,
      "ĠeÃ°lilegt": 4911,
      "ĠbÃ¡Ã°ir": 4912,
      "ema": 4913,
      "ĠvÃŃsit": 4914,
      "Ã¾jÃ¡lf": 4915,
      "ĠfjÃ¡rfesta": 4916,
      "ĠskoraÃ°": 4917,
      "ĠEyjaf": 4918,
      "Ġgreitt": 4919,
      "Ġforgang": 4920,
      "ylt": 4921,
      "ĠgÃ¶ng": 4922,
      "Ġflokki": 4923,
      "ĠbyggÃ°": 4924,
      "Ġsambandi": 4925,
      "ĠstÃ³ru": 4926,
      "ĠMil": 4927,
      "shaf": 4928,
      "ĠÃįrak": 4929,
      "ney": 4930,
      "ĠkjÃ³sa": 4931,
      "legir": 4932,
      "merÃŃk": 4933,
      "ĠsiÃ°": 4934,
      "ĠJÃºlÃŃu": 4935,
      "ĠTÃ³nlist": 4936,
      "stÃ¶Ã°v": 4937,
      "ĠtÃŃmanum": 4938,
      "ĠÃ¡hrifum": 4939,
      "Ġloftslag": 4940,
      "ĠÃ¡kvarÃ°an": 4941,
      "ĠÃºtil": 4942,
      "jÃ³lf": 4943,
      "ĠviÃ°rÃ¦Ã°ur": 4944,
      "sÃ½n": 4945,
      "Ġverslunar": 4946,
      "ĠÃŀorvald": 4947,
      "vega": 4948,
      "uleiÃ°is": 4949,
      "Ġvestan": 4950,
      "ĠlÃ¡gmark": 4951,
      "Ã¶lum": 4952,
      "ĠÃŃtrekaÃ°": 4953,
      "ĠTv": 4954,
      "ĠAng": 4955,
      "ennt": 4956,
      "ĠnÃ¡mu": 4957,
      "ĠFreyr": 4958,
      "500": 4959,
      "Ã°ingar": 4960,
      "essor": 4961,
      "ĠFramsÃ³knarflokksins": 4962,
      "ĠPÃ³l": 4963,
      "BA": 4964,
      "Ġrekja": 4965,
      "ĠFrakklandi": 4966,
      "bÃºnaÃ°": 4967,
      "vÃŃsit": 4968,
      "ĠlÃ½sti": 4969,
      "men": 4970,
      "ĠlÃŃÃ°ur": 4971,
      "Ġtiltek": 4972,
      "Ġflestum": 4973,
      "ĠbÃºist": 4974,
      "ĠstÃ³rum": 4975,
      "eyfi": 4976,
      "ĠRa": 4977,
      "ĠSer": 4978,
      "ĠvÃŃta": 4979,
      "ĠloÃ°": 4980,
      "ĠFramkvÃ¦md": 4981,
      "ĠlÃŃklegt": 4982,
      "ĠfjÃ³ra": 4983,
      "Ġskilja": 4984,
      "sig": 4985,
      "han": 4986,
      "bolt": 4987,
      "Ġmismunandi": 4988,
      "ĠmÃ¦ld": 4989,
      "fiÃ°": 4990,
      "Ġhandbolta": 4991,
      "ĠfrÃ¦Ã°": 4992,
      "ĠMaÃ°ur": 4993,
      "ĠBandarÃŃkja": 4994,
      "ĠbrotiÃ°": 4995,
      "Ãºd": 4996,
      "ĠgerÃ°ist": 4997,
      "Ġtakast": 4998,
      "ĠLandhelgisgÃ¦": 4999,
      "ĠlÃ¦r": 5000,
      "Ġheimavelli": 5001,
      "Ġfyrrum": 5002,
      "ĠMargir": 5003,
      "ĠforstjÃ³ra": 5004,
      "ĠlÃ¶greglumÃ¡l": 5005,
      "len": 5006,
      "ĠjÃ³k": 5007,
      "ĠgrÃ¡": 5008,
      "vÃ©l": 5009,
      "Ġevra": 5010,
      "Ã³knum": 5011,
      "farandi": 5012,
      "ĠframkvÃ¦mdir": 5013,
      "Ġvelja": 5014,
      "ĠkjÃ¶": 5015,
      "lÃŃn": 5016,
      "Ġfat": 5017,
      "ĠMadrid": 5018,
      "ĠSvavar": 5019,
      "ĠGrindavÃŃk": 5020,
      "Ã¶rfubolti": 5021,
      "Ġkeypt": 5022,
      "erfisins": 5023,
      "ĠNÃ¡nar": 5024,
      "ĠrÃºss": 5025,
      "kr": 5026,
      "ĠSnÃ¦f": 5027,
      "Ġhi": 5028,
      "Ġvei": 5029,
      "ĠLÃŃf": 5030,
      "ĠSÃŃm": 5031,
      "Ġskipa": 5032,
      "Ġster": 5033,
      "Ġstefnt": 5034,
      "Ã©ttur": 5035,
      "ĠÃ¾ingflokk": 5036,
      "ĠfjÃ¡rfestingar": 5037,
      "Ġbikar": 5038,
      "45": 5039,
      "ĠhÃ¡degi": 5040,
      "ĠferÃ°amanna": 5041,
      "atil": 5042,
      "ĠGunnarsdÃ³ttir": 5043,
      "Ġhlutaf": 5044,
      "ĠlÃ¶greglunni": 5045,
      "Ġkapp": 5046,
      "ĠJu": 5047,
      "grÃŃm": 5048,
      "Ã¶rk": 5049,
      "ondon": 5050,
      "Ġfug": 5051,
      "nandi": 5052,
      "ĠaugljÃ³": 5053,
      "ĠGuÃ°ni": 5054,
      "Ġ2005": 5055,
      "ĠLu": 5056,
      "ĠsamÃ¾ykkti": 5057,
      "essi": 5058,
      "Ġert": 5059,
      "ĠSigmundur": 5060,
      "Ġvitum": 5061,
      "Ġumfram": 5062,
      "ĠmÃ¡lefni": 5063,
      "ĠpÃ³litÃŃsk": 5064,
      "vallar": 5065,
      "ĠgrÃŃpa": 5066,
      "ĠaÃ°gerÃ°um": 5067,
      "ĠboriÃ°": 5068,
      "Ġin": 5069,
      "Ġflokka": 5070,
      "Ġenska": 5071,
      "ali": 5072,
      "Ġheils": 5073,
      "ĠflÃ½": 5074,
      "ĠbrÃ½": 5075,
      "ĠtÃ¶lur": 5076,
      "ĠHvernig": 5077,
      "ĠhjÃ¡lpa": 5078,
      "ĠrÃŃflega": 5079,
      "ĠleiÃ°in": 5080,
      "Ġsenn": 5081,
      "ĠHjÃ¶r": 5082,
      "ilegar": 5083,
      "Menning": 5084,
      "ĠmarkiÃ°": 5085,
      "ĠkrÃ³num": 5086,
      "burÃ°": 5087,
      "ĠBlÃ¶ndu": 5088,
      "Ġrak": 5089,
      "Ġ*": 5090,
      "virÃ°i": 5091,
      "Ġheg": 5092,
      "ĠEkkert": 5093,
      "ĠbÃŃlnum": 5094,
      "ĠforstÃ¶Ã°um": 5095,
      "tra": 5096,
      "per": 5097,
      "verkefni": 5098,
      "Ġminnst": 5099,
      "ĠPÃŃra": 5100,
      "laust": 5101,
      "ĠÃ¾ol": 5102,
      "ĠkjÃ³s": 5103,
      "ĠsjÃ¡lfum": 5104,
      "ĠupphÃ¦Ã°": 5105,
      "ĠstaÃ°reynd": 5106,
      "MÃ©r": 5107,
      "ĠLondon": 5108,
      "ĠGeorg": 5109,
      "ĠleiÃ°inni": 5110,
      "istan": 5111,
      "ĠDÃ³ms": 5112,
      "ĠÃįr": 5113,
      "ĠNoreg": 5114,
      "ĠmiÃ°jan": 5115,
      "ĠÃ³trÃºlega": 5116,
      "ĠLandsvirkj": 5117,
      "ĠInt": 5118,
      "Ġenga": 5119,
      "ĠDal": 5120,
      "ĠsÃ¡r": 5121,
      "ĠbarÃ¡ttu": 5122,
      "Ġyfirleitt": 5123,
      "ev": 5124,
      "sleit": 5125,
      "ĠfÃ¡um": 5126,
      "ĠLok": 5127,
      "ĠMÃ¡liÃ°": 5128,
      "kona": 5129,
      "Ã°austur": 5130,
      "ĠaukiÃ°": 5131,
      "ĠfjÃ³rÃ°ung": 5132,
      "ĠsvÃ¦Ã°iÃ°": 5133,
      "Ġlaugardaginn": 5134,
      "ion": 5135,
      "ĠIngibjÃ¶rg": 5136,
      "Ġpening": 5137,
      "Ġeinni": 5138,
      "ĠÃ¡standiÃ°": 5139,
      "ĠÃįtalÃŃu": 5140,
      "Ġsitur": 5141,
      "ĠÃ¦tlaÃ°i": 5142,
      "ĠviÃ°skiptavin": 5143,
      "ĠAld": 5144,
      "Ġbirti": 5145,
      "ĠSal": 5146,
      "Ġsegjast": 5147,
      "ĠundanÃºrslit": 5148,
      "ĠList": 5149,
      "ĠfÃ¦rri": 5150,
      "gl": 5151,
      "Ġsal": 5152,
      "ĠgÃ³Ã°ar": 5153,
      "Ġbeinni": 5154,
      "Ġdans": 5155,
      "ĠÃŀÃ³rÃ³l": 5156,
      "hverfis": 5157,
      "ĠgagnrÃ½ni": 5158,
      "ĠhÃ¶g": 5159,
      "Ġlenti": 5160,
      "ĠrÃ¦Ã°": 5161,
      "ĠhjÃºkrun": 5162,
      "ĠHjÃ¡l": 5163,
      "ĠendaÃ°i": 5164,
      "ĠfjÃ¡rlag": 5165,
      "Ġbankinn": 5166,
      "flu": 5167,
      "Ġeinang": 5168,
      "tor": 5169,
      "ĠÃ¾Ã¦tti": 5170,
      "Ġfell": 5171,
      "elti": 5172,
      "Ġsamvinnu": 5173,
      "kvÃ¦Ã°i": 5174,
      "ael": 5175,
      "ĠundanfariÃ°": 5176,
      "Ġhepp": 5177,
      "ndum": 5178,
      "rÃ¡Ã°s": 5179,
      "Ġgjaldeyris": 5180,
      "ĠleikskÃ³la": 5181,
      "Ġferli": 5182,
      "vÃŃsi": 5183,
      "skatt": 5184,
      "ĠTwitter": 5185,
      "Ġhita": 5186,
      "ĠÃ³l": 5187,
      "vinnslu": 5188,
      "enham": 5189,
      "ĠnÃ¡lÃ¦gt": 5190,
      "ĠliÃ°a": 5191,
      "turinn": 5192,
      "ĠÃ¡form": 5193,
      "ĠmÃ³tinu": 5194,
      "ĠFjÃ³r": 5195,
      "Ġ34": 5196,
      "Ġ150": 5197,
      "ĠAm": 5198,
      "ÃŃkja": 5199,
      "Ġlangan": 5200,
      "Ã¶dd": 5201,
      "Ã½s": 5202,
      "Ã¡rÃ¡s": 5203,
      "ĠEgg": 5204,
      "ĠsambÃ¦r": 5205,
      "ĠbjÃ¶rgunarsveit": 5206,
      "Ġboltann": 5207,
      "90": 5208,
      "ĠFormaÃ°ur": 5209,
      "ĠÃģs": 5210,
      "ĠskÃ½": 5211,
      "finn": 5212,
      "ĠSand": 5213,
      "ĠÃ¡gÃ¦t": 5214,
      "ĠHvÃŃ": 5215,
      "ĠrÃºssne": 5216,
      "ĠLaugardal": 5217,
      "ĠHelg": 5218,
      "ĠÃ¾aÃ°an": 5219,
      "ĠstarfaÃ°": 5220,
      "ĠBank": 5221,
      "ĠliÃ°anna": 5222,
      "ĠGÃŃsl": 5223,
      "ĠÃŃs": 5224,
      "ĠÃºtgÃ¡fu": 5225,
      "mÃ¡": 5226,
      "amarkaÃ°i": 5227,
      "Ġmissa": 5228,
      "Ġhvern": 5229,
      "ilegum": 5230,
      "ftur": 5231,
      "Ġun": 5232,
      "ĠlÃ½Ã°rÃ¦Ã°i": 5233,
      "Ġhugsanlega": 5234,
      "14": 5235,
      "Ġeinlitt": 5236,
      "Ġundanfarna": 5237,
      "seftirlit": 5238,
      "ĠvelferÃ°ar": 5239,
      "ĠendurnÃ½": 5240,
      "aÃ°ila": 5241,
      "ĠBretlands": 5242,
      "Ã¶tum": 5243,
      "Ġefnis": 5244,
      "Ġstaf": 5245,
      "ĠsnÃ½st": 5246,
      "ĠNÃ¡tt": 5247,
      "mÃ¦t": 5248,
      "Ġto": 5249,
      "Ġsannarlega": 5250,
      "ĠskilaboÃ°": 5251,
      "Ã¡tta": 5252,
      "undan": 5253,
      "Ġstefna": 5254,
      "Ġvinnust": 5255,
      "Ã¶tur": 5256,
      "ĠsamfÃ©lagsmiÃ°": 5257,
      "ĠstÃºlk": 5258,
      "ĠhÃ¡lft": 5259,
      "ĠskoÃ°unar": 5260,
      "Hann": 5261,
      "ĠdÃ³mi": 5262,
      "ĠmiÃ°n": 5263,
      "Ã¶nnunar": 5264,
      "ĠstoÃ°sendingar": 5265,
      "ĠEvrÃ³pa": 5266,
      "ĠBe": 5267,
      "kerfi": 5268,
      "Ġfi": 5269,
      "ĠstÃ¦rsti": 5270,
      "ĠstÃ¶Ã°una": 5271,
      "esti": 5272,
      "ÃŃas": 5273,
      "alÃ¡": 5274,
      "Ġminnka": 5275,
      "ĠviÃ°skipti": 5276,
      "Ġneyslu": 5277,
      "ĠEur": 5278,
      "ĠSjÃ³": 5279,
      "ĠvakiÃ°": 5280,
      "ĠÃŀorlÃ¡": 5281,
      "ĠAndri": 5282,
      "ildir": 5283,
      "ninguna": 5284,
      "ĠStÃ¶Ã°var": 5285,
      "kkar": 5286,
      "ĠnÃ¡kvÃ¦mlega": 5287,
      "Ġrannsak": 5288,
      "Ġheimi": 5289,
      "Ã¶ldu": 5290,
      "ĠverkefniÃ°": 5291,
      "ĠKA": 5292,
      "ĠhÃ¦Ã°": 5293,
      "Ġtalin": 5294,
      "ĠNorÃ°urlandi": 5295,
      "lanir": 5296,
      "Ġtex": 5297,
      "samning": 5298,
      "ĠLang": 5299,
      "sstjÃ³ri": 5300,
      "Ġrenn": 5301,
      "ĠumrÃ¦Ã°": 5302,
      "ĠstjÃ³r": 5303,
      "Ġ400": 5304,
      "Ġvestur": 5305,
      "ĠblÃ³Ã°": 5306,
      "ĠÃ¾essir": 5307,
      "ĠEvrÃ³pum": 5308,
      "ĠÃ¶rugglega": 5309,
      "ĠÃ¡lit": 5310,
      "Ġvelta": 5311,
      "ĠafmÃ¦li": 5312,
      "ĠHef": 5313,
      "ĠHallgrÃŃm": 5314,
      "ĠGrikk": 5315,
      "ĠviljaÃ°": 5316,
      "ĠsÃ¶k": 5317,
      "Ġveruleg": 5318,
      "ĠviÃ°skiptav": 5319,
      "ĠFÃ©lags": 5320,
      "ĠOp": 5321,
      "Ġsy": 5322,
      "____": 5323,
      "Ġreglug": 5324,
      "ottenham": 5325,
      "Ġmeistar": 5326,
      "Ġumtals": 5327,
      "Ġverkum": 5328,
      "Ġkostar": 5329,
      "lugg": 5330,
      "Ġsleg": 5331,
      "afrÃ¦Ã°i": 5332,
      "Ã³a": 5333,
      "Ġykkur": 5334,
      "ick": 5335,
      "ĠSag": 5336,
      "Ã³lfur": 5337,
      "sjÃ¡": 5338,
      "ĠIces": 5339,
      "ĠviÃ°skipt": 5340,
      "engis": 5341,
      "ĠalÃ¾ing": 5342,
      "Ġmein": 5343,
      "ĠPr": 5344,
      "ĠfjÃ¶lgaÃ°": 5345,
      "ĠDavid": 5346,
      "Ã³tel": 5347,
      "ĠvÃ¶x": 5348,
      "ĠhafiÃ°": 5349,
      "ĠEitt": 5350,
      "Ġkort": 5351,
      "Ġ197": 5352,
      "taÃ°": 5353,
      "mir": 5354,
      "ĠÃŀÃ³rs": 5355,
      "ĠSvein": 5356,
      "Ã¶nnunum": 5357,
      "ĠLei": 5358,
      "Ġmak": 5359,
      "stÃ¶Ã°inni": 5360,
      "Ġlausn": 5361,
      "Ġfjalla": 5362,
      "Ġinnanlands": 5363,
      "ĠBrynjar": 5364,
      "jendur": 5365,
      "eign": 5366,
      "Ġundirrit": 5367,
      "arsson": 5368,
      "Ġalgeng": 5369,
      "Ġvaldi": 5370,
      "KÃ³re": 5371,
      "Ã¶lluÃ°": 5372,
      "jÃºkra": 5373,
      "Ġhaldinn": 5374,
      "Ġeinhverja": 5375,
      "ils": 5376,
      "heil": 5377,
      "ĠÃ³f": 5378,
      "Ãºb": 5379,
      "Ġvakti": 5380,
      "ĠÃįR": 5381,
      "ÃŃel": 5382,
      "Ġgull": 5383,
      "ĠlÃ¦kkun": 5384,
      "Ġvonandi": 5385,
      "rÃºm": 5386,
      "ĠVatn": 5387,
      "Ġskrifar": 5388,
      "ĠLandspÃŃtalans": 5389,
      "ĠAnn": 5390,
      "ĠfundiÃ°": 5391,
      "ub": 5392,
      "ww": 5393,
      "ĠlÃ¶nd": 5394,
      "slÃŃf": 5395,
      "Ġbarst": 5396,
      "Ġannarri": 5397,
      "verjar": 5398,
      "laugur": 5399,
      "ĠjÃ¡kvÃ¦Ã°": 5400,
      "ĠhÃ©ldu": 5401,
      "smÃ¡lum": 5402,
      "Ġi": 5403,
      "ĠspÃ¦n": 5404,
      "ĠlÃ¶ngu": 5405,
      "ĠÃįslandsbanka": 5406,
      "Ġslas": 5407,
      "ĠtÃ¦ki": 5408,
      ".,": 5409,
      "ĠTottenham": 5410,
      "ĠskilyrÃ°i": 5411,
      "ĠtjÃ³n": 5412,
      "ĠspurÃ°i": 5413,
      "tingu": 5414,
      "Ġseint": 5415,
      "ĠBrasil": 5416,
      "ĠsÃŃma": 5417,
      "Ã¼": 5418,
      "ĠPer": 5419,
      "bendingar": 5420,
      "ĠstÃ³Ã°u": 5421,
      "ĠlÃ¡na": 5422,
      "ini": 5423,
      "Ġfullkom": 5424,
      "Ġlengra": 5425,
      "hlaup": 5426,
      "stein": 5427,
      "Ġtengjast": 5428,
      "Ġformlega": 5429,
      "ĠOb": 5430,
      "ord": 5431,
      "ĠskrifaÃ°": 5432,
      "hrif": 5433,
      "lendur": 5434,
      "fÃ¦rt": 5435,
      "ĠLÃŃ": 5436,
      "Ġfasteign": 5437,
      "ĠkrÃ³nunnar": 5438,
      "Ġ37": 5439,
      "ĠEggert": 5440,
      "ĠtÃ¶kum": 5441,
      "vax": 5442,
      "Ġsat": 5443,
      "Ġundank": 5444,
      "herrann": 5445,
      "Ã³kna": 5446,
      "ĠfÃŃkniefna": 5447,
      "ĠmatvÃ¦": 5448,
      "Ã¶gnun": 5449,
      "ĠnÃ½skÃ¶p": 5450,
      "einkunn": 5451,
      "ĠdÃ³mstÃ³l": 5452,
      "stund": 5453,
      "ĠleiÃ°t": 5454,
      "Ġc": 5455,
      "Ġ38": 5456,
      "fÃ©laginu": 5457,
      "ĠÃļkra": 5458,
      "ĠÃºtlit": 5459,
      "ĠStÃ³r": 5460,
      "Ġeinhvers": 5461,
      "Ġsegi": 5462,
      "ĠÃ¾riÃ°judag": 5463,
      "lagi": 5464,
      "Ġreka": 5465,
      "ĠLÃ¡ru": 5466,
      "ĠstÃ¶Ã°v": 5467,
      "ĠbÃ¡Ã°um": 5468,
      "extir": 5469,
      "ĠWest": 5470,
      "ĠSuÃ°urlandi": 5471,
      "Ġru": 5472,
      "ĠgjaldÃ¾r": 5473,
      "Ãºra": 5474,
      "sr": 5475,
      "Ġsunnan": 5476,
      "ĠstÃ½ri": 5477,
      "ĠarÃ°": 5478,
      "ĠjÃ³kst": 5479,
      "ĠPepsi": 5480,
      "Ã¡rust": 5481,
      "kvÃ¦Ã°agreiÃ°": 5482,
      "ĠHarald": 5483,
      "Ġeinken": 5484,
      "ĠljÃ³smynd": 5485,
      "ĠÃ¡framhald": 5486,
      "ĠÃŃbÃºar": 5487,
      "Ġkross": 5488,
      "ĠIcesave": 5489,
      "Ġflutti": 5490,
      "ĠÃŀorlÃ¡k": 5491,
      "eyjar": 5492,
      "ĠfljÃ³tlega": 5493,
      "Ġmargra": 5494,
      "rÃ¡Ã°i": 5495,
      "Ġakstur": 5496,
      "ĠvÃ¶rum": 5497,
      "ĠArnÃ³r": 5498,
      "Ã¡mi": 5499,
      "Ġalmanna": 5500,
      "verÃ°laun": 5501,
      "afjarÃ°ar": 5502,
      "Ã¾Ã¡tt": 5503,
      "slÃ¶greglu": 5504,
      "ĠGuÃ°mundsdÃ³ttir": 5505,
      "ĠhÃ¦rra": 5506,
      "ĠlÃ¦ra": 5507,
      "ĠBÃ¦Ã°i": 5508,
      "ĠPÃ¡lsson": 5509,
      "ĠGÃŃslason": 5510,
      "Ġmyndum": 5511,
      "verÃ°i": 5512,
      "Ġkonum": 5513,
      "ĠSveinn": 5514,
      "rÃ©tti": 5515,
      "26": 5516,
      "ĠÃ¾Ã³tti": 5517,
      "ĠÃģst": 5518,
      "ĠstarfsmÃ¶nnum": 5519,
      "ĠRau": 5520,
      "ĠLilja": 5521,
      "ĠstaÃ°num": 5522,
      "Ã¶nsku": 5523,
      "Ġfimmta": 5524,
      "Ã¶ft": 5525,
      "Ã¡ttu": 5526,
      "ĠrÃ¡Ã°gjaf": 5527,
      "ĠÃĵlymp": 5528,
      "ĠBirgir": 5529,
      "Ġfjallar": 5530,
      "ĠAg": 5531,
      "ĠrÃ©tta": 5532,
      "ĠAÃ°spur": 5533,
      "ĠsumariÃ°": 5534,
      "Ġtilkynningunni": 5535,
      "ĠmiÃ°vikudag": 5536,
      "ĠkÃ¦mi": 5537,
      "ĠGÃŃsla": 5538,
      "Ã¦kur": 5539,
      "Ġerindi": 5540,
      "Ġefl": 5541,
      "Ġmesta": 5542,
      "Ġkeypti": 5543,
      "Ġrekstr": 5544,
      "Ġberi": 5545,
      "stum": 5546,
      "vis": 5547,
      "ĠfÃ©lags": 5548,
      "Ġreyndist": 5549,
      "ĠÃ¡kvarÃ°anir": 5550,
      "ĠUmhverfis": 5551,
      "ĠdÃ½": 5552,
      "ĠBel": 5553,
      "ĠLund": 5554,
      "ĠslÃŃkum": 5555,
      "ĠInter": 5556,
      "ĠmÃ¶guleg": 5557,
      "ĠStjarnan": 5558,
      "Ã¡Ã°herra": 5559,
      "ĠaÃ°dr": 5560,
      "Ġsinnar": 5561,
      "ĠGarÃ°a": 5562,
      "Ġsamhengi": 5563,
      "ena": 5564,
      "ĠatriÃ°i": 5565,
      "sÃŃ": 5566,
      "ĠniÃ°urskur": 5567,
      "ninnar": 5568,
      "ĠBirgi": 5569,
      "ahÃ¦": 5570,
      "Ġkvenn": 5571,
      "bak": 5572,
      "Ġsumir": 5573,
      "sÃ¡r": 5574,
      "lipp": 5575,
      "ĠÃºtl": 5576,
      "kennar": 5577,
      "ĠGrÃ©": 5578,
      "Ġreglum": 5579,
      "ĠbÃ¡rust": 5580,
      "ĠÃ¡skor": 5581,
      "ĠundirbÃºning": 5582,
      "ĠSigrÃºn": 5583,
      "ilt": 5584,
      "Ã¦kni": 5585,
      "ulegt": 5586,
      "ĠCar": 5587,
      "alaus": 5588,
      "ps": 5589,
      "Ġeinb": 5590,
      "ĠKÃ³pavog": 5591,
      "umenn": 5592,
      "bergi": 5593,
      "ĠVilhjÃ¡lmur": 5594,
      "Ġ2004": 5595,
      "ĠfulltrÃºar": 5596,
      "ĠÃ¾Ã¡tttÃ¶ku": 5597,
      "alÃ½Ã°": 5598,
      "ĠsjÃ¡lfst": 5599,
      "Ġforeldrar": 5600,
      "ĠfjÃ³rar": 5601,
      "ĠDagur": 5602,
      "Ġfagn": 5603,
      "Ġverkefnum": 5604,
      "armenn": 5605,
      "ĠaÃ°ildar": 5606,
      "ĠKaupÃ¾ings": 5607,
      "gerÃ°ar": 5608,
      "ington": 5609,
      "bein": 5610,
      "Ġbreytingum": 5611,
      "ĠOrkuveit": 5612,
      "rim": 5613,
      "Ġ,,": 5614,
      "leikum": 5615,
      "Ġveitingast": 5616,
      "herrar": 5617,
      "ĠSigfÃºsson": 5618,
      "hÃ³l": 5619,
      "ĠPet": 5620,
      "Ġson": 5621,
      "ĠAtlan": 5622,
      "ustig": 5623,
      "Ġbesti": 5624,
      "ĠviÃ°rÃ¦Ã°um": 5625,
      "asti": 5626,
      "ĠfjÃ³rir": 5627,
      "ĠBirna": 5628,
      "ern": 5629,
      "atriÃ°i": 5630,
      "bÃ³ta": 5631,
      "ĠstÃ©tt": 5632,
      "ĠsÃŃÃ°astliÃ°num": 5633,
      "lÃ¦ti": 5634,
      "ĠTÃ³mas": 5635,
      "Ġvitni": 5636,
      "ĠVestfjÃ¶rÃ°um": 5637,
      "ec": 5638,
      "ĠHeild": 5639,
      "ĠGrÃ¦n": 5640,
      "Ġsamskipti": 5641,
      "fum": 5642,
      "Ġskammt": 5643,
      "ĠsÃ¶muleiÃ°is": 5644,
      "ĠÃįslensk": 5645,
      "Ġvildu": 5646,
      "ĠRÃ¡s": 5647,
      "veig": 5648,
      "ĠHaukur": 5649,
      "ĠFar": 5650,
      "Ã¶fnun": 5651,
      "ĠlÃ½kur": 5652,
      "ĠrÃŃkinu": 5653,
      "taÃ°i": 5654,
      "Ġkirkj": 5655,
      "ĠÃ¡kveÃ°in": 5656,
      "Ã¶rygg": 5657,
      "ĠNjarÃ°": 5658,
      "ĠvÃ¶rur": 5659,
      "flyt": 5660,
      "ĠAlÃ¾jÃ³Ã°a": 5661,
      "ĠAngel": 5662,
      "ĠBÃŃ": 5663,
      "Ġferm": 5664,
      "Ġtengd": 5665,
      "ostnaÃ°ur": 5666,
      "sÃ½slu": 5667,
      "ĠÃ½mi": 5668,
      "ĠMal": 5669,
      "lad": 5670,
      "Ġtilheyr": 5671,
      "irÃ©ttur": 5672,
      "ĠstrÃ¡k": 5673,
      "ĠÃ¡t": 5674,
      "kjÃ¶rdÃ¦mi": 5675,
      "ĠSnÃ¦fell": 5676,
      "Ġhyggst": 5677,
      "ĠJÃ³hannesson": 5678,
      "Ġstefnum": 5679,
      "ĠVigdÃŃs": 5680,
      "ĠÃ¡kvÃ¦Ã°i": 5681,
      "eÃ°i": 5682,
      "skonar": 5683,
      "ĠgÃ¡": 5684,
      "ĠÃºrslitaleik": 5685,
      "ĠinnanrÃŃkis": 5686,
      "Ã¡nÃ¦g": 5687,
      "ssur": 5688,
      "eistarati": 5689,
      "ĠLag": 5690,
      "ĠÃ¾eirrar": 5691,
      "Ġerlendra": 5692,
      "ĠAnton": 5693,
      ".-": 5694,
      "ĠblaÃ°iÃ°": 5695,
      "Ġframhaldssk": 5696,
      "ĠfullorÃ°": 5697,
      "ĠSamkeppni": 5698,
      "bil": 5699,
      "ĠAkran": 5700,
      "Ġleikurinn": 5701,
      "ĠrÃ¦k": 5702,
      "Ġbens": 5703,
      "ĠHannes": 5704,
      "bÃºa": 5705,
      "ĠParÃŃs": 5706,
      "):": 5707,
      "za": 5708,
      "Ġskuldir": 5709,
      "Ġverkefna": 5710,
      "ĠferÃ°ast": 5711,
      "ĠÃ¾jÃ³nust": 5712,
      "ansi": 5713,
      "Ġforsvar": 5714,
      "ĠskoruÃ°u": 5715,
      "ĠÃ¾rett": 5716,
      "ĠÃºtflutning": 5717,
      "ĠfarÃ¾ega": 5718,
      "ĠSan": 5719,
      "Ġpunda": 5720,
      "frÃ¦Ã°ingar": 5721,
      "ĠDi": 5722,
      "fÃ©lags": 5723,
      "eigandi": 5724,
      "ĠSpÃ¡ni": 5725,
      "Ġfarin": 5726,
      "veiÃ°i": 5727,
      "ĠleiktÃŃÃ°": 5728,
      "ĠframkvÃ¦mdastjÃ³ra": 5729,
      "ĠÃºthlut": 5730,
      "ĠmarkaÃ°s": 5731,
      "ĠbÃ¦j": 5732,
      "ES": 5733,
      "Ġnefndarinnar": 5734,
      "stofn": 5735,
      "ĠmilljarÃ°": 5736,
      "ĠQ": 5737,
      "ĠMos": 5738,
      "ĠGa": 5739,
      "ĠaÃ°allega": 5740,
      "ĠÃ¾ingi": 5741,
      "ĠHÃºsa": 5742,
      "freÃ°": 5743,
      "ĠdÃ¡l": 5744,
      "ĠKana": 5745,
      "ĠhÃ¡tÃŃÃ°ar": 5746,
      "agjald": 5747,
      "ĠLÃ¶gregla": 5748,
      "ĠhÃ¡skÃ³la": 5749,
      "varna": 5750,
      "Ġmyndinni": 5751,
      "ĠEvrÃ³pusambandiÃ°": 5752,
      "ĠSa": 5753,
      "rÃŃku": 5754,
      "ĠaÃ°ferÃ°": 5755,
      "Ġvaxandi": 5756,
      "ĠLÃ¦k": 5757,
      "ĠglÃ¦s": 5758,
      "ĠAlÃ¾jÃ³Ã°": 5759,
      "ĠkÃŃlÃ³": 5760,
      "out": 5761,
      "ĠAtli": 5762,
      "ĠÃŀÃ³rÃ³lfur": 5763,
      "ĠstaÃ°festi": 5764,
      "ĠÃ³venju": 5765,
      "ĠBreiÃ°ablik": 5766,
      "ĠÃºtt": 5767,
      "ĠsÃ½ningar": 5768,
      "ĠMÃ¡": 5769,
      "efninu": 5770,
      "Ġmega": 5771,
      "Ġteljum": 5772,
      "Ġboltanum": 5773,
      "ĠbÃºn": 5774,
      "ĠFjÃ¡rmÃ¡la": 5775,
      "Ġaustan": 5776,
      "ĠsamiÃ°": 5777,
      "gjÃ¶ld": 5778,
      "ĠKv": 5779,
      "ĠIngÃ³lf": 5780,
      "runa": 5781,
      "arit": 5782,
      "Ġhent": 5783,
      "ĠÃ¡framhaldandi": 5784,
      "abar": 5785,
      "Ġmeng": 5786,
      "Ġlegg": 5787,
      "hlÃ©": 5788,
      "Ġyfirheyr": 5789,
      "fariÃ°": 5790,
      "ugÃ¦": 5791,
      "ĠbÃ¦jarins": 5792,
      "ĠnÃ¦stunni": 5793,
      "ĠfÃ©lagar": 5794,
      "ĠBarna": 5795,
      "Ã¶tt": 5796,
      "ĠseÃ°labank": 5797,
      "Ġnokkrir": 5798,
      "Ġhverjir": 5799,
      "ĠÃĿ": 5800,
      "rest": 5801,
      "ĠâĢľ": 5802,
      "ĠBjÃ¶rnsson": 5803,
      "ĠÃºtskÃ½r": 5804,
      "Ġbreyting": 5805,
      "ĠundirbÃºa": 5806,
      "ĠDonald": 5807,
      "byl": 5808,
      "isvar": 5809,
      "Ġmannsins": 5810,
      "ĠElÃŃn": 5811,
      "assa": 5812,
      "aflokki": 5813,
      "annar": 5814,
      "ĠmenntamÃ¡l": 5815,
      "ĠÃĸssur": 5816,
      "varÃºtveg": 5817,
      "ĠÃĵlafs": 5818,
      "iel": 5819,
      "Ġhlusta": 5820,
      "Ġsvokall": 5821,
      "Ġlanda": 5822,
      "grei": 5823,
      "ĠRÃºsslandi": 5824,
      "ĠhrÃ¦": 5825,
      "ĠÃŃtar": 5826,
      "Ġgreinilega": 5827,
      "ĠfrÃ¡bÃ¦rt": 5828,
      "Ġvexti": 5829,
      "launin": 5830,
      "ĠÃ¡hÃ¦ttu": 5831,
      "ĠÃŀÃ³rÃ°arson": 5832,
      "liÃ°iÃ°": 5833,
      "Ġkonan": 5834,
      "bragÃ°": 5835,
      "Ġhross": 5836,
      "Ġeigandi": 5837,
      "fellt": 5838,
      "ĠsjÃ³nvarps": 5839,
      "ĠfjÃ¡rfesting": 5840,
      "Ġ75": 5841,
      "ĠhÃ©raÃ°sdÃ³m": 5842,
      "Ġefnahags": 5843,
      "ĠhjÃºkrunarfrÃ¦Ã°": 5844,
      "uleika": 5845,
      "ford": 5846,
      "vÃŃg": 5847,
      "ĠTo": 5848,
      "ĠbrÃ¡Ã°a": 5849,
      "Ġnafni": 5850,
      "ĠBald": 5851,
      "Ġgrundvelli": 5852,
      "boriÃ°": 5853,
      "ĠGre": 5854,
      "sal": 5855,
      "Ġkrabbam": 5856,
      "ĠÃ¡stÃ¦Ã°u": 5857,
      "Ġreyndi": 5858,
      "Ġhorft": 5859,
      "ĠsjÃºkrahÃºs": 5860,
      "Ġstytt": 5861,
      "ĠvÃ©lar": 5862,
      "Ġrei": 5863,
      "ĠferÃ°aÃ¾jÃ³nust": 5864,
      "osta": 5865,
      "ĠnÃ¡i": 5866,
      "velt": 5867,
      "einsdÃ³ttir": 5868,
      "Ġnetinu": 5869,
      "ĠÃ¾ingsins": 5870,
      "ĠrÃ¡Ã°ist": 5871,
      "reglu": 5872,
      "ib": 5873,
      "Ġpeninga": 5874,
      "ĠkostnaÃ°ur": 5875,
      "eyma": 5876,
      "ĠlÃ¦gri": 5877,
      "Ġleyfa": 5878,
      "etu": 5879,
      "ĠtÃ¶lt": 5880,
      "ĠalÃ¾jÃ³Ã°a": 5881,
      "arfulltrÃº": 5882,
      "Ġbreyst": 5883,
      "ĠlÃ½sa": 5884,
      "ĠsÃ³larhring": 5885,
      "felld": 5886,
      "ĠlÃ©tu": 5887,
      "Ġnokkurn": 5888,
      "Ġ&": 5889,
      "Ġvinstri": 5890,
      "80": 5891,
      "ĠstjÃ³rnendur": 5892,
      "aviÃ°": 5893,
      "greind": 5894,
      "Ġvinnslu": 5895,
      "ĠmiÃ°nÃ¦tti": 5896,
      "Ġkjarn": 5897,
      "Ġflott": 5898,
      "ĠStjÃ³rnar": 5899,
      "ĠkjÃ¶rtÃŃmab": 5900,
      "amaÃ°urinn": 5901,
      "ĠAlexand": 5902,
      "nef": 5903,
      "svÃ¦Ã°inu": 5904,
      "ĠHÃ¦stirÃ©ttur": 5905,
      "Ġhreinlega": 5906,
      "ĠReykjavÃŃkurborgar": 5907,
      "Ã¾ingi": 5908,
      "ĠdauÃ°": 5909,
      "ĠÃģstr": 5910,
      "Ġsla": 5911,
      "ĠfrestaÃ°": 5912,
      "ĠbÃ³luset": 5913,
      "Ġeinhverjar": 5914,
      "Ġeinhverjir": 5915,
      "ĠaÃ°drag": 5916,
      "ĠgÃ¶ngu": 5917,
      "ĠmÃŃna": 5918,
      "ĠReykjavÃŃkurborg": 5919,
      "jarÃ°a": 5920,
      "Ġbol": 5921,
      "ĠsÃ¦r": 5922,
      "Ġeigendur": 5923,
      "Ġvalda": 5924,
      "Ġslag": 5925,
      "ĠtÃ¶lum": 5926,
      "ĠframbjÃ³Ã°": 5927,
      "ith": 5928,
      "ĠskilaÃ°i": 5929,
      "ĠJapan": 5930,
      "ĠskeiÃ°": 5931,
      "ÃŃÃ°i": 5932,
      "Ġbotn": 5933,
      "slÃ³": 5934,
      "ĠverksmiÃ°": 5935,
      "ĠSta": 5936,
      "bind": 5937,
      "ĠKÃ¶rfubolti": 5938,
      "ĠhjÃ¡lpar": 5939,
      "ĠlÃŃfeyrissjÃ³Ã°": 5940,
      "bÃºar": 5941,
      "stofunnar": 5942,
      "ĠskiliÃ°": 5943,
      "ĠlandbÃºnaÃ°ar": 5944,
      "FA": 5945,
      "Ġreyk": 5946,
      "frÃ¦": 5947,
      "ĠASÃį": 5948,
      "ĠrÃŃkja": 5949,
      "stÃ¦Ã°an": 5950,
      "Ġdraum": 5951,
      "ĠÃģsm": 5952,
      "ĠTel": 5953,
      "ĠVel": 5954,
      "rÃ¦na": 5955,
      "gÃ¦slu": 5956,
      "ĠverÃ°bÃ³lgu": 5957,
      "Ġkerfi": 5958,
      "Ġaugum": 5959,
      "ĠÃ¡rsfjÃ³rÃ°ungi": 5960,
      "ĠafsÃ¶k": 5961,
      "ĠskÃ½rslunni": 5962,
      "ĠJÃ³ns": 5963,
      "ĠmorÃ°": 5964,
      "jist": 5965,
      "pl": 5966,
      "slitak": 5967,
      "ĠÃĸll": 5968,
      "Ġbankanum": 5969,
      "ĠBla": 5970,
      "ĠsveitarstjÃ³rnar": 5971,
      "ĠÃ¡nÃ¦gju": 5972,
      "Ġholl": 5973,
      "atkvÃ¦Ã°agreiÃ°": 5974,
      "Ġrosalega": 5975,
      "ĠHlu": 5976,
      "ĠSveinsson": 5977,
      "AmerÃŃk": 5978,
      "kiÃ°": 5979,
      "Ġinnlend": 5980,
      "fÃ¦ra": 5981,
      "Ġendursk": 5982,
      "Ġsamkomulagi": 5983,
      "fÃ¦rslu": 5984,
      "ĠhlÃ½tur": 5985,
      "ĠjÃ¶rÃ°": 5986,
      "nni": 5987,
      "ĠfrumsÃ½": 5988,
      "Ġkemst": 5989,
      "ĠEyj": 5990,
      "Ġmannesk": 5991,
      "stjÃ³rnin": 5992,
      "ĠlÃº": 5993,
      "Ġsamtakanna": 5994,
      "ĠFÃ¡": 5995,
      "ĠveiÃ°i": 5996,
      "ĠtryggÃ°i": 5997,
      "ĠHelgason": 5998,
      "ĠHK": 5999,
      "vop": 6000,
      "Ġrannsaka": 6001,
      "Ġloknum": 6002,
      "Ġmuna": 6003,
      "ĠÃ¶Ã°ruvÃŃsi": 6004,
      "24": 6005,
      "ĠtÃŃmum": 6006,
      "Ġvekja": 6007,
      "ĠeÃ°li": 6008,
      "bÃ¡": 6009,
      "vil": 6010,
      "ĠRÃ³ber": 6011,
      "ĠHeimir": 6012,
      "de": 6013,
      "aframleiÃ°": 6014,
      "staÃ°an": 6015,
      "auka": 6016,
      "ĠÃŀrÃŃ": 6017,
      "ĠÃ¦tlu": 6018,
      "ĠEnginn": 6019,
      "minn": 6020,
      "ĠgrunnskÃ³la": 6021,
      "marsson": 6022,
      "Af": 6023,
      "ĠÃ¡kÃ¦ru": 6024,
      "Ġansi": 6025,
      "issa": 6026,
      "nÃº": 6027,
      "ÃŃnar": 6028,
      "unefnd": 6029,
      "ĠGarÃ°ar": 6030,
      "ĠSA": 6031,
      "ĠstjÃ³rnarformaÃ°ur": 6032,
      "ĠSuÃ°urlands": 6033,
      "ĠlÃ½sir": 6034,
      "ĠStaÃ°an": 6035,
      "hlutar": 6036,
      "ĠNet": 6037,
      "ĠrÃ¡Ã°ast": 6038,
      "ĠObama": 6039,
      "merki": 6040,
      "ĠvarÃ°i": 6041,
      "Ã³g": 6042,
      "ani": 6043,
      "ĠfÃ¶studaginn": 6044,
      "Ġmeg": 6045,
      "Ġsamninga": 6046,
      "ĠRagnheiÃ°ur": 6047,
      "Ġvara": 6048,
      "ĠskÃ½rt": 6049,
      "ĠÃºtsendingu": 6050,
      "ĠmÃ³tmÃ¦la": 6051,
      "vegis": 6052,
      "ĠHo": 6053,
      "Ġrekur": 6054,
      "ĠHÃ³lm": 6055,
      "ĠsamanboriÃ°": 6056,
      "ĠframtÃŃÃ°inni": 6057,
      "ĠheilbrigÃ°isrÃ¡Ã°herra": 6058,
      "ĠÃģÃ°ur": 6059,
      "lÃ¦knir": 6060,
      "ĠsjÃ³Ã°sins": 6061,
      "Ġmorg": 6062,
      "jÃºkdÃ³m": 6063,
      "ĠvandrÃ¦Ã°um": 6064,
      "Ġreglulega": 6065,
      "Ġskyldi": 6066,
      "verslun": 6067,
      "ĠPalest": 6068,
      "Ġumfangsm": 6069,
      "ĠsÃ½n": 6070,
      "Ã¾rÃ³un": 6071,
      "ĠprÃ³fessor": 6072,
      "ĠgrÃ¦nna": 6073,
      "afÃ©lags": 6074,
      "junnar": 6075,
      "ino": 6076,
      "Ġvantar": 6077,
      "Ġtengist": 6078,
      "ĠKom": 6079,
      "ĠGunnlaugsson": 6080,
      "Ġhinu": 6081,
      "Ġframmist": 6082,
      "ilegur": 6083,
      "ĠhjÃ³l": 6084,
      "Ġleikir": 6085,
      "angur": 6086,
      "ĠÃ¾urr": 6087,
      "ĠorÃ°um": 6088,
      "ĠJames": 6089,
      "Ġfluttur": 6090,
      "hÃ¶llinni": 6091,
      "dagur": 6092,
      "ĠGlitnis": 6093,
      "Ã°un": 6094,
      "Ãºgal": 6095,
      "ĠbÃ¶n": 6096,
      "ĠX": 6097,
      "Ġleikmanna": 6098,
      "amÃ¡lum": 6099,
      "sneyti": 6100,
      "ĠpÃ¡": 6101,
      "Ġvernd": 6102,
      "ĠskÃ¡ld": 6103,
      "ĠlÃ¶greglumenn": 6104,
      "Ġaukast": 6105,
      "ĠMun": 6106,
      "ĠsetiÃ°": 6107,
      "ĠÃŀÃ³rdÃŃs": 6108,
      "ĠFjÃ¡rmÃ¡laeftirlit": 6109,
      "fÃ©laga": 6110,
      "ĠhÃ³pnum": 6111,
      "ĠÃºtb": 6112,
      "Ġteik": 6113,
      "Ġstefnir": 6114,
      "ĠlÃ¶gin": 6115,
      "saldri": 6116,
      "Ġstarfsmann": 6117,
      "ĠÃ½mislegt": 6118,
      "ĠSverri": 6119,
      ",âĢĿ": 6120,
      "iz": 6121,
      "ĠSund": 6122,
      "ĠkÃŃnver": 6123,
      "ĠfÃ¡tÃ¦k": 6124,
      "ĠbÃ¦jarstjÃ³ri": 6125,
      "ĠHÃ¶rÃ°ur": 6126,
      "ĠÃºtlend": 6127,
      "ekjur": 6128,
      "Ġhreins": 6129,
      "Ġeignast": 6130,
      "Ġsmi": 6131,
      "ĠNÃ½ja": 6132,
      "Ġathugasemdir": 6133,
      "ĠleikskÃ³l": 6134,
      "burg": 6135,
      "bjÃ¶rnsson": 6136,
      "Ġefnum": 6137,
      "Ãºnn": 6138,
      "ĠgÃ¶gnum": 6139,
      "ĠtÃ³m": 6140,
      "ĠfjÃ¶lga": 6141,
      "ĠÃ½mis": 6142,
      "ĠsÃ¶kum": 6143,
      "van": 6144,
      "Ġinnflutning": 6145,
      "lagt": 6146,
      "hneig": 6147,
      "Ġskemmtilegt": 6148,
      "ĠHaukar": 6149,
      "ĠsÃ½ndi": 6150,
      "lÃ¡ss": 6151,
      "ĠAftur": 6152,
      "ĠbjÃ¶rgunar": 6153,
      "ĠÃ¾inginu": 6154,
      "ĠVegagerÃ°": 6155,
      "Ġvirkilega": 6156,
      "Ġsjald": 6157,
      "ĠhraÃ°a": 6158,
      "ĠgÃ¶mlu": 6159,
      "ĠHjal": 6160,
      "Ġvelli": 6161,
      "Ġmerki": 6162,
      "Ġnokkru": 6163,
      "ĠsigraÃ°i": 6164,
      "Ãºbb": 6165,
      "Ġsamskiptum": 6166,
      "ĠHeiÃ°": 6167,
      "ĠhjÃºkrunar": 6168,
      "Ġtengsl": 6169,
      "ĠbÃ½Ã°ur": 6170,
      "ĠSkot": 6171,
      "ĠKaupmanna": 6172,
      "JÃ¡": 6173,
      "Ġfyrirkomulag": 6174,
      "Ġtung": 6175,
      "ĠÃºrslitak": 6176,
      "ĠevrÃ³p": 6177,
      "ĠLeikurinn": 6178,
      "ĠHalldÃ³rsson": 6179,
      "nesi": 6180,
      "Ġoddvi": 6181,
      "ĠfjÃ¶lmarg": 6182,
      "Ġspyrja": 6183,
      "Ġsamningar": 6184,
      "ĠÃºtboÃ°": 6185,
      "lat": 6186,
      "ĠfljÃ³tt": 6187,
      "ĠÃ¡kveÃ°a": 6188,
      "ĠfjÃ¡rmÃ¡la": 6189,
      "ĠÃŃbÃºÃ°ir": 6190,
      "ĠSÃ¦var": 6191,
      "Ġstrand": 6192,
      "Ġ2003": 6193,
      "atilkyn": 6194,
      "ĠmÃ¡ls": 6195,
      "daga": 6196,
      "Ġbyggt": 6197,
      "ĠeigiÃ°": 6198,
      "ĠgÃ¦ta": 6199,
      "ĠUndir": 6200,
      "Ġleiddi": 6201,
      "ĠbjartsÃ½": 6202,
      "uÃ°vitaÃ°": 6203,
      "ĠSpur": 6204,
      "ĠtÃºl": 6205,
      "amÃ¡la": 6206,
      "aleiÃ°": 6207,
      "ĠTr": 6208,
      "ileikar": 6209,
      "ĠIngvar": 6210,
      "ĠfjÃ¡rmÃ¡lafyrirtÃ¦k": 6211,
      "ĠÃ¡lver": 6212,
      "lista": 6213,
      "jarnar": 6214,
      "ĠumrÃ¦Ã°a": 6215,
      "ĠhÃ¦li": 6216,
      "Ġkeppa": 6217,
      "emÃ³k": 6218,
      "ĠÃ¾ekkt": 6219,
      "ĠMarkmiÃ°": 6220,
      "ĠSveit": 6221,
      "ĠhryÃ°juverk": 6222,
      "OW": 6223,
      "ĠsÃ¦tiÃ°": 6224,
      "Ġgraf": 6225,
      "Ġendilega": 6226,
      "ĠdÃ³mara": 6227,
      "fyrirtÃ¦ki": 6228,
      "leikur": 6229,
      "holt": 6230,
      "Ġliggi": 6231,
      "ĠbyrjaÃ°": 6232,
      "ĠslÃŃkar": 6233,
      "Ġstunda": 6234,
      "stofnun": 6235,
      "ĠÃģkv": 6236,
      "ĠÃ¾rjÃ¡tÃŃu": 6237,
      "ĠmiÃ°a": 6238,
      "TA": 6239,
      "fice": 6240,
      "rÃ¦ti": 6241,
      "Ġungm": 6242,
      "Ġmetin": 6243,
      "ĠVilhjÃ¡lm": 6244,
      "ldar": 6245,
      "ĠbjÃ³": 6246,
      "ĠtrÃºn": 6247,
      "Ġafhent": 6248,
      "ĠferÃ°ir": 6249,
      "lason": 6250,
      "Ãºtg": 6251,
      "alÃ¶g": 6252,
      "Ġfagna": 6253,
      "ĠFrÃ©ttablaÃ°sins": 6254,
      "Ġeigna": 6255,
      "aul": 6256,
      "Ġhva": 6257,
      "narl": 6258,
      "argerÃ°": 6259,
      "ĠBÃ³k": 6260,
      "ÃŃfa": 6261,
      "kerfiÃ°": 6262,
      "Ġkveik": 6263,
      "mu": 6264,
      "ĠrÃ¦Ã°u": 6265,
      "Ã³Ã°ur": 6266,
      "Ġflokkurinn": 6267,
      "ĠrÃ©": 6268,
      "Ġleig": 6269,
      "aldurinn": 6270,
      "Ġmissti": 6271,
      "tiÃ°": 6272,
      "ĠleiÃ°to": 6273,
      "ĠViÃ°ar": 6274,
      "ĠsÃ³kn": 6275,
      "ĠsjÃ³narmiÃ°": 6276,
      "'s": 6277,
      "ron": 6278,
      "vu": 6279,
      "ĠSviss": 6280,
      "ĠSamtÃ¶k": 6281,
      "ĠThor": 6282,
      "Ġsker": 6283,
      "konu": 6284,
      "ĠÃ¡Ã¦tlaÃ°": 6285,
      "Ġkenna": 6286,
      "garÃ°": 6287,
      "ĠPÃ©tursson": 6288,
      "juna": 6289,
      "ĠkosiÃ°": 6290,
      "tÃ¶kur": 6291,
      "Ġeftirspurn": 6292,
      "ĠboÃ°aÃ°": 6293,
      "ĠVegna": 6294,
      "ilinu": 6295,
      "ĠhÃ¶nnun": 6296,
      "Ġrefs": 6297,
      "ĠAlfreÃ°": 6298,
      "tÃ³": 6299,
      "ĠTor": 6300,
      "Ġvarla": 6301,
      "Ġmyr": 6302,
      "hrepp": 6303,
      "alist": 6304,
      "unga": 6305,
      "Ġtvisvar": 6306,
      "ĠvÃŃst": 6307,
      "lunni": 6308,
      "ĠSlÃŃk": 6309,
      "Ġandlit": 6310,
      "ĠgÃ¶mul": 6311,
      "ĠlandsliÃ°inu": 6312,
      "ĠFÃ©lagiÃ°": 6313,
      "Ġfundist": 6314,
      "Ġlangar": 6315,
      "ĠauÃ°velt": 6316,
      "ĠElÃŃs": 6317,
      "arÃ¶Ã°": 6318,
      "ĠSeÃ°labankinn": 6319,
      "framleiÃ°slu": 6320,
      "dÃ¡": 6321,
      "Ġsvari": 6322,
      "reiÃ°slu": 6323,
      "Ġhjarta": 6324,
      "Ã¶ndunum": 6325,
      "aldursins": 6326,
      "ĠKeflavÃŃkurflug": 6327,
      "ĠveiÃ°a": 6328,
      "ĠÃģstral": 6329,
      "ĠfjÃ¶lbreytt": 6330,
      "ĠeyÃ°": 6331,
      "skt": 6332,
      "ĠKÃ¡ra": 6333,
      "ĠskjÃ¡lft": 6334,
      "prÃ³f": 6335,
      "Ġgefin": 6336,
      "Ġlitlu": 6337,
      "ĠHaraldur": 6338,
      "aÃ°inn": 6339,
      "Ġvellinum": 6340,
      "ĠÃ¶f": 6341,
      "smark": 6342,
      "ĠRÃ©tt": 6343,
      "Ġaukning": 6344,
      "ĠfrumvarpiÃ°": 6345,
      "arfulltrÃºi": 6346,
      "Ġframundan": 6347,
      "ĠDanÃŃel": 6348,
      "ashington": 6349,
      "ĠbaÃ°": 6350,
      "Ġfengum": 6351,
      "ĠsannfÃ¦r": 6352,
      "ĠverÃ°mÃ¦ti": 6353,
      "Ġdanska": 6354,
      "Ġsamningi": 6355,
      "Ġhinna": 6356,
      "jÃ¶rnu": 6357,
      "ĠsjÃ¡lfu": 6358,
      "55": 6359,
      "ĠforstÃ¶Ã°umaÃ°ur": 6360,
      "ĠhafnaÃ°i": 6361,
      "ungar": 6362,
      "Ġlitla": 6363,
      "ĠfrÃ¦g": 6364,
      "ĠÃĵlympÃŃu": 6365,
      "ĠmjÃ³l": 6366,
      "ĠMi": 6367,
      "alegt": 6368,
      "Ġlifa": 6369,
      "ĠÃ¡fengis": 6370,
      "ĠÃºtilok": 6371,
      "ĠfatlaÃ°": 6372,
      "ĠmÃº": 6373,
      "ĠtÃ¶f": 6374,
      "otiÃ°": 6375,
      "ĠÃŀrÃŃr": 6376,
      "ĠAÃ°eins": 6377,
      "27": 6378,
      "Ġmatar": 6379,
      "ĠSuÃ°urnesjum": 6380,
      "ĠÃ¾yng": 6381,
      "ĠÃ³breytt": 6382,
      "Ġ44": 6383,
      "vint": 6384,
      "Ġstuttu": 6385,
      "ĠupplÃ½singa": 6386,
      "Ġsigurinn": 6387,
      "ĠnÃ½justu": 6388,
      "ĠFyrirtÃ¦kiÃ°": 6389,
      "Ġsner": 6390,
      "ĠaÃ°draganda": 6391,
      "ĠmÃ¦ttu": 6392,
      "Ġsamningum": 6393,
      "ĠbreiÃ°": 6394,
      "ĠSÃ½rlandi": 6395,
      "Ġhlutverki": 6396,
      "ĠHÃ¦starÃ©ttar": 6397,
      "Ġeit": 6398,
      "leysi": 6399,
      "Ġkostur": 6400,
      "Ġband": 6401,
      "ĠvÃ¶ll": 6402,
      "ĠBragi": 6403,
      "ĠhafnaÃ°": 6404,
      "ĠfÃ¦dd": 6405,
      "ĠmÃ¦ldist": 6406,
      "ĠKSÃį": 6407,
      "nalÃ¦k": 6408,
      "ĠRÃŃkisÃºtvarp": 6409,
      "ĠÃ¾ingiÃ°": 6410,
      "fÃ©lagi": 6411,
      "Ġgreiningar": 6412,
      "ĠHÃ³p": 6413,
      "Ġgjarnan": 6414,
      "ĠWashington": 6415,
      "ĠstÃŃga": 6416,
      "Ġdyr": 6417,
      "Ġreynst": 6418,
      "ĠvinnumarkaÃ°i": 6419,
      "ĠhrÃ¡": 6420,
      "mÃº": 6421,
      "ĠGuÃ°jÃ³nsson": 6422,
      "Ġyfirgef": 6423,
      "ĠKÃŃnver": 6424,
      "Ġkunnu": 6425,
      "ĠÃ¡hersla": 6426,
      "ĠskipiÃ°": 6427,
      "Ġhelmingur": 6428,
      "Ġ43": 6429,
      "ĠsamfÃ©lagiÃ°": 6430,
      "ĠÃįbÃºÃ°": 6431,
      "ĠskÃ³lans": 6432,
      "ĠstarfaÃ°i": 6433,
      "ĠrÃºmum": 6434,
      "ĠEd": 6435,
      "Ġspor": 6436,
      "ĠWOW": 6437,
      "ĠCap": 6438,
      "ĠfÃ¶rum": 6439,
      "ĠÃ¾Ã¦ttinum": 6440,
      "Ġbyrjunar": 6441,
      "ĠsextÃ¡n": 6442,
      "ĠlÃ³Ã°": 6443,
      "ĠatkvÃ¦Ã°a": 6444,
      "amÃŃn": 6445,
      "ĠmiÃ°borg": 6446,
      "Ġmeirihluti": 6447,
      "Ġtelji": 6448,
      "--": 6449,
      "Ġframlag": 6450,
      "Ġspjald": 6451,
      "ros": 6452,
      "Ġbyggingu": 6453,
      "seta": 6454,
      "nattleik": 6455,
      "Ġtryggt": 6456,
      "ĠvÃ¦n": 6457,
      "Ġhandteknir": 6458,
      "Ġleikhluta": 6459,
      "ĠAndre": 6460,
      "Ġgerum": 6461,
      "ĠNBA": 6462,
      "astarf": 6463,
      "Ġrennur": 6464,
      "ĠBara": 6465,
      "Ġsta": 6466,
      "Ġvet": 6467,
      "Ġframh": 6468,
      "arson": 6469,
      "Ġformi": 6470,
      "ĠFran": 6471,
      "ofu": 6472,
      "Ġauknum": 6473,
      "ĠtÃ¶lvupÃ³": 6474,
      "frÃ©ttum": 6475,
      "ĠafsÃ¶kunar": 6476,
      "ĠheilbrigÃ°isk": 6477,
      "Ġpar": 6478,
      "ĠhliÃ°ar": 6479,
      "ĠÃŃbÃºÃ°a": 6480,
      "Ġkennslu": 6481,
      "Ġhvetja": 6482,
      "ĠstÃ¶Ã°unni": 6483,
      "Ġ65": 6484,
      "Ġkaffi": 6485,
      "Ġken": 6486,
      "ĠfjÃ¶lgun": 6487,
      "ĠRafn": 6488,
      "ĠÃŀarna": 6489,
      "ĠfÃ³rum": 6490,
      "ĠstofnaÃ°": 6491,
      "Ġvaxta": 6492,
      "ĠfjÃ¶lmiÃ°lar": 6493,
      "ĠVon": 6494,
      "ĠsamÃ¾ykki": 6495,
      "Ġsekt": 6496,
      "ĠFrÃ©ttablaÃ°inu": 6497,
      "Ġsafna": 6498,
      "Ġmundir": 6499,
      "ĠstarfsfÃ³lki": 6500,
      "ĠsÃ©um": 6501,
      "bi": 6502,
      "lendis": 6503,
      "ĠferÃ°inni": 6504,
      "ĠÃļkraÃŃnu": 6505,
      "ĠskÃ½ra": 6506,
      "ĠrÃ¡Ã°iÃ°": 6507,
      "Ġstopp": 6508,
      "ÃŃni": 6509,
      "ĠlÃŃtur": 6510,
      "ĠMag": 6511,
      "ynt": 6512,
      "ĠtapaÃ°": 6513,
      "Ġvissi": 6514,
      "ellum": 6515,
      "ĠgripiÃ°": 6516,
      "ĠgrÃ³Ã°ur": 6517,
      "ĠEngin": 6518,
      "ĠÃ¡lyktun": 6519,
      "Ġbilinu": 6520,
      "hit": 6521,
      "emÃ³kra": 6522,
      "ĠlÃŃn": 6523,
      "afrumvarp": 6524,
      "ĠÃ¾jÃ³Ã°aratkvÃ¦Ã°agreiÃ°": 6525,
      "Ãŀegar": 6526,
      "ĠnÃ½veriÃ°": 6527,
      "oli": 6528,
      "ĠprÃ³sentum": 6529,
      "ĠSamkeppniseftirlit": 6530,
      "ĠJÃ³nas": 6531,
      "ĠFlokk": 6532,
      "ĠhÃºssins": 6533,
      "Ġkarlar": 6534,
      "Ġmeidd": 6535,
      "ore": 6536,
      "verÃ°s": 6537,
      "Ġforskot": 6538,
      "Ġteknar": 6539,
      "Ġmisst": 6540,
      "ĠfjÃ¶lmÃ¶r": 6541,
      "ĠÃ¾Ã¡tttak": 6542,
      "ĠandstÃ¦Ã°": 6543,
      "Ã¦Ã°isins": 6544,
      "ĠkÃ¶rfubolta": 6545,
      "ĠPat": 6546,
      "Ġlest": 6547,
      "vall": 6548,
      "ĠBandarÃŃkjafor": 6549,
      "Ã¾Ã½": 6550,
      "AÃ°": 6551,
      "ĠDom": 6552,
      "Ġkomum": 6553,
      "Ġheimilis": 6554,
      "ĠauÃ°lind": 6555,
      "Ġinnflyt": 6556,
      "ĠfÃ©lÃ¶gum": 6557,
      "ĠSmÃ¡ri": 6558,
      "ĠTryggvi": 6559,
      "Ġskynd": 6560,
      "ĠafleiÃ°ingar": 6561,
      "ĠslÃŃka": 6562,
      "jÃ³nar": 6563,
      "ĠfrÃ©ttatilkyn": 6564,
      "ĠMÃ³t": 6565,
      "ĠVals": 6566,
      "Ġnorska": 6567,
      "ĠlÃ¦kna": 6568,
      "ĠbrjÃ³ta": 6569,
      "Ġtekinn": 6570,
      "Ġskipuleg": 6571,
      "ĠÃ³vÃ¦nt": 6572,
      "Ã¾ings": 6573,
      "Ġreikning": 6574,
      "vent": 6575,
      "ĠsjÃ¡lfs": 6576,
      "lass": 6577,
      "ĠÃ¾rettÃ¡n": 6578,
      "Ġbana": 6579,
      "hÃºssins": 6580,
      "ha": 6581,
      "afla": 6582,
      "Ġdan": 6583,
      "Ġefn": 6584,
      "lÃ¡t": 6585,
      "hÃºsnÃ¦Ã°i": 6586,
      "ĠnÃ½rra": 6587,
      "ĠbÃŃlum": 6588,
      "dÃ¶gum": 6589,
      "ĠHe": 6590,
      "ĠdÃ¡": 6591,
      "yp": 6592,
      "ardi": 6593,
      "ĠnÃŃ": 6594,
      "ĠHjÃ¡": 6595,
      "Ġkosningum": 6596,
      "ĠÃ½msu": 6597,
      "ĠRÃºsslands": 6598,
      "ĠviÃ°kvÃ¦m": 6599,
      "office": 6600,
      "ĠlÃ¶gÃ°u": 6601,
      "efnilega": 6602,
      "illinn": 6603,
      "Ġselt": 6604,
      "Ġheyrt": 6605,
      "brÃºn": 6606,
      "Ġfundinn": 6607,
      "ĠsÃ©rstakt": 6608,
      "sfor": 6609,
      "ĠNjarÃ°vÃŃk": 6610,
      "Ġfalli": 6611,
      "rast": 6612,
      "ane": 6613,
      "ĠVÃŃsis": 6614,
      "ĠtÃŃmabiliÃ°": 6615,
      "ĠbeiÃ°ni": 6616,
      "ĠloÃ°nu": 6617,
      "ĠstjÃ³rnvÃ¶ldum": 6618,
      "ĠbrugÃ°ist": 6619,
      "ĠÃŃslenskt": 6620,
      "ĠsvaraÃ°i": 6621,
      "ĠIs": 6622,
      "arins": 6623,
      "Ġvekur": 6624,
      "Ġleikmann": 6625,
      "ĠborÃ°a": 6626,
      "ĠdÃ½ra": 6627,
      "ĠÃ¡fang": 6628,
      "ĠSegir": 6629,
      "ĠmÃ¡lin": 6630,
      "ĠviÃ°hald": 6631,
      "Ġmanninn": 6632,
      "vÃŃst": 6633,
      "Ġfelst": 6634,
      "afÃ©lagsins": 6635,
      "ĠRÃ³bert": 6636,
      "Ġvaf": 6637,
      "ĠFerÃ°": 6638,
      "ĠopiÃ°": 6639,
      "Ã¶skuld": 6640,
      "tÃ¦ki": 6641,
      "ĠalvÃ¶ru": 6642,
      "sagt": 6643,
      "ĠHildur": 6644,
      "Ġkynnti": 6645,
      "gaÃ°i": 6646,
      "Ã¶rÃ°ur": 6647,
      "Ġhanda": 6648,
      "bÃ¦num": 6649,
      "ensen": 6650,
      "Ġskim": 6651,
      "ĠÃ¾Ã½ska": 6652,
      "ĠdauÃ°a": 6653,
      "ĠÃŀrÃ³": 6654,
      ".âĢĿ": 6655,
      "Ġlenda": 6656,
      "ĠÃ½msar": 6657,
      "Ã¶sk": 6658,
      "spil": 6659,
      "ĠHS": 6660,
      "Ġbyggir": 6661,
      "sbreyt": 6662,
      "ĠSiglu": 6663,
      "ĠvaliÃ°": 6664,
      "ĠgrunaÃ°ur": 6665,
      "Ġbjarga": 6666,
      "ĠLogi": 6667,
      "Ġstarfs": 6668,
      "Ġfrem": 6669,
      "ĠÃ¡rlega": 6670,
      "ĠPh": 6671,
      "ĠÃŃmynd": 6672,
      "Ġnefnilega": 6673,
      "ĠleiÃ°andi": 6674,
      "ĠHeiÃ°ar": 6675,
      "ĠFyrsta": 6676,
      "Ġtillit": 6677,
      "Ġbenti": 6678,
      "ĠHÃ¶rpu": 6679,
      "birg": 6680,
      "arÃ°i": 6681,
      "restur": 6682,
      "ĠValdim": 6683,
      "ĠStjÃ³rnvÃ¶ld": 6684,
      "Ġvirtist": 6685,
      "atur": 6686,
      "IS": 6687,
      "Ġalvarleg": 6688,
      "ĠNÃ¦": 6689,
      "Ġris": 6690,
      "ĠnÃ¡mskeiÃ°": 6691,
      "ĠTimes": 6692,
      "ĠhÃ¦gri": 6693,
      "ĠÃ¾riÃ°jung": 6694,
      "ĠMichael": 6695,
      "ĠÃ¾ekkja": 6696,
      "Ġfyrirmynd": 6697,
      "ĠmÃ¶gulegt": 6698,
      "ĠfjÃ³rtÃ¡n": 6699,
      "aÃ°gerÃ°ir": 6700,
      "ĠÃ¡tak": 6701,
      "ĠCon": 6702,
      "Ġhelsta": 6703,
      "leif": 6704,
      "indast": 6705,
      "ĠfÃ¶Ã°ur": 6706,
      "ĠleiÃ°rÃ©tt": 6707,
      "ĠKanada": 6708,
      "gerÃ°um": 6709,
      "ĠverkiÃ°": 6710,
      "Ġfyll": 6711,
      "ĠbensÃŃn": 6712,
      "Ġeinst": 6713,
      "jÃ¶ri": 6714,
      "linu": 6715,
      "ĠmÃ¡tti": 6716,
      "ĠSil": 6717,
      "slÃ¶greglustjÃ³ra": 6718,
      "alÃ¡nas": 6719,
      "alandsliÃ°": 6720,
      "ĠfÃ³lksins": 6721,
      "Ġ2000": 6722,
      "Ġ39": 6723,
      "ĠEim": 6724,
      "ĠspÃ¡Ã°": 6725,
      "ĠskuldabrÃ©f": 6726,
      "Ġraforku": 6727,
      "ĠfÃŃn": 6728,
      "ennum": 6729,
      "atriÃ°": 6730,
      "Ġleitar": 6731,
      "amik": 6732,
      "Ġtalsins": 6733,
      "ĠplÃ¶tu": 6734,
      "ĠlandsbyggÃ°": 6735,
      "mÃ¦lum": 6736,
      "jalla": 6737,
      "ĠlÃ¦tur": 6738,
      "Ġkynsl": 6739,
      "lah": 6740,
      "ĠSara": 6741,
      "taki": 6742,
      "ĠÃ³Ã¡nÃ¦g": 6743,
      "ĠJakobsdÃ³ttir": 6744,
      "Ġloks": 6745,
      "ĠVÃŃsir": 6746,
      "Ġgrundvallar": 6747,
      "Ã¶flum": 6748,
      "fjÃ¶l": 6749,
      "ĠFjÃ¶ldi": 6750,
      "Ġsamdr": 6751,
      "finu": 6752,
      "ĠBandarÃŃkjamenn": 6753,
      "tÃ¶lu": 6754,
      "legg": 6755,
      "Ġkast": 6756,
      "ĠÃ¾rÃ½st": 6757,
      "kku": 6758,
      "ĠutanrÃŃkisrÃ¡Ã°": 6759,
      "ĠBreta": 6760,
      "Ġbrag": 6761,
      "Ġnokkurra": 6762,
      "Ġheimildir": 6763,
      "hreyf": 6764,
      "ĠBol": 6765,
      "arfÃ©lÃ¶g": 6766,
      "bÃºiÃ°": 6767,
      "ĠstÃ¶Ã°va": 6768,
      "Ã³lu": 6769,
      "ĠPortÃºgal": 6770,
      "ĠaÃ°stoÃ°a": 6771,
      "ĠopnaÃ°": 6772,
      "ask": 6773,
      "ĠleikmÃ¶nnum": 6774,
      "Ġungling": 6775,
      "ĠNA": 6776,
      "ĠHafnarfjarÃ°ar": 6777,
      "ĠÃ¾ekkingu": 6778,
      "ĠstÃ³ran": 6779,
      "Ġtrygging": 6780,
      "ĠniÃ°urstaÃ°an": 6781,
      "ĠhjÃ³n": 6782,
      "ĠÃŀÃ³tt": 6783,
      "ĠMu": 6784,
      "Ġgeim": 6785,
      "anak": 6786,
      "vÃŃsu": 6787,
      "ĠrÃ¦Ã°ir": 6788,
      "ĠatkvÃ¦Ã°agreiÃ°": 6789,
      "ĠChrist": 6790,
      "aÃ°arins": 6791,
      "ĠvÃŃsa": 6792,
      "ĠtÃ¦pum": 6793,
      "ĠEigandi": 6794,
      "Ġkeyra": 6795,
      "ĠtÃ³nleika": 6796,
      "Ġvonum": 6797,
      "ĠbrÃº": 6798,
      "Ġkosninga": 6799,
      "Ġpla": 6800,
      "ĠfordÃ¦m": 6801,
      "ĠAuÃ°": 6802,
      "Ġhina": 6803,
      "ldi": 6804,
      "veld": 6805,
      "Ã°ra": 6806,
      "ĠEimskip": 6807,
      "Ġsetur": 6808,
      "?âĢľ": 6809,
      "tas": 6810,
      "leiki": 6811,
      "ĠfarÃ¾eg": 6812,
      "ĠHlyn": 6813,
      "Ġsof": 6814,
      "ĠÃ¶l": 6815,
      "Ġhorn": 6816,
      "ĠmÃ³tiÃ°": 6817,
      "ĠLeiÃ°": 6818,
      "ĠLitur": 6819,
      "ĠÃ¡frÃ½": 6820,
      "ĠflugvÃ©l": 6821,
      "ĠstuÃ°ningi": 6822,
      "ĠÃ¡stÃ¦Ã°": 6823,
      "Ġlyfja": 6824,
      "ĠmÃ¦tast": 6825,
      "aÃ°num": 6826,
      "ĠPÃŃrata": 6827,
      "Ġstefn": 6828,
      "Ġtilvikum": 6829,
      "ĠsamgÃ¶ngur": 6830,
      "ĠheiÃ°ur": 6831,
      "ĠGau": 6832,
      "ĠGrÃ³": 6833,
      "ĠkÃ¦ra": 6834,
      "Ġstarfandi": 6835,
      "ĠÃ¡ratugi": 6836,
      "ĠmikilvÃ¦gi": 6837,
      "Ã¦kkun": 6838,
      "ĠLandhelgisgÃ¦slunnar": 6839,
      "orm": 6840,
      "ĠfÃ©llu": 6841,
      "Ġ196": 6842,
      "ahÃ¡": 6843,
      "Ã¦Ã°ar": 6844,
      "eift": 6845,
      "Ġveldur": 6846,
      "ĠaÃ°stÃ¦Ã°um": 6847,
      "undurinn": 6848,
      "shlut": 6849,
      "Ġfangelsis": 6850,
      "skoÃ°un": 6851,
      "ĠnotuÃ°": 6852,
      "ĠLiÃ°iÃ°": 6853,
      "Ġborgara": 6854,
      "ĠStraum": 6855,
      "Ã°aust": 6856,
      "ĠÃ¡kÃ¦rÃ°ur": 6857,
      "Ġtagi": 6858,
      "ĠmeÃ°ferÃ°ar": 6859,
      "ĠdÃ³msmÃ¡larÃ¡Ã°herra": 6860,
      "Ã°iÃ°": 6861,
      "ĠÃŀorsteinsson": 6862,
      "Ġgeym": 6863,
      "Ġleyf": 6864,
      "ĠafgreiÃ°slu": 6865,
      "ĠEva": 6866,
      "rautar": 6867,
      "ĠhÃ¶ggum": 6868,
      "asafn": 6869,
      "ĠrÃºmar": 6870,
      "ĠskÃ¶p": 6871,
      "hÃ¡l": 6872,
      "Ġskel": 6873,
      "ĠÃ³dÃ½r": 6874,
      "ĠmiÃ°jum": 6875,
      "ĠPaul": 6876,
      "Ã¶kkum": 6877,
      "Ġformanns": 6878,
      "ĠÃįbÃºÃ°alÃ¡nas": 6879,
      "ĠGuardi": 6880,
      "ĠhÃ¶gg": 6881,
      "ĠGo": 6882,
      "ĠneikvÃ¦Ã°": 6883,
      "Ġgreinst": 6884,
      "Ġhvetur": 6885,
      "ĠskoÃ°anir": 6886,
      "kerfinu": 6887,
      "stir": 6888,
      "Ġsunnudaginn": 6889,
      "ĠKolb": 6890,
      "ĠHermann": 6891,
      "ĠEvrÃ³pusambandinu": 6892,
      "skyldu": 6893,
      "ĠsamgÃ¶ngu": 6894,
      "tri": 6895,
      "ĠJÃ³nasson": 6896,
      "ĠAusturlandi": 6897,
      "ĠÃ¾vert": 6898,
      "ĠmÃ¦list": 6899,
      "Ġheimamenn": 6900,
      "ĠframhjÃ¡": 6901,
      "Ġlandsmanna": 6902,
      "KÃ³reu": 6903,
      "ĠniÃ°": 6904,
      "ĠBaldvin": 6905,
      "Ġunga": 6906,
      "Ġfengi": 6907,
      "Ġ48": 6908,
      "Ġtilfelli": 6909,
      "ljÃ³s": 6910,
      "ams": 6911,
      "afer": 6912,
      "ĠbÃ¡t": 6913,
      "vellinum": 6914,
      "ĠfjÃ¡rmÃ¶gnun": 6915,
      "Ġhitta": 6916,
      "Ġstigi": 6917,
      "ĠHlut": 6918,
      "ban": 6919,
      "ĠÃºttekt": 6920,
      "Ġvega": 6921,
      "Ġtilfellum": 6922,
      "verton": 6923,
      "ĠjarÃ°ar": 6924,
      "ilegu": 6925,
      "Ġundankeppni": 6926,
      "Ã°ardÃ³ttir": 6927,
      "ĠÃ¾essarar": 6928,
      "ĠaÃ°gengi": 6929,
      "Ġtalinn": 6930,
      "ĠÃĵlafsdÃ³ttir": 6931,
      "Ġskrifstof": 6932,
      "ĠÃĸl": 6933,
      "ĠrÃŃkissjÃ³Ã°s": 6934,
      "iÃ°i": 6935,
      "Ã©lum": 6936,
      "ĠsjÃ¡l": 6937,
      "ĠAb": 6938,
      "eill": 6939,
      "exÃŃk": 6940,
      "inho": 6941,
      "Ġtaf": 6942,
      "ĠfÃ³rnarl": 6943,
      "vic": 6944,
      "Ġsettur": 6945,
      "alda": 6946,
      "Ġtakt": 6947,
      "ĠFrjÃ¡l": 6948,
      "rÃ¶f": 6949,
      "ml": 6950,
      "ĠekiÃ°": 6951,
      "utÃŃma": 6952,
      "ettur": 6953,
      "ĠbauÃ°": 6954,
      "Ġtoll": 6955,
      "ĠlandamÃ¦r": 6956,
      "Ġnei": 6957,
      "svelli": 6958,
      "bÃ¶nd": 6959,
      "Ġkallar": 6960,
      "ĠsjÃ¡lft": 6961,
      "ĠupplÃ½singaf": 6962,
      "ĠMosfell": 6963,
      "ĠskjÃ³l": 6964,
      "jenda": 6965,
      "ĠhÃ³fust": 6966,
      "Ġfasteigna": 6967,
      "ĠHÃ¡l": 6968,
      "ami": 6969,
      "starfi": 6970,
      "rÃ¦tÃ³": 6971,
      "ĠsvÃŃ": 6972,
      "Ġspill": 6973,
      "ĠMer": 6974,
      "ĠefnahagslÃŃf": 6975,
      "ĠMiÃ°flokk": 6976,
      "ĠbÃŃlar": 6977,
      "ĠverÃ°trygg": 6978,
      "ĠSind": 6979,
      "ĠOf": 6980,
      "ĠHÃºna": 6981,
      "ĠÃĸg": 6982,
      "eistarar": 6983,
      "ĠÃ³ska": 6984,
      "Ġhvergi": 6985,
      "Ġ55": 6986,
      "ÃŃfur": 6987,
      "Ġfylgt": 6988,
      "Ġfylgst": 6989,
      "shÃºs": 6990,
      "Ġpari": 6991,
      "Ġgei": 6992,
      "stÃ¶Ã°ur": 6993,
      "ĠLo": 6994,
      "unir": 6995,
      "ĠrÃ©ttindi": 6996,
      "jÃ¡lfta": 6997,
      "ĠsamrÃ¡Ã°": 6998,
      "ĠMartin": 6999,
      "ĠhÃ¶fÃ°": 7000,
      "Ġerlendir": 7001,
      "ĠAfgan": 7002,
      "ĠÃ¾jÃ³Ã°in": 7003,
      "Ã¾Ã½Ã°u": 7004,
      "ting": 7005,
      "ĠBlÃ¶nduÃ³": 7006,
      "Ã¦kja": 7007,
      "ĠEyjum": 7008,
      "ĠspurÃ°ur": 7009,
      "ilsins": 7010,
      "Ġflokkur": 7011,
      "ĠStur": 7012,
      "ĠJos": 7013,
      "ĠsÃ¦tinu": 7014,
      "rÃ¦Ã°a": 7015,
      "ĠEnglandi": 7016,
      "ĠÃ³vissu": 7017,
      "ĠÃ¾ingmanna": 7018,
      "Ã©fi": 7019,
      "ĠFisk": 7020,
      "ĠÃŃbÃºÃ°ar": 7021,
      "Ġlofti": 7022,
      "ĠhlutabrÃ©fa": 7023,
      "ĠsÃŃfellt": 7024,
      "Ġslysa": 7025,
      "yggju": 7026,
      "ĠGuÃ°nason": 7027,
      "Ġkrafti": 7028,
      "ĠÃ¡gÃ¦tlega": 7029,
      "safn": 7030,
      "ĠReg": 7031,
      "ĠblÃ³m": 7032,
      "ĠHÃ©raÃ°sdÃ³mi": 7033,
      "Ġspurningar": 7034,
      "ĠHinn": 7035,
      "Ġhval": 7036,
      "Ġforyst": 7037,
      "ĠbÃ³luefni": 7038,
      "Ġsameiningu": 7039,
      "jÃ³lfur": 7040,
      "ĠboÃ°a": 7041,
      "Ġendanum": 7042,
      "bandalag": 7043,
      "Ġman": 7044,
      "falli": 7045,
      "ĠEverton": 7046,
      "Ġheimila": 7047,
      "ÃŃum": 7048,
      "sÃ¾jÃ¡lf": 7049,
      "Ġvikna": 7050,
      "ĠsagÃ°ur": 7051,
      "ĠLandssam": 7052,
      "ĠsjÃ¶tta": 7053,
      "ĠVÃŃÃ°": 7054,
      "ĠÃįsafirÃ°i": 7055,
      "ĠskÃ³lanum": 7056,
      "ĠplÃ¶t": 7057,
      "abet": 7058,
      "afÃ©lagiÃ°": 7059,
      "vÃ¦gi": 7060,
      "rÃ¦nna": 7061,
      "ĠkostnaÃ°ar": 7062,
      "ĠBay": 7063,
      "ĠsaksÃ³knara": 7064,
      "Ġaukin": 7065,
      "ĠalÃ¾ingis": 7066,
      "Ġlek": 7067,
      "Ġfundust": 7068,
      "Ġstarfsem": 7069,
      "lita": 7070,
      "Ã°in": 7071,
      "Ġverki": 7072,
      "Ġumfangsmik": 7073,
      "ĠsÃ½nd": 7074,
      "rÃ©ttis": 7075,
      "Ġbrota": 7076,
      "isku": 7077,
      "ĠvÃ¦g": 7078,
      "int": 7079,
      "afur": 7080,
      "Ġmenntun": 7081,
      "ĠfÃ¦kkaÃ°": 7082,
      "Ġsvig": 7083,
      "eymi": 7084,
      "umiÃ°": 7085,
      "Ġgagna": 7086,
      "own": 7087,
      "ĠaÃ°stÃ¶Ã°u": 7088,
      "reisn": 7089,
      "astjÃ³ra": 7090,
      "Ġkm": 7091,
      "verja": 7092,
      "ĠvÃŃsar": 7093,
      "Ġglugg": 7094,
      "ĠHanna": 7095,
      "slita": 7096,
      "Ġhagsmuna": 7097,
      "skan": 7098,
      "Ġill": 7099,
      "ĠkÃº": 7100,
      "hliÃ°a": 7101,
      "ĠharÃ°lega": 7102,
      "sch": 7103,
      "agerÃ°i": 7104,
      "Ġeinangrun": 7105,
      "ĠOrri": 7106,
      "ĠafleiÃ°ingum": 7107,
      "berandi": 7108,
      "ĠsvipaÃ°": 7109,
      "ĠsamfÃ©lagi": 7110,
      "ĠheilsugÃ¦": 7111,
      "ĠII": 7112,
      "takos": 7113,
      "ĠgrunnskÃ³l": 7114,
      "ĠnÃ¦stum": 7115,
      "hafa": 7116,
      "Ġhermenn": 7117,
      "ĠfrÃ¦Ã°slu": 7118,
      "Ġhol": 7119,
      "ink": 7120,
      "lÃ¶greglu": 7121,
      "ĠjarÃ°sk": 7122,
      "Ġ250": 7123,
      "ht": 7124,
      "ĠBal": 7125,
      "varÃºtvegsmÃ¡l": 7126,
      "ĠsjÃ¡lfir": 7127,
      "ĠhlÃ©": 7128,
      "ĠHÃ¦f": 7129,
      "ĠlÃ¶gmaÃ°ur": 7130,
      "Ã°uÃ°": 7131,
      "yrirtÃ¦ki": 7132,
      "75": 7133,
      "ĠrÃŃkjum": 7134,
      "Ġ42": 7135,
      "stÃ¶Ã°vum": 7136,
      "Ġmuninn": 7137,
      "shÃ¶fn": 7138,
      "eytend": 7139,
      "fara": 7140,
      "Ã³lum": 7141,
      "ĠBirk": 7142,
      "heiÃ°i": 7143,
      "Ġhelming": 7144,
      "ĠÃ³hÃ¡Ã°": 7145,
      "Ġvestra": 7146,
      "ĠGal": 7147,
      "ĠMinn": 7148,
      "ĠAÃ°spurÃ°ur": 7149,
      "herjar": 7150,
      "rinu": 7151,
      "Ġtali": 7152,
      "ĠEfl": 7153,
      "ĠfjÃ¡rhÃ¦Ã°": 7154,
      "iggjandi": 7155,
      "ĠlÃ¡tinn": 7156,
      "ĠGuÃ°laugur": 7157,
      "ĠlÃ½s": 7158,
      "uf": 7159,
      "eistaramÃ³t": 7160,
      "ĠÃįran": 7161,
      "ĠummÃ¦li": 7162,
      "Ġkyr": 7163,
      "ĠÃĵli": 7164,
      "ĠstÃºd": 7165,
      "ĠlandsliÃ°sins": 7166,
      "Ġ600": 7167,
      "ĠhÃ¡lfleiks": 7168,
      "Ġvart": 7169,
      "jafn": 7170,
      "ĠmÃ³ts": 7171,
      "exÃŃkÃ³": 7172,
      "Ġlandsleik": 7173,
      "Ġatvinnuleysi": 7174,
      "ĠMari": 7175,
      "ĠÃ¡tjÃ¡n": 7176,
      "ĠtÃŃmabundiÃ°": 7177,
      "atÃ¶lur": 7178,
      "Ġdala": 7179,
      "urek": 7180,
      "ttar": 7181,
      "ÃŃan": 7182,
      "ugt": 7183,
      "ĠheiÃ°": 7184,
      "sÃ¶gu": 7185,
      "ĠÃ¾ak": 7186,
      "Ġkjarnorku": 7187,
      "ĠfljÃº": 7188,
      "Ġam": 7189,
      "ĠflÃ³k": 7190,
      "ĠMikiÃ°": 7191,
      "Ġbirta": 7192,
      "gÃ¶tu": 7193,
      "ĠfrÃ©ttatilkynningu": 7194,
      "ĠHorn": 7195,
      "ĠstuÃ°nings": 7196,
      "lingum": 7197,
      "Ã³fa": 7198,
      "Ġdval": 7199,
      "Ġnemenda": 7200,
      "ĠhÃ¡deg": 7201,
      "yndÃŃs": 7202,
      "Ã³na": 7203,
      "ĠViÃ°skiptablaÃ°inu": 7204,
      "Ġuppg": 7205,
      "ĠreglugerÃ°": 7206,
      "ĠÃ¡kveÃ°num": 7207,
      "ĠvÃŃÃ°ar": 7208,
      "teng": 7209,
      "jÃ³ni": 7210,
      "ĠInst": 7211,
      "ĠvefsÃŃÃ°u": 7212,
      "ĠaÃ°stand": 7213,
      "ĠgrÃ³": 7214,
      "Ġkennara": 7215,
      "ĠLind": 7216,
      "eigendur": 7217,
      "Ġoftast": 7218,
      "Ġofbeldis": 7219,
      "ofb": 7220,
      "ĠlÃŃÃ°a": 7221,
      "stÃ¦Ã°ur": 7222,
      "ĠendurskoÃ°un": 7223,
      "ĠÃįslendingum": 7224,
      "ĠstarfsmaÃ°ur": 7225,
      "ĠbÃ¦tur": 7226,
      "Ġstarfar": 7227,
      "Ġkrabbamein": 7228,
      "ĠtÃ¶p": 7229,
      "ÃŃta": 7230,
      "leiÃ°is": 7231,
      "ĠslegiÃ°": 7232,
      "ĠVik": 7233,
      "ĠKÃ³pavogs": 7234,
      "âĢľ,": 7235,
      "mÃ¡larÃ¡Ã°herra": 7236,
      "Ġkrepp": 7237,
      "eytiÃ°": 7238,
      "Ġerlenda": 7239,
      "Ġallavega": 7240,
      "hÃ¶nd": 7241,
      "ĠsamhliÃ°a": 7242,
      "ĠÃ¦fa": 7243,
      "stÃ¶rf": 7244,
      "Ġheimilt": 7245,
      "arÃ¡Ã°s": 7246,
      "mennt": 7247,
      "ĠSnorri": 7248,
      "ĠSex": 7249,
      "ĠalfariÃ°": 7250,
      "Ġsvart": 7251,
      "ĠAnnars": 7252,
      "Ġfelur": 7253,
      "herji": 7254,
      "Ã¡hrif": 7255,
      "ĠaÃ°dÃ¡": 7256,
      "Ġmennta": 7257,
      "varnar": 7258,
      "Ġdrykk": 7259,
      "ĠFylk": 7260,
      "gerÃ°ur": 7261,
      "ĠjÃ³lin": 7262,
      "ingja": 7263,
      "ĠjÃ¶fn": 7264,
      "ĠlandsliÃ°iÃ°": 7265,
      "ĠÃŀeim": 7266,
      "ĠmannrÃ©ttind": 7267,
      "ĠBygg": 7268,
      "Ġstofnunarinnar": 7269,
      "ĠFyrr": 7270,
      "Ġkrakk": 7271,
      "ĠÃģstÃ¦Ã°an": 7272,
      "ĠSkÃ¶p": 7273,
      "tÃ¶kunum": 7274,
      "ĠskotiÃ°": 7275,
      "Ã¥": 7276,
      "ĠfÃ¦Ã°ingar": 7277,
      "Ġeldsneyti": 7278,
      "nuÃ°i": 7279,
      "ĠFlestir": 7280,
      "ĠAlexander": 7281,
      "ĠAndrÃ©": 7282,
      "atna": 7283,
      "ĠAx": 7284,
      "Ġrenna": 7285,
      "ungur": 7286,
      "leikar": 7287,
      "Ġfela": 7288,
      "ĠReyni": 7289,
      "ĠgÃ³Ã°ri": 7290,
      "ĠfulltrÃºi": 7291,
      "verÃ°um": 7292,
      "ĠHans": 7293,
      "Ġde": 7294,
      "Ã¶kur": 7295,
      "ĠeyÃ°a": 7296,
      "slegum": 7297,
      "ĠtÃ¦par": 7298,
      "Ġslit": 7299,
      "jÃ³ti": 7300,
      "ĠHreiÃ°": 7301,
      "ĠstuÃ°la": 7302,
      "ĠliÃ°um": 7303,
      "ĠhlotiÃ°": 7304,
      "Ã¾rÃ³tt": 7305,
      "erfis": 7306,
      "ĠOlÃŃs": 7307,
      "Ġ46": 7308,
      "speg": 7309,
      "ĠSigmund": 7310,
      "ĠhÃºsi": 7311,
      "Ġgestir": 7312,
      "uss": 7313,
      "ĠbarÃ¡ttunni": 7314,
      "Ġpist": 7315,
      "setning": 7316,
      "ĠslÃ¦mt": 7317,
      "Ġframmi": 7318,
      "ĠBryndÃŃs": 7319,
      "aflug": 7320,
      "ĠÃºtivelli": 7321,
      "blÃ¶Ã°": 7322,
      "ĠsÃ¶gÃ°": 7323,
      "ĠveiÃ°ar": 7324,
      "ĠnÃºmer": 7325,
      "jara": 7326,
      "ĠsekÃºndu": 7327,
      "deil": 7328,
      "Ġsumum": 7329,
      "ĠRauÃ°a": 7330,
      "Ã¡Ã°s": 7331,
      "ĠvaraformaÃ°ur": 7332,
      "ĠÃ¾rÃ³unar": 7333,
      "33": 7334,
      "Ġformann": 7335,
      "slaus": 7336,
      "bÃŃla": 7337,
      "Ġfarinn": 7338,
      "ĠKristjÃ¡nsdÃ³ttir": 7339,
      "ĠsvÃ¦Ã°um": 7340,
      "ĠsÃ©rstaka": 7341,
      "ĠHval": 7342,
      "Ã©kk": 7343,
      "sly": 7344,
      "ĠvinsÃ¦ld": 7345,
      "ĠRonald": 7346,
      "ĠyfirmaÃ°ur": 7347,
      "vÃ¦Ã°i": 7348,
      "ĠByr": 7349,
      "Ġforsendum": 7350,
      "ddar": 7351,
      "ĠlÃ¦kni": 7352,
      "Ġeini": 7353,
      "ĠgÃ¶t": 7354,
      "ĠfÃ¶t": 7355,
      "Ġgengu": 7356,
      "Ġforsetakos": 7357,
      "Ġfyrirl": 7358,
      "Ġfimmtudaginn": 7359,
      "ĠmakrÃŃl": 7360,
      "ĠmÃ³Ã°ir": 7361,
      "astofa": 7362,
      "bik": 7363,
      "te": 7364,
      "lof": 7365,
      "Ġforsendur": 7366,
      "ĠÃŀÃ³ra": 7367,
      "ĠHvÃŃta": 7368,
      "ĠFrey": 7369,
      "Ġvakt": 7370,
      "ĠMon": 7371,
      "ÃŃmab": 7372,
      "arfirÃ°i": 7373,
      "ĠLos": 7374,
      "veiÃ°ar": 7375,
      "ĠTÃ¶lu": 7376,
      "ÃŃmu": 7377,
      "ĠvÃŃÃ°tÃ¦k": 7378,
      "ĠmeÃ°li": 7379,
      "Ġ2002": 7380,
      "ĠlÃ¦gra": 7381,
      "ĠvÃŃg": 7382,
      "Ġeflaust": 7383,
      "fremur": 7384,
      "Ġly": 7385,
      "estu": 7386,
      "Ġleikk": 7387,
      "bÃºnaÃ°i": 7388,
      "ĠKe": 7389,
      "Ġfellur": 7390,
      "myndir": 7391,
      "eÃ°l": 7392,
      "Ġfullum": 7393,
      "ĠSauÃ°": 7394,
      "heimili": 7395,
      "ĠsÃ©rfrÃ¦Ã°ingur": 7396,
      "dÃ³mstÃ³l": 7397,
      "ĠÃ¡ttum": 7398,
      "ĠstÃ¶Ã°ugt": 7399,
      "Ġskort": 7400,
      "ĠhÃ©rlendis": 7401,
      "ftu": 7402,
      "ĠAÃ°aleinkunn": 7403,
      "astÃ¶Ã°um": 7404,
      "hafnar": 7405,
      "ony": 7406,
      "ĠRos": 7407,
      "Ġtapa": 7408,
      "ĠLandshlutar": 7409,
      "ĠendurskoÃ°a": 7410,
      "600": 7411,
      "ĠGrÃ©tar": 7412,
      "ĠverkalÃ½Ã°": 7413,
      "Ġtjald": 7414,
      "ĠstjÃ³rnmÃ¡laflokk": 7415,
      "Ġmanninum": 7416,
      "ĠsjÃºklinga": 7417,
      "Ġframhaldinu": 7418,
      "29": 7419,
      "ĠinnviÃ°": 7420,
      "Ġdregur": 7421,
      "xml": 7422,
      "Ġallur": 7423,
      "ĠgÃ¦sluvarÃ°hald": 7424,
      "ĠDV": 7425,
      "Ġvalinn": 7426,
      "kall": 7427,
      "Ġallri": 7428,
      "verÃ°ur": 7429,
      "ĠForsÃ¦ti": 7430,
      "Ġoftar": 7431,
      "ĠflÃ³Ã°": 7432,
      "ĠrÃŃkisborg": 7433,
      "ĠÃ¾akka": 7434,
      "ĠmetiÃ°": 7435,
      "Ġvatni": 7436,
      "gjald": 7437,
      "eÃ°labanka": 7438,
      "snefnd": 7439,
      "Ġbland": 7440,
      "ĠHÃ¦fileikar": 7441,
      "agnaÃ°ur": 7442,
      "Ġtreysta": 7443,
      "bÃ¦ra": 7444,
      "varnir": 7445,
      "taliÃ°": 7446,
      "ĠhÃ¶fuÃ°borgarsvÃ¦Ã°isins": 7447,
      "yrkja": 7448,
      "rosoft": 7449,
      "Ġvetrar": 7450,
      "gent": 7451,
      "ĠÃŃhug": 7452,
      "Ġgildir": 7453,
      "ĠÃ³lÃŃklegt": 7454,
      "ĠKaupmannahÃ¶fn": 7455,
      "ĠSkÃ¶pulag": 7456,
      "ĠÃ¶ku": 7457,
      "ĠKal": 7458,
      "ĠlÃ©tust": 7459,
      "ĠAra": 7460,
      "ĠTe": 7461,
      "ĠrÃ¡Ã°inn": 7462,
      "ĠLandspÃŃtala": 7463,
      "Ġ800": 7464,
      "Ġbit": 7465,
      "ilegri": 7466,
      "ĠnÃ¦gilega": 7467,
      "ĠforsÃ¦tisrÃ¡Ã°": 7468,
      "ĠHof": 7469,
      "lÃ½singar": 7470,
      "sstofnun": 7471,
      "ĠHuld": 7472,
      "Ã¦tum": 7473,
      "ĠÃģrmann": 7474,
      "Ġhitti": 7475,
      "Ġmyndlist": 7476,
      "ĠnÃ½s": 7477,
      "ĠumsÃ¦k": 7478,
      "ĠRÃ³": 7479,
      "ĠrÃŃkir": 7480,
      "ĠRÃŃkiss": 7481,
      "ĠRom": 7482,
      "ĠHauka": 7483,
      "ĠStÃ¦r": 7484,
      "Ġkunni": 7485,
      "Ġsorg": 7486,
      "Ġvegi": 7487,
      "nÃ¦g": 7488,
      "ĠRi": 7489,
      "agram": 7490,
      "Ġunnin": 7491,
      "Ġkosta": 7492,
      "ĠPla": 7493,
      "ĠsvokallaÃ°a": 7494,
      "Ãŀeir": 7495,
      "Ġgilda": 7496,
      "kust": 7497,
      "ĠJafnframt": 7498,
      "Ġhaming": 7499,
      "emi": 7500,
      "sfirÃ°i": 7501,
      "Ġvonir": 7502,
      "Ġkynn": 7503,
      "Ġskuldbind": 7504,
      "Ġoddviti": 7505,
      "Ġnefnt": 7506,
      "Ġeinstakling": 7507,
      "steinsson": 7508,
      "Ġsennilega": 7509,
      "Ġskrifstofu": 7510,
      "ĠThom": 7511,
      "ĠGert": 7512,
      "sÃ¶lu": 7513,
      "sdal": 7514,
      "ĠsamÃ¾ykkja": 7515,
      "ĠtilbÃºin": 7516,
      "sÃ¡rÃ¡s": 7517,
      "ĠÃ¾jÃ³nusta": 7518,
      "ĠkjÃ¶rdÃ¦m": 7519,
      "Ġmeina": 7520,
      "abrÃ©": 7521,
      "ĠhÃ©raÃ°": 7522,
      "hlutfall": 7523,
      "ĠskoÃ°aÃ°": 7524,
      "ĠnafniÃ°": 7525,
      "Ġkven": 7526,
      "ĠÃŃslenskir": 7527,
      "ĠÃĵlÃ¶f": 7528,
      "ision": 7529,
      "ĠHeildar": 7530,
      "ĠGam": 7531,
      "Ġbeina": 7532,
      "insdÃ³ttir": 7533,
      "ela": 7534,
      "Ġkarlmenn": 7535,
      "ĠstuÃ°ningsmenn": 7536,
      "sauka": 7537,
      "ĠRang": 7538,
      "Ġhind": 7539,
      "mum": 7540,
      "andÃŃs": 7541,
      "Ġhverja": 7542,
      "uÃ°vestur": 7543,
      "Ã¡kv": 7544,
      "ĠÃļl": 7545,
      "ĠplÃ¡ss": 7546,
      "ĠpÃ³st": 7547,
      "Ġair": 7548,
      "KA": 7549,
      "Ġsinnt": 7550,
      "ĠRek": 7551,
      "Ã¶pp": 7552,
      "Ġ66": 7553,
      "ĠÃ¦fing": 7554,
      "undinn": 7555,
      "ĠlegiÃ°": 7556,
      "ĠHÃºsavÃŃk": 7557,
      "ĠAlÃ¾Ã½Ã°u": 7558,
      "ĠÃ¦Ã°": 7559,
      "Ġuppreisnar": 7560,
      "burÃ°ur": 7561,
      "ĠnÃ¡Ã°ist": 7562,
      "agrein": 7563,
      "ĠÃ¡berandi": 7564,
      "ĠÃŀÃ³runn": 7565,
      "ĠBelg": 7566,
      "ĠhryÃ°juverka": 7567,
      "Ã¡liÃ°": 7568,
      "ĠÃģsta": 7569,
      "erÃ°ur": 7570,
      "Ġkleift": 7571,
      "jug": 7572,
      "epÃºb": 7573,
      "ĠvirÃ°ingu": 7574,
      "Ġendurspeg": 7575,
      "Ġtru": 7576,
      "ĠlaunahÃ¦kk": 7577,
      "smÃ¡la": 7578,
      "afar": 7579,
      "skrifendur": 7580,
      "ĠVG": 7581,
      "ĠundanÃ¾Ã¡": 7582,
      "arde": 7583,
      "ĠvÃ¶ld": 7584,
      "ĠrithÃ¶f": 7585,
      "ĠSteinunn": 7586,
      "fyll": 7587,
      "ĠfjÃ¶lmiÃ°l": 7588,
      "Ġskynsam": 7589,
      "ĠRannsÃ³kn": 7590,
      "ĠKrÃ³at": 7591,
      "Ãĵ": 7592,
      "ĠframleiÃ°a": 7593,
      "ĠSvandÃŃs": 7594,
      "ĠÃŃbÃºum": 7595,
      "ĠsamtÃ¶kin": 7596,
      "krÃ³": 7597,
      "ĠSjÃ¡lfstÃ¦Ã°isflokkurinn": 7598,
      "ĠslÃŃku": 7599,
      "Ġsvarar": 7600,
      "ĠblÃ¡": 7601,
      "strÃ¶nd": 7602,
      "ĠSkÃºli": 7603,
      "Ġeftirfarandi": 7604,
      "ĠSamherja": 7605,
      "Ġfiski": 7606,
      "bÃºnaÃ°ur": 7607,
      "ness": 7608,
      "35": 7609,
      "Ġ.": 7610,
      "sÃŃÃ°": 7611,
      "ĠLÃ¡ra": 7612,
      "amp": 7613,
      "ĠvikiÃ°": 7614,
      "nunar": 7615,
      "ĠÃ³brey": 7616,
      "ĠFI": 7617,
      "Ġkrafist": 7618,
      "ĠblaÃ°inu": 7619,
      "Ġkrefjast": 7620,
      "ier": 7621,
      "ĠJan": 7622,
      "ĠveÃ°riÃ°": 7623,
      "ĠBro": 7624,
      "ningunum": 7625,
      "ĠÃ¦vint": 7626,
      "ĠHÃ³tel": 7627,
      "ĠfimmtÃŃu": 7628,
      "37": 7629,
      "Ġstein": 7630,
      "ĠArgent": 7631,
      "ĠmarkmiÃ°i": 7632,
      "ningurinn": 7633,
      "ĠÃºtskrif": 7634,
      "ĠsjÃ¡lfan": 7635,
      "ĠfrÃ©tta": 7636,
      "ĠframfÃ¦ri": 7637,
      "ĠBrasilÃŃu": 7638,
      "ĠslÃ¶kk": 7639,
      "ĠnotiÃ°": 7640,
      "farir": 7641,
      "ĠverÃ°lag": 7642,
      "ĠUn": 7643,
      "ĠFrank": 7644,
      "Ġstofnanir": 7645,
      "Ġskapi": 7646,
      "hÃ¦ttu": 7647,
      "ĠÃ¾y": 7648,
      "ĠsvokÃ¶llu": 7649,
      "ĠfÃ¦st": 7650,
      "ĠÃ¾urftu": 7651,
      "ĠnÃ½liÃ°": 7652,
      "ĠsveitarfÃ©lagsins": 7653,
      "Ġfrumvarpinu": 7654,
      "sagnir": 7655,
      "ĠsÃ¡ttur": 7656,
      "ĠHelgu": 7657,
      "ĠskaÃ°ab": 7658,
      "ĠfarÃ¾egar": 7659,
      "ĠkrÃ³nu": 7660,
      "ĠSamgÃ¶ng": 7661,
      "ĠgerÃ°um": 7662,
      "Ġatvinnurek": 7663,
      "ĠmarkaÃ°ss": 7664,
      "ferÃ°um": 7665,
      "ĠCr": 7666,
      "Ġmeirihlut": 7667,
      "ĠRÃ¦kt": 7668,
      "sheiÃ°i": 7669,
      "ĠaÃ°komu": 7670,
      "Ã¾ekk": 7671,
      "ĠSlÃ¶kkviliÃ°": 7672,
      "ĠmÃ¡nudaginn": 7673,
      "ĠkynferÃ°isbrot": 7674,
      "ĠborgarstjÃ³ri": 7675,
      "\".": 7676,
      "ĠApp": 7677,
      "alÃŃf": 7678,
      "Ġ2001": 7679,
      "ĠsÃ³ttvarnalÃ¦k": 7680,
      "ĠHÃ¶skuld": 7681,
      "ĠÃ¶kumenn": 7682,
      "ĠWilli": 7683,
      "ĠlandsbyggÃ°inni": 7684,
      "ĠSnÃ¦": 7685,
      "ĠLandeyja": 7686,
      "ĠÃ¾riÃ°ji": 7687,
      "ĠHring": 7688,
      "ĠÃĵmar": 7689,
      "ĠkÃ¶lluÃ°": 7690,
      "ĠkerfiÃ°": 7691,
      "Ġofur": 7692,
      "Ġ47": 7693,
      "ĠsjÃºkraf": 7694,
      "pum": 7695,
      "Ġsamningur": 7696,
      "ĠlÃŃkindum": 7697,
      "ĠRÃºssar": 7698,
      "eistaratitil": 7699,
      "slys": 7700,
      "ĠArna": 7701,
      "slynd": 7702,
      "Ã¸": 7703,
      "ningarnar": 7704,
      "Ġgengis": 7705,
      "ĠverÃ°iÃ°": 7706,
      "ĠkrÃ¶fum": 7707,
      "ĠLjÃ³st": 7708,
      "ĠLandspÃŃtalanum": 7709,
      "ĠUndan": 7710,
      "rÃ¦nu": 7711,
      "Ġefna": 7712,
      "ĠSkÃ½r": 7713,
      "ĠÃ³skaÃ°i": 7714,
      "onan": 7715,
      "Ġsterkari": 7716,
      "ĠÃ¡standi": 7717,
      "Ġumdeild": 7718,
      "ssÃ½": 7719,
      "endingar": 7720,
      "ĠblaÃ°amannafundi": 7721,
      "ogg": 7722,
      "tic": 7723,
      "jarna": 7724,
      "ĠTa": 7725,
      "Ġmyndast": 7726,
      "jÃ³Ã°sins": 7727,
      "ĠSkar": 7728,
      "ĠCol": 7729,
      "ĠEirÃŃkur": 7730,
      "ĠHollandi": 7731,
      "ĠupplÃ½st": 7732,
      "ĠbrÃ©fi": 7733,
      "ĠViÃ°skipti": 7734,
      "ĠsvaraÃ°": 7735,
      "ge": 7736,
      "ĠSc": 7737,
      "ulltrÃºar": 7738,
      "sambandsins": 7739,
      "Ã³nÃŃu": 7740,
      "ĠrÃ¡Ã°staf": 7741,
      "ĠhÃ¡Ã°": 7742,
      "Ġfyrirvara": 7743,
      "vexti": 7744,
      "ĠsnÃ½r": 7745,
      "our": 7746,
      "anni": 7747,
      "ĠvariÃ°": 7748,
      "ĠlÃŃtill": 7749,
      "hi": 7750,
      "Ġloksins": 7751,
      "jinn": 7752,
      "ĠÃ¾v": 7753,
      "ĠMikill": 7754,
      "ĠgleÃ°i": 7755,
      "Ġaldrinum": 7756,
      "ĠBlaÃ°": 7757,
      "ĠsÃŃÃ°u": 7758,
      "ÃŃski": 7759,
      "Ġafkomu": 7760,
      "ĠÃ¾jÃ¡lfara": 7761,
      "liÃ°inu": 7762,
      "aflokksins": 7763,
      "Ã³tum": 7764,
      "Ġeinstaklingum": 7765,
      "ĠframkvÃ¦mda": 7766,
      "eitur": 7767,
      "Ġkomnar": 7768,
      "Ġneinum": 7769,
      "ĠSÃŃÃ°ast": 7770,
      "ĠhrÃ³": 7771,
      "ĠviÃ°skiptar": 7772,
      "Ġspurningum": 7773,
      "ĠSÃ½nandi": 7774,
      "verÃ°ar": 7775,
      "sambands": 7776,
      "ĠÃŃslenskri": 7777,
      "stofan": 7778,
      "Ġhert": 7779,
      "ĠhlaÃ°": 7780,
      "afjÃ¡r": 7781,
      "ĠÃģsl": 7782,
      "ĠNoregs": 7783,
      "ĠSjÃºkra": 7784,
      "stefnu": 7785,
      "Ġtekjum": 7786,
      "ĠBretar": 7787,
      "ĠSlÃ³": 7788,
      "naÃ°urinn": 7789,
      "ĠhegÃ°un": 7790,
      "ĠLoft": 7791,
      "astofnun": 7792,
      "ĠkÃ³rÃ³nuveiru": 7793,
      "ĠHÃ©raÃ°sdÃ³mur": 7794,
      "ĠniÃ°ri": 7795,
      "ĠsjÃ¡lfbÃ¦r": 7796,
      "ĠÃ³n": 7797,
      "amynd": 7798,
      "Ã¶Ã°var": 7799,
      "ĠhefÃ°um": 7800,
      "ĠKa": 7801,
      "Ġfinni": 7802,
      "ĠÃºrrÃ¦Ã°i": 7803,
      "ĠSamfylkingin": 7804,
      "ĠAkranesi": 7805,
      "ovision": 7806,
      "ĠBor": 7807,
      "ĠnÃ¦tur": 7808,
      "ĠuppgjÃ¶r": 7809,
      "con": 7810,
      "hÃ¶ld": 7811,
      "ĠbÃ¦kur": 7812,
      "Ġinnheim": 7813,
      "ĠsamfÃ©lagsmiÃ°lum": 7814,
      "ĠMexÃŃkÃ³": 7815,
      "Ġverkefninu": 7816,
      "ĠBrÃºnn": 7817,
      "ĠhaustiÃ°": 7818,
      "ĠfaliÃ°": 7819,
      "ĠMax": 7820,
      "autjÃ¡n": 7821,
      "sviÃ°s": 7822,
      "ĠhÃ¡degis": 7823,
      "ĠskiptiÃ°": 7824,
      "ĠFrakklands": 7825,
      "ĠÃ¶lv": 7826,
      "ĠBra": 7827,
      "Ġkeppninni": 7828,
      "svif": 7829,
      "Ġ2021": 7830,
      "ĠÃ¡sak": 7831,
      "aset": 7832,
      "ĠkveÃ°st": 7833,
      "ÃŃÃ°um": 7834,
      "ĠJohnson": 7835,
      "Ã³ttir": 7836,
      "ĠnÃ¡mi": 7837,
      "ĠGarÃ°abÃ¦": 7838,
      "eyk": 7839,
      "ĠÃ¾ings": 7840,
      "Ġkafla": 7841,
      "ĠHeilbrigÃ°ismÃ¡l": 7842,
      "aÃ°ri": 7843,
      "smanns": 7844,
      "jÃ¶k": 7845,
      "Ã¤": 7846,
      "ĠNey": 7847,
      "ĠÃģstralÃŃu": 7848,
      "mennsku": 7849,
      "ĠÃŀessar": 7850,
      "ĠStrÃŃÃ°": 7851,
      "-,": 7852,
      "ĠfjÃ¡rmÃ¡larÃ¡Ã°": 7853,
      "ĠBjarki": 7854,
      "ĠdÃ¡lÃŃtiÃ°": 7855,
      "Ġflugi": 7856,
      "ĠskÃ³lann": 7857,
      "ÃºÃ°ar": 7858,
      "ahÃ¦stur": 7859,
      "MA": 7860,
      "ĠhÃ³purinn": 7861,
      "Ġfresta": 7862,
      "ĠjÃ¡kvÃ¦tt": 7863,
      "ĠÃģÃ¦t": 7864,
      "Ã¾jÃ³nn": 7865,
      "ĠnÃ¡ttÃºrlega": 7866,
      "Ġhagsmuni": 7867,
      "drÃ¦": 7868,
      "Ã°austan": 7869,
      "ĠsÃ©rstÃ¶k": 7870,
      "ĠskjÃ³ta": 7871,
      "ĠAsÃŃa": 7872,
      "Ġ#": 7873,
      "ĠErla": 7874,
      "ennir": 7875,
      "alÃ¶gum": 7876,
      "firÃ°": 7877,
      "Ġupps": 7878,
      "ĠRÃºssa": 7879,
      "kynhneig": 7880,
      "slegu": 7881,
      "ĠÃ¡horfendur": 7882,
      "ĠVan": 7883,
      "ĠstÃ½ra": 7884,
      "ĠsÃ©rfrÃ¦Ã°inga": 7885,
      "olla": 7886,
      "Ġalvarlegt": 7887,
      "ĠLandsvirkjun": 7888,
      "ĠAxel": 7889,
      "Ġraunveruleg": 7890,
      "gju": 7891,
      "bÃºÃ°um": 7892,
      "ĠviÃ°horf": 7893,
      "ĠInstagram": 7894,
      "ĠhÃ³pinn": 7895,
      "Ġalmenna": 7896,
      "Ã³tta": 7897,
      "ĠhugsaÃ°": 7898,
      "ĠTom": 7899,
      "ĠkostnaÃ°i": 7900,
      "ĠAuÃ°vitaÃ°": 7901,
      "65": 7902,
      "ĠhÃ³pa": 7903,
      "ĠstjÃ³rnarskrÃ¡r": 7904,
      "ĠÃ¾rey": 7905,
      "ĠBirkir": 7906,
      "Ġopnar": 7907,
      "ĠFi": 7908,
      "vinnul": 7909,
      "smÃ¡larÃ¡Ã°herra": 7910,
      "stÃ¶Ã°varinnar": 7911,
      "ĠMay": 7912,
      "Ġopinberlega": 7913,
      "ĠÃ¡rslok": 7914,
      "ĠBlÃ¶nduÃ³si": 7915,
      "Ġstrey": 7916,
      "BI": 7917,
      "ĠviÃ°miÃ°": 7918,
      "ĠJÃº": 7919,
      "pr": 7920,
      "ĠHlynur": 7921,
      "ĠBjart": 7922,
      "ĠEyÃ¾Ã³r": 7923,
      "ĠstjÃ³rnsÃ½slu": 7924,
      "ĠmÃ¦lst": 7925,
      "ĠstÃ³rkost": 7926,
      "ĠfÃ¦rt": 7927,
      "mt": 7928,
      "Ġhlaupa": 7929,
      "Ã¶mmu": 7930,
      "eysis": 7931,
      "ĠTÃ¶l": 7932,
      "Ġbra": 7933,
      "ĠÃĸnnur": 7934,
      "Ġlokin": 7935,
      "ĠhjÃ³na": 7936,
      "Ġaldar": 7937,
      "Ġ120": 7938,
      "stÃ½r": 7939,
      "ĠBa": 7940,
      "ĠÃ¡Ã¦tlanir": 7941,
      "ĠKann": 7942,
      "Ġalmennum": 7943,
      "myndin": 7944,
      "ĠkvÃŃ": 7945,
      "ĠAngeles": 7946,
      "Ġforsetinn": 7947,
      "Ġkunnugt": 7948,
      "hÃºsum": 7949,
      "ĠAu": 7950,
      "Ġgreindust": 7951,
      "ĠÃ¾ver": 7952,
      "ĠskriÃ°": 7953,
      "ĠRak": 7954,
      "vind": 7955,
      "sinn": 7956,
      "77": 7957,
      "ĠtÃŃsku": 7958,
      "Ġevru": 7959,
      "ylgj": 7960,
      "Ġeldg": 7961,
      "hrun": 7962,
      "ĠÃ¡hyggju": 7963,
      "ĠsnÃºast": 7964,
      "Ġklukkustund": 7965,
      "ĠHefur": 7966,
      "ĠBÃºist": 7967,
      "Ã¾Ã¦tt": 7968,
      "Ġtilgangi": 7969,
      "ĠbarniÃ°": 7970,
      "ĠÃ¾Ã¦g": 7971,
      "ĠAfganistan": 7972,
      "ĠSw": 7973,
      "ÃŃsil": 7974,
      "eifl": 7975,
      "Ġraunar": 7976,
      "Ġgleym": 7977,
      "ĠsjÃ¶unda": 7978,
      "ĠStokk": 7979,
      "ĠframmistÃ¶Ã°u": 7980,
      "Ġdags": 7981,
      "orp": 7982,
      "Ġnefnir": 7983,
      "verksmiÃ°": 7984,
      "phÃ©Ã°": 7985,
      "verÃ°a": 7986,
      "lif": 7987,
      "ĠtillÃ¶gum": 7988,
      "ĠmÃºsl": 7989,
      "ĠBlÃ¡": 7990,
      "unina": 7991,
      "Ġmunur": 7992,
      "Ġhamingju": 7993,
      "erni": 7994,
      "ĠgÃ¡tu": 7995,
      "ago": 7996,
      "ĠgjaldmiÃ°": 7997,
      "ĠsvokallaÃ°": 7998,
      "ĠSkarphÃ©Ã°": 7999,
      "hlÃŃÃ°": 8000,
      "ĠhÃ³": 8001,
      "Ġhit": 8002,
      "ĠKristinsson": 8003,
      "aÃ°ilar": 8004,
      "Ġvott": 8005,
      "Ã¦la": 8006,
      "nanna": 8007,
      "ĠvÃŃtaspyrnu": 8008,
      "Ġfyrirspurn": 8009,
      "ĠfaÃ°ir": 8010,
      "ĠvarÃ°a": 8011,
      "nings": 8012,
      "ĠjÃº": 8013,
      "ĠbÃ¦jarstjÃ³rnar": 8014,
      "ĠtalsmaÃ°ur": 8015,
      "ĠÃ¡hÃ¦tt": 8016,
      "Ġteljast": 8017,
      "Ġsettar": 8018,
      "Ġgreinar": 8019,
      "ĠRobert": 8020,
      "Ġsil": 8021,
      "ĠHaarde": 8022,
      "Ġleyni": 8023,
      "Ġskera": 8024,
      "Ġeinstaka": 8025,
      "ĠÃ³eÃ°l": 8026,
      "Ġuppfyl": 8027,
      "Ġ64": 8028,
      "vallt": 8029,
      "Ġalger": 8030,
      "Ġeinkar": 8031,
      "ĠsÃ©rfrÃ¦Ã°ingar": 8032,
      "Ġpress": 8033,
      "SjÃ¡": 8034,
      "ĠÃ¡grein": 8035,
      "ĠRÃ¦ktandi": 8036,
      "ĠÃ¡hyggjum": 8037,
      "ĠinnleiÃ°": 8038,
      "full": 8039,
      "ĠSnorra": 8040,
      "ĠÃ¾ro": 8041,
      "ennd": 8042,
      "till": 8043,
      "ĠFoss": 8044,
      "Ġafn": 8045,
      "ĠÃ¡stÃ¦Ã°ur": 8046,
      "Sk": 8047,
      "ersen": 8048,
      "ĠbÃŃlinn": 8049,
      "Ġtilnefnd": 8050,
      "ĠsÃ¶gunni": 8051,
      "Ġbreytingu": 8052,
      "hÃºss": 8053,
      "ĠMagnÃºsdÃ³ttir": 8054,
      "ler": 8055,
      "ĠgagnrÃ½nt": 8056,
      "Ġstraum": 8057,
      "eyÃ°i": 8058,
      "Ġhelgar": 8059,
      "juÃ°u": 8060,
      "Ġveitir": 8061,
      "Ġhrif": 8062,
      "ĠtalaÃ°i": 8063,
      "ĠÃ¾Ã¡verandi": 8064,
      "frÃ¦Ã°ist": 8065,
      "ÃŃmi": 8066,
      "Ġupphaflega": 8067,
      "ĠÃ¾ekki": 8068,
      "ĠinnanrÃŃkisrÃ¡Ã°herra": 8069,
      "met": 8070,
      "Ġsparis": 8071,
      "akstur": 8072,
      "epÃºblik": 8073,
      "Ġsaf": 8074,
      "ĠHol": 8075,
      "ĠLeif": 8076,
      "ĠLandsbankinn": 8077,
      "98": 8078,
      "ĠMatthÃŃas": 8079,
      "SA": 8080,
      "ĠÃ¡kveÃ°inn": 8081,
      "ĠsamfÃ©lagsins": 8082,
      "ĠkvÃ¶ldiÃ°": 8083,
      "ĠSauÃ°Ã¡r": 8084,
      "Ġbreytast": 8085,
      "veik": 8086,
      "Ġsleppt": 8087,
      "Ġwww": 8088,
      "ĠDÃ¶gg": 8089,
      "ĠrÃ¡Ã°gjÃ¶f": 8090,
      "ĠstarfshÃ³p": 8091,
      "ĠviÃ°bragÃ°": 8092,
      "eb": 8093,
      "Ġberast": 8094,
      "ĠRÃºm": 8095,
      "ĠbÃ¦inn": 8096,
      "ĠsnÃºiÃ°": 8097,
      "ox": 8098,
      "ÃŃasson": 8099,
      "ĠKolbrÃºn": 8100,
      "ĠBru": 8101,
      "elt": 8102,
      "ĠHB": 8103,
      "Ġmyndina": 8104,
      "ĠfÃ³l": 8105,
      "Ġheiminn": 8106,
      "ĠNeytend": 8107,
      "ĠlandsliÃ°sÃ¾jÃ¡lf": 8108,
      "ĠSÃ©rstak": 8109,
      "Ġreikna": 8110,
      "veru": 8111,
      "afÃ³lks": 8112,
      "ĠfyrirtÃ¦kin": 8113,
      "ĠprÃ³sentustig": 8114,
      "ostnaÃ°": 8115,
      "ĠKim": 8116,
      "ĠuppfÃ¦r": 8117,
      "ĠHveragerÃ°i": 8118,
      "ĠsÃŃld": 8119,
      "ĠaÃ°geng": 8120,
      "ĠnetiÃ°": 8121,
      "ĠAftureld": 8122,
      "ĠSumir": 8123,
      "ĠleiÃ°togi": 8124,
      "Ġmetrar": 8125,
      "ĠMm": 8126,
      "ĠSvan": 8127,
      "Ġrefsi": 8128,
      "ĠFm": 8129,
      "lynd": 8130,
      "Ġfrost": 8131,
      "leit": 8132,
      "Ġbeggja": 8133,
      "mis": 8134,
      "Ã¦l": 8135,
      "smaÃ°urinn": 8136,
      "ĠniÃ°urstÃ¶Ã°um": 8137,
      "vÃŃsitalan": 8138,
      "ĠbandarÃŃsku": 8139,
      "ĠSauÃ°Ã¡rkrÃ³": 8140,
      "avia": 8141,
      "aksÃ³knari": 8142,
      "ĠKonan": 8143,
      "cher": 8144,
      "ĠEmil": 8145,
      "ĠAÃ°rir": 8146,
      "ks": 8147,
      "asviÃ°": 8148,
      "ĠGengi": 8149,
      "stofa": 8150,
      "ĠMf": 8151,
      "ĠÃĨt": 8152,
      "ĠÃ¾rota": 8153,
      "stÃ¶Ã°ina": 8154,
      "ĠkÃ¦m": 8155,
      "ĠnÃ¡Ã°st": 8156,
      "ĠGuÃ°laug": 8157,
      "Ã³Ã°um": 8158,
      "ĠValgerÃ°ur": 8159,
      "skÃ³lanum": 8160,
      "Ġfranska": 8161,
      "efnin": 8162,
      "lei": 8163,
      "byggÃ°ar": 8164,
      "ĠFf": 8165,
      "Ġaukinni": 8166,
      "aft": 8167,
      "ĠGold": 8168,
      "sna": 8169,
      "ĠnÃ½jasta": 8170,
      "Ġeinkenni": 8171,
      "tunar": 8172,
      "ĠsÃ½ningu": 8173,
      "Ġflokknum": 8174,
      "Ġstundu": 8175,
      "ĠfljÃºga": 8176,
      "Ġbankar": 8177,
      "ĠBjÃ¶rgunarsveit": 8178,
      "tshaf": 8179,
      "Ġplast": 8180,
      "ĠEinarsdÃ³ttir": 8181,
      "fre": 8182,
      "100": 8183,
      "Ġheita": 8184,
      "ĠÃ¾jÃ³Ã°ir": 8185,
      "ĠÃĵÃ°": 8186,
      "ĠnorÃ°": 8187,
      "ĠaflÃ©tt": 8188,
      "Ġsyst": 8189,
      "ĠverÃ°launa": 8190,
      "Ġhinir": 8191,
      "Og": 8192,
      "ĠWal": 8193,
      "flokki": 8194,
      "Ġdeila": 8195,
      "Ġopnun": 8196,
      "Ã¦rri": 8197,
      "bro": 8198,
      "ĠauglÃ½st": 8199,
      "ĠHafranns": 8200,
      "Ġheimsins": 8201,
      "mÃ¡li": 8202,
      "ĠhÃ¦kkuÃ°u": 8203,
      "sverÃ°": 8204,
      "ĠsÃ¦nska": 8205,
      "ĠumfjÃ¶llunar": 8206,
      "ĠbrÃ¡Ã°abirg": 8207,
      "ĠEES": 8208,
      "Ġstofna": 8209,
      "ĠsnjÃ³fl": 8210,
      "ĠEyja": 8211,
      "gild": 8212,
      "Ġefsta": 8213,
      "ipp": 8214,
      "tÃ¶lulega": 8215,
      "press": 8216,
      "ĠVikt": 8217,
      "ĠYou": 8218,
      "ĠVR": 8219,
      "ĠSjÃ¡lfstÃ¦Ã°isflokks": 8220,
      "ĠsÃ½slum": 8221,
      "ĠStuÃ°": 8222,
      "aris": 8223,
      "ĠdÃ³mar": 8224,
      "Ġhvatt": 8225,
      "oÃ°um": 8226,
      "hlutverk": 8227,
      "ĠleiÃ°bein": 8228,
      "Ġveruleika": 8229,
      "ima": 8230,
      "ĠÃ¶nd": 8231,
      "fÃ¡": 8232,
      "ĠKos": 8233,
      "ĠstjÃ¶rn": 8234,
      "Ã¶ryggi": 8235,
      "Ġneinu": 8236,
      "ĠNefnd": 8237,
      "hjÃ³": 8238,
      "ĠtilbÃºinn": 8239,
      "ĠSeÃ°labanka": 8240,
      "ĠrekiÃ°": 8241,
      "gerÃ°a": 8242,
      "ĠRagnarsson": 8243,
      "ĠkvÃ¶ldsins": 8244,
      "ĠÃ¡vallt": 8245,
      "ĠnÃ¡grenni": 8246,
      "Ġgreininni": 8247,
      "heimild": 8248,
      "ĠLax": 8249,
      "ĠnÃ½rrar": 8250,
      "stÃ¶Ã°in": 8251,
      "ĠJon": 8252,
      "Ġdagar": 8253,
      "cast": 8254,
      "Ġfundur": 8255,
      "ĠMatvÃ¦": 8256,
      "min": 8257,
      "Ġminnis": 8258,
      "Ġvelkom": 8259,
      "afrÃ¦Ã°ingur": 8260,
      "ĠliÃ°ur": 8261,
      "Ġskemmti": 8262,
      "arfer": 8263,
      "nab": 8264,
      "ĠstoliÃ°": 8265,
      "ĠbÃŃll": 8266,
      "ĠsÃ³tti": 8267,
      "Ġaka": 8268,
      "Ġskaut": 8269,
      "ĠÃŀÃ½skalands": 8270,
      "ĠJÃ³hanns": 8271,
      "ĠjÃ¶f": 8272,
      "Ġsvefn": 8273,
      "ferÃ°a": 8274,
      "eÃ°li": 8275,
      "deildin": 8276,
      "ĠgjaldÃ¾rota": 8277,
      "ĠÃ¾Ã¡gu": 8278,
      "Ġmisser": 8279,
      "ĠVol": 8280,
      "ĠgÃ¡fu": 8281,
      "Ġopinberum": 8282,
      "Ã¦riÃ°": 8283,
      "ĠHÃ¶fundur": 8284,
      "Ġ49": 8285,
      "ÃŃtar": 8286,
      "ĠÃºrslitin": 8287,
      "ĠSmÃ¡ra": 8288,
      "Ġhverri": 8289,
      "Ġlanga": 8290,
      "ĠÃ¡rabil": 8291,
      "Ġskapast": 8292,
      "ĠPalestÃŃnum": 8293,
      "Ġunglinga": 8294,
      "ĠÃ¡nÃ¦gÃ°": 8295,
      "ĠgreiÃ°slur": 8296,
      "Ġkyrr": 8297,
      "ĠkjÃ¶t": 8298,
      "Ġjepp": 8299,
      "ĠKeflavÃŃkurflugvelli": 8300,
      "Ġtilliti": 8301,
      "Ġtoppi": 8302,
      "ĠgerÃ°ur": 8303,
      "ĠEvrÃ³pumÃ³t": 8304,
      "skvÃ¶ldiÃ°": 8305,
      "Ġgleyma": 8306,
      "ly": 8307,
      "Ġsu": 8308,
      "ĠRaf": 8309,
      "brota": 8310,
      "ĠSpÃ¡n": 8311,
      "ĠveÃ°ri": 8312,
      "Ãºnum": 8313,
      "ĠrÃ¡Ã°herrar": 8314,
      "stjÃ³rar": 8315,
      "ĠAc": 8316,
      "ĠgleÃ°": 8317,
      "Ġalmenningi": 8318,
      "wood": 8319,
      "ogiÃ°": 8320,
      "ĠbÃ¦jarstjÃ³rn": 8321,
      "ĠKast": 8322,
      "ĠhagkvÃ¦m": 8323,
      "Ġnefndin": 8324,
      "katt": 8325,
      "ĠEurovision": 8326,
      "Ġ63": 8327,
      "ĠLauga": 8328,
      "ĠtÃ¶ldu": 8329,
      "Ġsambandsins": 8330,
      "agjaldeyriss": 8331,
      "ĠÃļrslit": 8332,
      "hugs": 8333,
      "ĠÃŀÃ³rhall": 8334,
      "estar": 8335,
      "Ġdvel": 8336,
      "Ġviti": 8337,
      "bÃºÃ°ir": 8338,
      "ĠtungumÃ¡l": 8339,
      "ĠfÃ©lagi": 8340,
      "ĠheimsÃ³tt": 8341,
      "skÃ³li": 8342,
      "heit": 8343,
      "ĠstjÃ³rnarflokk": 8344,
      "sÃ¡Ã¦tlun": 8345,
      "ĠmeÃ°vit": 8346,
      "junar": 8347,
      "ĠviÃ°rÃ¦Ã°": 8348,
      "Ġheimildar": 8349,
      "Ġhelmingi": 8350,
      "Ġ41": 8351,
      "Ġlosun": 8352,
      "Ġmissk": 8353,
      "ĠAnnaÃ°": 8354,
      "skÃ¡ld": 8355,
      "ĠFyrst": 8356,
      "ĠmÃ¡lefnum": 8357,
      "kenn": 8358,
      "rÃ¦Ã°is": 8359,
      "ĠtÃ½": 8360,
      "Ġfarnir": 8361,
      "ĠÃ¡rsreik": 8362,
      "ĠIsavia": 8363,
      "ĠtiltÃ¶lulega": 8364,
      "ĠMannrÃ©tt": 8365,
      "Ġhverfa": 8366,
      "Ġbanki": 8367,
      "starfsemi": 8368,
      "ĠFljÃ³t": 8369,
      "Ġspilaranum": 8370,
      "ĠklÃ¦": 8371,
      "Ġrann": 8372,
      "gin": 8373,
      "ĠminnkaÃ°": 8374,
      "ĠleiÃ°toga": 8375,
      "Ġklukkustundir": 8376,
      "Ġgolf": 8377,
      "skÃ¡l": 8378,
      "ĠsÃ¶gunnar": 8379,
      "ĠEyr": 8380,
      "ĠLÃº": 8381,
      "shÃ¶ll": 8382,
      "by": 8383,
      "ĠAlÃ¾jÃ³Ã°agjaldeyriss": 8384,
      "bis": 8385,
      "ĠsviÃ°um": 8386,
      "Ġupplifa": 8387,
      "ĠEgyp": 8388,
      "Ã¦rt": 8389,
      "Ġvinnuna": 8390,
      "ĠrÃ¡Ã°uneyti": 8391,
      "ruÃ°": 8392,
      "sjÃºkdÃ³m": 8393,
      "svik": 8394,
      "Ġar": 8395,
      "Ġengum": 8396,
      "ĠbÃ¡Ã°ar": 8397,
      "ĠElÃŃsabet": 8398,
      "grip": 8399,
      "erÃŃ": 8400,
      "Ġmeint": 8401,
      "ĠAust": 8402,
      "ĠfÃ¦rslu": 8403,
      "fund": 8404,
      "ĠNorÃ°menn": 8405,
      "ĠGÃŃsladÃ³ttir": 8406,
      "kan": 8407,
      "greiÃ°a": 8408,
      "unkti": 8409,
      "ĠÃ¡fall": 8410,
      "shÃ¦": 8411,
      "ĠfÃ¦rÃ°": 8412,
      "Ġfyrradag": 8413,
      "Ġfeg": 8414,
      "dan": 8415,
      "stÃ¦Ã°u": 8416,
      "Ġtilnef": 8417,
      "Ġfanga": 8418,
      "ster": 8419,
      "ĠHu": 8420,
      "ĠÃŀÃ³rÃ°ur": 8421,
      "47": 8422,
      "slist": 8423,
      "ulum": 8424,
      "Ġaukna": 8425,
      "steins": 8426,
      "ĠSÃ¶ng": 8427,
      "ĠÃŀriÃ°": 8428,
      "ĠkÃ¶rf": 8429,
      "Ġeign": 8430,
      "ÃĲ": 8431,
      "ĠGylfa": 8432,
      "ĠumrÃ¦Ã°unni": 8433,
      "Ġneinn": 8434,
      "Ġhlutum": 8435,
      "cm": 8436,
      "ÃŃsl": 8437,
      "ĠSif": 8438,
      "Ġflokks": 8439,
      "Ġ...": 8440,
      "Ġheill": 8441,
      "ÃŃlar": 8442,
      "Ġhraun": 8443,
      "Ã³knast": 8444,
      "Ġlengst": 8445,
      "ĠtrÃºnaÃ°ar": 8446,
      "ĠÃ¾jÃ¡lfun": 8447,
      "astofnunar": 8448,
      "ĠÃ³vissa": 8449,
      "ĠMosfells": 8450,
      "ĠHerjÃ³lf": 8451,
      "ĠhagvÃ¶x": 8452,
      "Ġskilning": 8453,
      "Ġfelld": 8454,
      "ĠblaÃ°sins": 8455,
      "ĠÃ³Ã¾Ã¦g": 8456,
      "ĠbyggÃ°ar": 8457,
      "ĠgÃŃfur": 8458,
      "sÃ½ni": 8459,
      "ĠÃ¾rÃŃt": 8460,
      "hÃ¦tt": 8461,
      "ĠSol": 8462,
      "ĠBri": 8463,
      "ĠljÃ³Ã°": 8464,
      "Ġuppruna": 8465,
      "ĠskoÃ°anak": 8466,
      "Ġmyndin": 8467,
      "Ġskelf": 8468,
      "inf": 8469,
      "ĠhÃ¡deginu": 8470,
      "ĠÃ¡kvÃ¶rÃ°": 8471,
      "Ġforsetans": 8472,
      "ĠMeiri": 8473,
      "Ġbyrjar": 8474,
      "Ã°ing": 8475,
      "abrÃ©fa": 8476,
      "ĠhÃ¡lfa": 8477,
      "SjÃ¡varÃºtvegsmÃ¡l": 8478,
      "EC": 8479,
      "ĠnÃ½tingu": 8480,
      "ĠÃºtgerÃ°": 8481,
      "ĠReut": 8482,
      "ĠFriÃ°riksson": 8483,
      "ĠsÃ¶l": 8484,
      "umferÃ°": 8485,
      "Ġbik": 8486,
      "sÃ¡tt": 8487,
      "artÃŃma": 8488,
      "ĠfjÃ¶lskyldur": 8489,
      "arfÃ©lagiÃ°": 8490,
      "ĠSÃ¦m": 8491,
      "ĠrannsÃ³kna": 8492,
      "ĠÃºtbreiÃ°slu": 8493,
      "ĠferÃ°alag": 8494,
      "ĠBaug": 8495,
      "Ġungt": 8496,
      "Ġsamstarfs": 8497,
      "vÃŃkingar": 8498,
      "ĠSÃ³lveig": 8499,
      "Ġgreindist": 8500,
      "ĠkÃ¶flum": 8501,
      "ĠfjÃ¡rmÃ¡lak": 8502,
      "Ġlaust": 8503,
      "ĠnÃºtÃŃm": 8504,
      "Ġkrafa": 8505,
      "geirsson": 8506,
      "ĠÃºrslita": 8507,
      "ĠferÃ°amann": 8508,
      "ĠViktor": 8509,
      "ĠÃģrnadÃ³ttir": 8510,
      "ĠgreinargerÃ°": 8511,
      "ĠSagÃ°i": 8512,
      "hljÃ³": 8513,
      "Ġhvarf": 8514,
      "Ġunnt": 8515,
      "Ġrangt": 8516,
      "Ġreisa": 8517,
      "ĠbÃŃllinn": 8518,
      "Ġvernda": 8519,
      "Ġ85": 8520,
      "ĠÃ¡varp": 8521,
      "Ã©la": 8522,
      "Ġsigrinum": 8523,
      "ĠlÃŃfinu": 8524,
      "Ġbygging": 8525,
      "ĠstaÃ°festir": 8526,
      "ĠStjÃ¶rnunnar": 8527,
      "ĠMel": 8528,
      "Ġyfirgefa": 8529,
      "ĠsÃ³ttu": 8530,
      "Ġsleppa": 8531,
      "ĠVilla": 8532,
      "ĠFleiri": 8533,
      "der": 8534,
      "Ġmarkinu": 8535,
      "ĠHÃ³fa": 8536,
      "ĠÃ¾orsk": 8537,
      "brÃº": 8538,
      "outh": 8539,
      "afÃ©lÃ¶g": 8540,
      "aldast": 8541,
      "ĠhÃ¶fÃ°i": 8542,
      "ĠhrÃ¦Ã°": 8543,
      "ĠfiskveiÃ°": 8544,
      "verÃ°ir": 8545,
      "ĠRich": 8546,
      "Ġkunna": 8547,
      "skÃ³": 8548,
      "ĠsjÃ³n": 8549,
      "ĠsniÃ°": 8550,
      "erg": 8551,
      "ĠlÃŃkamsÃ¡rÃ¡s": 8552,
      "Ġhollen": 8553,
      "ĠÂ": 8554,
      "lÃ¦knis": 8555,
      "ĠhÃ¡marki": 8556,
      "ĠÃ¦fingar": 8557,
      "NN": 8558,
      "ĠIngim": 8559,
      "hagsm": 8560,
      "vestur": 8561,
      "brÃ¶gÃ°um": 8562,
      "kunar": 8563,
      "arfÃ³lk": 8564,
      "ĠglÃŃma": 8565,
      "ĠGest": 8566,
      "ĠRonaldo": 8567,
      "ĠaÃ°ilum": 8568,
      "ĠmÃŃnÃºtna": 8569,
      "Ġsamkomu": 8570,
      "ĠtÃŃÃ°ina": 8571,
      "Ġtalar": 8572,
      "Ġeystra": 8573,
      "Ġframleidd": 8574,
      "ovic": 8575,
      "Ġpab": 8576,
      "ĠBli": 8577,
      "ĠÃºrvalsdeildarinnar": 8578,
      "Ġverslanir": 8579,
      "ĠBÃºiÃ°": 8580,
      "ilegra": 8581,
      "ĠmÃ¦la": 8582,
      "Ġreynir": 8583,
      "Ġskell": 8584,
      "orth": 8585,
      "ĠPers": 8586,
      "ĠMour": 8587,
      "ĠMilan": 8588,
      "Ġevr": 8589,
      "ĠnÃ½skÃ¶pun": 8590,
      "Ġskulda": 8591,
      "virkni": 8592,
      "eigenda": 8593,
      "Ġhim": 8594,
      "Ġnefndar": 8595,
      "undin": 8596,
      "ĠprÃ³fa": 8597,
      "âĢ¦": 8598,
      "ĠrÃ¡Ã°uneytisins": 8599,
      "Ġspurt": 8600,
      "ĠbrÃ©fa": 8601,
      "staf": 8602,
      "Ġalmenningur": 8603,
      "ĠQu": 8604,
      "ĠÃģskrifendur": 8605,
      "Ġ700": 8606,
      "ageym": 8607,
      "ylf": 8608,
      "Ã¾rÃ³tta": 8609,
      "44": 8610,
      "ĠEdda": 8611,
      "Ġeigenda": 8612,
      "=\"": 8613,
      "ĠstjÃ³rnenda": 8614,
      "Ġ140": 8615,
      "ĠrÃŃkislÃ¶greglustjÃ³ra": 8616,
      "ĠviÃ°tÃ¶l": 8617,
      "Ġraunverulega": 8618,
      "ÃŃÃ³": 8619,
      "Ã¡Ã°um": 8620,
      "ĠDaÃ°i": 8621,
      "ĠÃºtskÃ½rir": 8622,
      "lÃŃ": 8623,
      "ĠopnuÃ°": 8624,
      "ĠrannsÃ³knum": 8625,
      "Ġtonnum": 8626,
      "urt": 8627,
      "ĠhÃºÃ°": 8628,
      "bakka": 8629,
      "Ġfrumkv": 8630,
      "ĠTÃ¦p": 8631,
      "ĠrÃŃkisÃºtvarp": 8632,
      "rÃ¦num": 8633,
      "ĠTilkyn": 8634,
      "Ã¡st": 8635,
      "ĠHauksson": 8636,
      "ĠÃ¾Ã½sku": 8637,
      "ĠMÃ¶r": 8638,
      "ĠsÃ½ndu": 8639,
      "ĠlÃ¦knar": 8640,
      "vÃ¦n": 8641,
      "vest": 8642,
      "ĠstjÃ³rnmÃ¡lum": 8643,
      "konan": 8644,
      "ĠFyrstu": 8645,
      "Ġfella": 8646,
      "Ġ67": 8647,
      "ĠReuters": 8648,
      "Ġvirka": 8649,
      "lingur": 8650,
      "HÃºn": 8651,
      "tekjur": 8652,
      "ĠHen": 8653,
      "pan": 8654,
      "ĠSteinar": 8655,
      "Ġvini": 8656,
      "ĠBayern": 8657,
      "ĠfÃ¦kka": 8658,
      "Ġeldur": 8659,
      "ĠÃ¡stÃ¦Ã°an": 8660,
      "ĠframhaldiÃ°": 8661,
      "ĠauglÃ½sing": 8662,
      "utÃŃu": 8663,
      "ĠTra": 8664,
      "chen": 8665,
      "ĠTek": 8666,
      "vÃ¶rum": 8667,
      "ĠumsÃ³kn": 8668,
      "ĠhÃ¦kkar": 8669,
      "bre": 8670,
      "ĠKvik": 8671,
      "meÃ°ferÃ°": 8672,
      "ĠtÃ¡k": 8673,
      "ĠFramkvÃ¦mdastjÃ³ri": 8674,
      "ĠvÃŃsaÃ°i": 8675,
      "ĠstaÃ°festa": 8676,
      "ĠÃģgÃºstsson": 8677,
      "ĠorÃ°nir": 8678,
      "Ġfagnar": 8679,
      "ĠsamrÃ¡Ã°i": 8680,
      "67": 8681,
      "Ġkosningabar": 8682,
      "lÃ¶gregluÃ¾jÃ³nn": 8683,
      "Ã¡Ã¦t": 8684,
      "ĠflÃº": 8685,
      "ĠtÃŃmap": 8686,
      "Ġhafin": 8687,
      "ĠMor": 8688,
      "ĠbrjÃ³": 8689,
      "ĠvÃŃsbendingar": 8690,
      "tÃ³k": 8691,
      "cia": 8692,
      "ĠÃĸgmundur": 8693,
      "ĠHljÃ³": 8694,
      "Ġhaus": 8695,
      "Ġlausnir": 8696,
      "ĠÃĸrmerki": 8697,
      "AR": 8698,
      "Ġsala": 8699,
      "ĠneitaÃ°i": 8700,
      "ĠStjÃ¶rnunni": 8701,
      "Ã¡Ã°u": 8702,
      "Ġvefnum": 8703,
      "ĠÃŀorlÃ¡kshÃ¶fn": 8704,
      "ĠjafnrÃ©ttis": 8705,
      "Ġsaga": 8706,
      "rÃ¦k": 8707,
      "rÃ³Ã°ir": 8708,
      "efnan": 8709,
      "Ġfluttir": 8710,
      "Ġdagur": 8711,
      "orni": 8712,
      "ĠsÃ¶gÃ°ust": 8713,
      "vinna": 8714,
      "enningu": 8715,
      "ĠvirÃ°isauka": 8716,
      "rÃ¦nt": 8717,
      "ĠsautjÃ¡n": 8718,
      "Ġaugu": 8719,
      "ĠLyf": 8720,
      "ĠAfrÃŃku": 8721,
      "ĠkallaÃ°i": 8722,
      "ĠsauÃ°": 8723,
      "Ġkaupum": 8724,
      "Ġumsvif": 8725,
      "tust": 8726,
      "ĠÃŃtal": 8727,
      "ĠHonum": 8728,
      "Ġbankarnir": 8729,
      "Ġverslunum": 8730,
      "ilegan": 8731,
      "Ġverst": 8732,
      "Ġafsl": 8733,
      "ĠkynlÃŃf": 8734,
      "tanir": 8735,
      "Ġupplifun": 8736,
      "ĠFulltrÃºar": 8737,
      "ĠfrÃ¡bÃ¦ra": 8738,
      "ĠSunna": 8739,
      "ĠNorÃ°urland": 8740,
      "ĠGuardian": 8741,
      "ĠmiÃ°vikudaginn": 8742,
      "ĠVegager": 8743,
      "ux": 8744,
      "Ġsprengju": 8745,
      "Ã¶gulegt": 8746,
      "ĠÃ¡ttunda": 8747,
      "astofn": 8748,
      "samlega": 8749,
      "ĠEgill": 8750,
      "orld": 8751,
      "olÃŃu": 8752,
      "ĠÃ¡fengi": 8753,
      "Ġlaunum": 8754,
      "TO": 8755,
      "Ġsmella": 8756,
      "ĠKirkju": 8757,
      "ĠÃĵlympÃŃuleik": 8758,
      "Ġyfirvalda": 8759,
      "ĠbiÃ°ja": 8760,
      "ĠbjÃ³r": 8761,
      "ĠborgarstjÃ³rnar": 8762,
      "ĠÃ¡ramÃ³tin": 8763,
      "ĠhagrÃ¦Ã°": 8764,
      "ĠreiÃ°u": 8765,
      "fisk": 8766,
      "ĠÃģsmundur": 8767,
      "ĠlÃ¡tist": 8768,
      "ĠgjÃ¶f": 8769,
      "Ġsamkynhneig": 8770,
      "leys": 8771,
      "merkur": 8772,
      "fÃ©": 8773,
      "ĠLandsrÃ©tt": 8774,
      "AmerÃŃka": 8775,
      "ĠstÃ¦Ã°i": 8776,
      "ĠNÃºna": 8777,
      "tional": 8778,
      "Ġstaddur": 8779,
      "ĠfrÃ©ttastofa": 8780,
      "vog": 8781,
      "verÃ°iÃ°": 8782,
      "lurnar": 8783,
      "ĠskaÃ°a": 8784,
      "piÃ°": 8785,
      "Ġtekst": 8786,
      "ĠSteinn": 8787,
      "ĠÃ¾rÃ³a": 8788,
      "ĠbÃ¦ndur": 8789,
      "ĠtÃŃmarit": 8790,
      "urÃ°ar": 8791,
      "ĠAlbert": 8792,
      "ĠtilbÃºnir": 8793,
      "Ġeyr": 8794,
      "ĠmargvÃŃ": 8795,
      "ĠKatrÃŃ": 8796,
      "ĠsÃ¦ta": 8797,
      "horn": 8798,
      "kunum": 8799,
      "bandiÃ°": 8800,
      "sleiÃ°": 8801,
      "ĠAss": 8802,
      "ĠSÃ©": 8803,
      "ĠÃŀorgeir": 8804,
      "sstofn": 8805,
      "ĠmjÃ³lkur": 8806,
      "staÃ°ar": 8807,
      "undu": 8808,
      "Ġaftan": 8809,
      "ĠFM": 8810,
      "Ġleikslok": 8811,
      "vari": 8812,
      "ĠmÃ¶rkuÃ°um": 8813,
      "ner": 8814,
      "Ġdaglega": 8815,
      "ĠÃ¡skorun": 8816,
      "ĠEyjamenn": 8817,
      "Ã¶mb": 8818,
      "Ġpart": 8819,
      "ĠdÃ¦ma": 8820,
      "otkun": 8821,
      "eppnin": 8822,
      "ytur": 8823,
      "ĠÃ¡rek": 8824,
      "hÃ¡tÃŃÃ°ar": 8825,
      "Ġskilar": 8826,
      "linn": 8827,
      "ĠFjÃ³rir": 8828,
      "ĠÃ¡kveÃ°na": 8829,
      "ĠnÃ½tur": 8830,
      "ĠÃģsdÃŃs": 8831,
      "ĠMÃ½r": 8832,
      "ĠvinnubrÃ¶gÃ°": 8833,
      "ildar": 8834,
      "ĠvÃ¶k": 8835,
      "Ġvegg": 8836,
      "ĠfÃ³": 8837,
      "ĠstjÃ³rnmÃ¡lamenn": 8838,
      "laÃ°ur": 8839,
      "ĠFL": 8840,
      "Ġframvegis": 8841,
      "ĠmiÃ°ju": 8842,
      "ĠsjÃ¡lfa": 8843,
      "ĠtÃ³nleikum": 8844,
      "ganga": 8845,
      "aflokkur": 8846,
      "ĠsjÃ¡varÃºtvegi": 8847,
      "ĠbÃŃÃ°ur": 8848,
      "ĠDar": 8849,
      "ĠumrÃ¦dd": 8850,
      "ĠbÃ¦ti": 8851,
      "Ġlistanum": 8852,
      "sÃ¦t": 8853,
      "Ġtilkynna": 8854,
      "Ġheimilanna": 8855,
      "ĠsvigrÃºm": 8856,
      "ĠgjÃ¶ld": 8857,
      "ĠBjÃ¶rnsdÃ³ttir": 8858,
      "ĠsamanburÃ°ar": 8859,
      "ĠbÃ³kinni": 8860,
      "ee": 8861,
      "ĠReykjanesbÃ¦": 8862,
      "ĠvÃŃsitalan": 8863,
      "knattleik": 8864,
      "ĠkÃ¦ru": 8865,
      "ker": 8866,
      "ĠfrÃ¦": 8867,
      "Nei": 8868,
      "hÃ³li": 8869,
      "ĠLandsvirkjunar": 8870,
      "ĠFinnur": 8871,
      "smÃ³t": 8872,
      "Ġ?": 8873,
      "69": 8874,
      "ĠviÃ°skiptavina": 8875,
      "ĠtrÃ©": 8876,
      "ĠmikilvÃ¦gur": 8877,
      "rÃ¦Ã°u": 8878,
      "Ġleikja": 8879,
      "aksÃ³knara": 8880,
      "Ã¶ddu": 8881,
      "ĠSnÃ¦r": 8882,
      "ĠbannaÃ°": 8883,
      "Ġaukinn": 8884,
      "iskos": 8885,
      "ĠsÃ³ttvarnar": 8886,
      "Ġpott": 8887,
      "ĠÃįsafjarÃ°ar": 8888,
      "Ġstem": 8889,
      "ĠvÃ¶llinn": 8890,
      "Ġkosningunum": 8891,
      "ĠFann": 8892,
      "ĠspÃŃtalans": 8893,
      "eppninnar": 8894,
      "stjÃ³rans": 8895,
      "Ġfylgdi": 8896,
      "vÃ¶l": 8897,
      "Ġkraft": 8898,
      "ile": 8899,
      "ĠhÃ¦sta": 8900,
      "Ġvatns": 8901,
      "Ã¡rs": 8902,
      "ital": 8903,
      "ĠfjÃ¶lgaÃ°i": 8904,
      "blaÃ°i": 8905,
      "ĠstarfsfÃ³lks": 8906,
      "lyf": 8907,
      "arÃ°a": 8908,
      "stÃ¦r": 8909,
      "Ġennfremur": 8910,
      "Ġbyss": 8911,
      "ĠRÃ¦tt": 8912,
      "ĠSigurbjÃ¶rn": 8913,
      "Ã¡Ã°i": 8914,
      "oy": 8915,
      "ĠPeter": 8916,
      "ĠHand": 8917,
      "ĠEF": 8918,
      "ĠÃŃslenskar": 8919,
      "ĠÃ¡hugi": 8920,
      "Ġsyngja": 8921,
      "Ġvopna": 8922,
      "Ġeinasta": 8923,
      "ĠreiknaÃ°": 8924,
      "ĠlÃŃnu": 8925,
      "marsdÃ³ttir": 8926,
      "anlegur": 8927,
      "Ġsigurvegar": 8928,
      "Ġsein": 8929,
      "ĠtakmÃ¶rk": 8930,
      "ĠRakel": 8931,
      "ĠfjÃ¡rmagna": 8932,
      "ĠpÃ³litÃŃk": 8933,
      "avÃ©l": 8934,
      "ĠAF": 8935,
      "ĠbÃ³ka": 8936,
      "Ġforeldrum": 8937,
      "ĠBerglind": 8938,
      "ĠMourinho": 8939,
      "Ġfreg": 8940,
      "ĠsÃ¦tt": 8941,
      "Ġgu": 8942,
      "ĠhlutafÃ©": 8943,
      "castle": 8944,
      "ĠrÃ©tti": 8945,
      "Ġhreint": 8946,
      "Ġflokkanna": 8947,
      "ĠmeiÃ°sli": 8948,
      "off": 8949,
      "Ġmennirnir": 8950,
      "ĠtÃŃunda": 8951,
      "ĠfulltrÃºum": 8952,
      "ĠferÃ°amÃ¶nnum": 8953,
      "ĠatriÃ°": 8954,
      "Ġgreiningu": 8955,
      "ĠStarfsmenn": 8956,
      "Ġskall": 8957,
      "Ġfyrram": 8958,
      "ĠHilmar": 8959,
      "ileika": 8960,
      "nuÃ°um": 8961,
      "uÃ°ust": 8962,
      "Ġtexta": 8963,
      "ĠSindri": 8964,
      "bla": 8965,
      "ĠÃ³sam": 8966,
      "Ġgjaf": 8967,
      "ĠWat": 8968,
      "jalli": 8969,
      "ennu": 8970,
      "ĠklukkutÃŃma": 8971,
      "ĠÃ¡gÃ¦ti": 8972,
      "Ġtilfinning": 8973,
      "ĠhÃ¶fuÃ°borginni": 8974,
      "Ġfrelsi": 8975,
      "ĠfurÃ°u": 8976,
      "Ġkrefst": 8977,
      "Ġpassa": 8978,
      "78": 8979,
      "ĠRÃŃkisendur": 8980,
      "vÃ¶llur": 8981,
      "mÃ¦ta": 8982,
      "ĠÃ½mist": 8983,
      "jiÃ°": 8984,
      "ĠnÃ¶fn": 8985,
      "ĠGuÃ°nÃ½": 8986,
      "ĠumsÃ¶gn": 8987,
      "Ġendanlega": 8988,
      "ĠfÃ¡tt": 8989,
      "Ġafgrei": 8990,
      "gjar": 8991,
      "iskup": 8992,
      "Ġskilyr": 8993,
      "ĠsÃ¶gur": 8994,
      "astr": 8995,
      "ĠBakk": 8996,
      "ĠgÃ³Ã°ir": 8997,
      "ĠerfiÃ°ara": 8998,
      "ĠMÃ½": 8999,
      "odaf": 9000,
      "Ġveginum": 9001,
      "Ġ56": 9002,
      "ĠÃįA": 9003,
      "ungiÃ°": 9004,
      "fundar": 9005,
      "Ġkrist": 9006,
      "ĠLundÃºnum": 9007,
      "stofnunar": 9008,
      "skju": 9009,
      "Ġreyni": 9010,
      "ĠferÃ°um": 9011,
      "Ġhart": 9012,
      "Ġsamninginn": 9013,
      "ĠgagnrÃ½nir": 9014,
      "Ġfrumvarpi": 9015,
      "Ã³ri": 9016,
      "ĠsÃ½ningunni": 9017,
      "Ġumtalsvert": 9018,
      "bjargar": 9019,
      "ĠGreen": 9020,
      "ĠÃ¾jÃ¡lfar": 9021,
      "ĠÃįsraels": 9022,
      "eth": 9023,
      "Ġneytenda": 9024,
      "sj": 9025,
      "Ġteknir": 9026,
      "odafone": 9027,
      "ĠfÃ¡ir": 9028,
      "Ġknattspyr": 9029,
      "ĠMikilvÃ¦g": 9030,
      "mennirnir": 9031,
      "ĠCarl": 9032,
      "ĠEggertsson": 9033,
      "ĠSeyÃ°i": 9034,
      "ferli": 9035,
[...]
