{
  "version": "1.0",
  "truncation": null,
  "padding": null,
  "added_tokens": [
    {
      "id": 0,
      "content": "<|endoftext|>",
      "single_word": false,
      "lstrip": false,
      "rstrip": false,
      "normalized": false,
      "special": true
    }
  ],
  "normalizer": null,
  "pre_tokenizer": {
    "type": "ByteLevel",
    "add_prefix_space": false,
    "trim_offsets": true,
    "use_regex": true
  },
  "post_processor": {
    "type": "ByteLevel",
    "add_prefix_space": true,
    "trim_offsets": false,
    "use_regex": true
  },
  "decoder": {
    "type": "ByteLevel",
    "add_prefix_space": true,
    "trim_offsets": true,
    "use_regex": true
  },
  "model": {
    "type": "BPE",
    "dropout": null,
    "unk_token": null,
    "continuing_subword_prefix": null,
    "end_of_word_suffix": null,
    "fuse_unk": false,
    "vocab": {
      "<|endoftext|>": 0,
      "!": 1,
      "\"": 2,
      "#": 3,
      "$": 4,
      "%": 5,
      "&": 6,
      "'": 7,
      "(": 8,
      ")": 9,
      "*": 10,
      "+": 11,
      ",": 12,
      "-": 13,
      ".": 14,
      "/": 15,
      "0": 16,
      "1": 17,
      "2": 18,
      "3": 19,
      "4": 20,
      "5": 21,
      "6": 22,
      "7": 23,
      "8": 24,
      "9": 25,
      ":": 26,
      ";": 27,
      "<": 28,
      "=": 29,
      ">": 30,
      "?": 31,
      "@": 32,
      "A": 33,
      "B": 34,
      "C": 35,
      "D": 36,
      "E": 37,
      "F": 38,
      "G": 39,
      "H": 40,
      "I": 41,
      "J": 42,
      "K": 43,
      "L": 44,
      "M": 45,
      "N": 46,
      "O": 47,
      "P": 48,
      "Q": 49,
      "R": 50,
      "S": 51,
      "T": 52,
      "U": 53,
      "V": 54,
      "W": 55,
      "X": 56,
      "Y": 57,
      "Z": 58,
      "[": 59,
      "\\": 60,
      "]": 61,
      "^": 62,
      "_": 63,
      "`": 64,
      "a": 65,
      "b": 66,
      "c": 67,
      "d": 68,
      "e": 69,
      "f": 70,
      "g": 71,
      "h": 72,
      "i": 73,
      "j": 74,
      "k": 75,
      "l": 76,
      "m": 77,
      "n": 78,
      "o": 79,
      "p": 80,
      "q": 81,
      "r": 82,
      "s": 83,
      "t": 84,
      "u": 85,
      "v": 86,
      "w": 87,
      "x": 88,
      "y": 89,
      "z": 90,
      "{": 91,
      "|": 92,
      "}": 93,
      "~": 94,
      "¡": 95,
      "¢": 96,
      "£": 97,
      "¤": 98,
      "¥": 99,
      "¦": 100,
      "§": 101,
      "¨": 102,
      "©": 103,
      "ª": 104,
      "«": 105,
      "¬": 106,
      "®": 107,
      "¯": 108,
      "°": 109,
      "±": 110,
      "²": 111,
      "³": 112,
      "´": 113,
      "¶": 114,
      "·": 115,
      "¸": 116,
      "¹": 117,
      "º": 118,
      "»": 119,
      "¼": 120,
      "½": 121,
      "¾": 122,
      "¿": 123,
      "Â": 124,
      "Ã": 125,
      "â": 126,
      "Ġ": 127,
      "Ģ": 128,
      "ģ": 129,
      "Ħ": 130,
      "ħ": 131,
      "Ĩ": 132,
      "ĩ": 133,
      "Ī": 134,
      "ī": 135,
      "ĭ": 136,
      "į": 137,
      "Ĳ": 138,
      "Ĵ": 139,
      "ĵ": 140,
      "ĸ": 141,
      "ĺ": 142,
      "ļ": 143,
      "ľ": 144,
      "Ŀ": 145,
      "ŀ": 146,
      "ł": 147,
      "Ń": 148,
      "Ã°": 149,
      "ĠÃ": 150,
      "aÃ°": 151,
      "Ġs": 152,
      "ĠÃ¾": 153,
      "Ġe": 154,
      "ar": 155,
      "in": 156,
      "Ġh": 157,
      "ĠaÃ°": 158,
      "Ġv": 159,
      "Ġf": 160,
      "um": 161,
      "iÃ°": 162,
      "Ã¡": 163,
      "an": 164,
      "Ġm": 165,
      "Ã¦": 166,
      "ir": 167,
      "er": 168,
      "st": 169,
      "ur": 170,
      "ĠÃ¡": 171,
      "il": 172,
      "ÃŃ": 173,
      "Ġo": 174,
      "Ġt": 175,
      "ĠÃ¾e": 176,
      "Ã³": 177,
      "Ã¶": 178,
      "Ġog": 179,
      "tt": 180,
      "Ġer": 181,
      "eg": 182,
      "Ġl": 183,
      "ĠÃŃ": 184,
      "un": 185,
      "em": 186,
      "Ã©": 187,
      "af": 188,
      "am": 189,
      "ki": 190,
      "ss": 191,
      "Ġg": 192,
      "Ġsem": 193,
      "al": 194,
      "ing": 195,
      "inn": 196,
      "Ġr": 197,
      "Ġb": 198,
      "Ġn": 199,
      "Ġtil": 200,
      "yr": 201,
      "en": 202,
      "Ġk": 203,
      "Ġum": 204,
      "ĠÃ¾ess": 205,
      "ĠÃ¾aÃ°": 206,
      "Ãº": 207,
      "Ġfr": 208,
      "ef": 209,
      "Ġver": 210,
      "ann": 211,
      "ag": 212,
      "Ġst": 213,
      "Ã¡l": 214,
      "ĠviÃ°": 215,
      "jÃ³": 216,
      "or": 217,
      "and": 218,
      "Ġek": 219,
      "vÃŃ": 220,
      "Ã°i": 221,
      "Ġekki": 222,
      "ĠÃŀ": 223,
      "Ġfyr": 224,
      "ig": 225,
      "ĠÃ¾vÃŃ": 226,
      "Ã©r": 227,
      "na": 228,
      "Ã°a": 229,
      "Ġen": 230,
      "Ġhv": 231,
      "leg": 232,
      "ra": 233,
      "Ġme": 234,
      "Ġsk": 235,
      "ja": 236,
      "lu": 237,
      "ei": 238,
      "Ġfyrir": 239,
      "ti": 240,
      "ey": 241,
      "ri": 242,
      "Ã¶g": 243,
      "Ã½": 244,
      "el": 245,
      "ins": 246,
      "kk": 247,
      "ta": 248,
      "Ġhef": 249,
      "Ġaf": 250,
      "Ġsam": 251,
      "sk": 252,
      "au": 253,
      "Ġfram": 254,
      "ĠmeÃ°": 255,
      "tta": 256,
      "Ġhaf": 257,
      "Ġal": 258,
      "nar": 259,
      "Ġko": 260,
      "Ġef": 261,
      "ĠÃ©": 262,
      "ĠÃ©g": 263,
      "Ġsv": 264,
      "Ã°u": 265,
      "Ġvar": 266,
      "nd": 267,
      "enn": 268,
      "und": 269,
      "ĠmÃ¡l": 270,
      "ka": 271,
      "jÃ¡": 272,
      "la": 273,
      "ĠE": 274,
      "ĠÃº": 275,
      "ĠH": 276,
      "kv": 277,
      "ĠÃ¾Ã¡": 278,
      "ĠhÃ¦": 279,
      "īg": 280,
      "ĠÃŀaÃ°": 281,
      "ĠÃīg": 282,
      "Ġger": 283,
      "ni": 284,
      "eiÃ°": 285,
      "Ã°ur": 286,
      "Ã¶r": 287,
      "li": 288,
      "Ã¾": 289,
      "Ã¡Ã°": 290,
      "pp": 291,
      "ĠsÃ©": 292,
      "Ġd": 293,
      "lega": 294,
      "at": 295,
      "ĠveriÃ°": 296,
      "andi": 297,
      "Ġhefur": 298,
      "ek": 299,
      "ĠÃ¾etta": 300,
      "Ġkom": 301,
      "Ġfor": 302,
      "sl": 303,
      "Ġu": 304,
      "ning": 305,
      "ĠÃ¾eir": 306,
      "Ġeru": 307,
      "num": 308,
      "ver": 309,
      "Ġein": 310,
      "Ã¦r": 311,
      "ĠS": 312,
      "Ġveg": 313,
      "ĠÃ¾ar": 314,
      "ald": 315,
      "Ġgr": 316,
      "ik": 317,
      "jÃ³r": 318,
      "ĠhÃ©r": 319,
      "Ġhafa": 320,
      "end": 321,
      "lag": 322,
      "Ġ1": 323,
      "yg": 324,
      "ĠrÃŃ": 325,
      "inu": 326,
      "ĠsÃŃ": 327,
      "Ġupp": 328,
      "et": 329,
      "sta": 330,
      "Ġbr": 331,
      "Ġsvo": 332,
      "ug": 333,
      "tir": 334,
      "Ã°ar": 335,
      "ĠÃ¶": 336,
      "ĠsÃ©r": 337,
      "ĠA": 338,
      "Ã¦m": 339,
      "ygg": 340,
      "eti": 341,
      "ll": 342,
      "ara": 343,
      "inni": 344,
      "Ġfors": 345,
      "ĠnÃº": 346,
      "is": 347,
      "gar": 348,
      "ld": 349,
      "ĠÃ³": 350,
      "ĠV": 351,
      "ĠrÃŃki": 352,
      "arf": 353,
      "anna": 354,
      "Ã¦Ã°": 355,
      "Ġmik": 356,
      "ingar": 357,
      "ein": 358,
      "Ġat": 359,
      "ĠÃºt": 360,
      "sins": 361,
      "eng": 362,
      "ĠÃ¾ing": 363,
      "Ġall": 364,
      "ĠÃ¾essu": 365,
      "im": 366,
      "ĠÃį": 367,
      "ild": 368,
      "Ã©tt": 369,
      "ĠrÃ¡Ã°": 370,
      "jÃ¡r": 371,
      "okk": 372,
      "var": 373,
      "ĠeÃ°a": 374,
      "Ã¦Ã°i": 375,
      "ang": 376,
      "Ġhver": 377,
      ".,": 378,
      "nu": 379,
      "Ġhann": 380,
      "Ã¶f": 381,
      "sm": 382,
      "Ġsj": 383,
      "ĠÃ¾eim": 384,
      "ĠlÃŃ": 385,
      "Ġeins": 386,
      "ĠÃ¡r": 387,
      "kip": 388,
      "Ġland": 389,
      "ĠfrÃ¡": 390,
      "it": 391,
      "stv": 392,
      "naÃ°": 393,
      "eld": 394,
      "Ġau": 395,
      "Ġeftir": 396,
      "jÃ³Ã°": 397,
      "Ġvil": 398,
      "Ġj": 399,
      "ĠF": 400,
      "efnd": 401,
      "Ã¦ri": 402,
      "lÃŃ": 403,
      "Ġund": 404,
      "Ġeig": 405,
      "ĠÃŀe": 406,
      "ileg": 407,
      "ĠfjÃ¡r": 408,
      "Ã¡lf": 409,
      "of": 410,
      "unar": 411,
      "ĠEn": 412,
      "erra": 413,
      "ĠrÃ¦": 414,
      "Ġor": 415,
      "ĠlÃ¶g": 416,
      "Ġtek": 417,
      "Ã³l": 418,
      "ĠÃ¦": 419,
      "Ġlag": 420,
      "Ġforseti": 421,
      "Ġvegna": 422,
      "Ġfrv": 423,
      "fr": 424,
      "fir": 425,
      "ĠÃ¾egar": 426,
      "Ġmenn": 427,
      "Ã¡tt": 428,
      "sst": 429,
      "ÃŃm": 430,
      "ĠhÃ¦stv": 431,
      "ĠverÃ°i": 432,
      "uÃ°": 433,
      "eit": 434,
      "tti": 435,
      "slu": 436,
      "Ġfl": 437,
      "itt": 438,
      "ĠM": 439,
      "ĠstjÃ³r": 440,
      "ĠÃ¾m": 441,
      "Ġinn": 442,
      "Ġfj": 443,
      "lut": 444,
      "lÃ¶g": 445,
      "unum": 446,
      "ast": 447,
      "Ġta": 448,
      "Ġkr": 449,
      "eim": 450,
      "Ġ2": 451,
      "ĠÃºr": 452,
      "Ġseg": 453,
      "ĠvÃ¦ri": 454,
      "kvÃ¦m": 455,
      "yfir": 456,
      "Ġmil": 457,
      "Ġheld": 458,
      "Ġmj": 459,
      "Ġvera": 460,
      "ĠÃ¾Ã³": 461,
      "ĠÃ¡kv": 462,
      "eÃ°": 463,
      "nir": 464,
      "ĠlÃ¡": 465,
      "ju": 466,
      "stu": 467,
      "eyt": 468,
      "ĠhÃº": 469,
      "ĠÃ¾ann": 470,
      "br": 471,
      "Ġyfir": 472,
      "gt": 473,
      "Ġokk": 474,
      "veg": 475,
      "erÃ°": 476,
      "Ġhafi": 477,
      "Ġann": 478,
      "Ã¶n": 479,
      "ĠstaÃ°": 480,
      "on": 481,
      "ĠmjÃ¶g": 482,
      "gr": 483,
      "ĠorÃ°": 484,
      "Ġumr": 485,
      "ari": 486,
      "ĠÃ¾essum": 487,
      "ĠrÃ©tt": 488,
      "jar": 489,
      "mÃ¡l": 490,
      "Ã¶k": 491,
      "tur": 492,
      "Ã©lag": 493,
      "Ã½r": 494,
      "fi": 495,
      "Ã¦k": 496,
      "ĠÃ¾essi": 497,
      "gja": 498,
      "yn": 499,
      "ĠsjÃ¡lf": 500,
      "Ġsp": 501,
      "est": 502,
      "oÃ°": 503,
      "Ġgera": 504,
      "ist": 505,
      "ingu": 506,
      "ĠÃ¾essa": 507,
      "ĠN": 508,
      "Ġnokk": 509,
      "ĠAl": 510,
      "ĠrÃŃkisst": 511,
      "menn": 512,
      "Ġley": 513,
      "Ġundir": 514,
      "iÃ°ur": 515,
      "Ġhe": 516,
      "ĠR": 517,
      "aÃ°ur": 518,
      "innu": 519,
      "hver": 520,
      "Ġmun": 521,
      "ĠAlÃ¾": 522,
      "Ġmar": 523,
      "Ġskip": 524,
      "Ġtaka": 525,
      "ko": 526,
      "âĢ": 527,
      "ort": 528,
      "Ġtal": 529,
      "ĠfÃ¡": 530,
      "ĠtÃŃm": 531,
      "ĠhvaÃ°": 532,
      "Ġget": 533,
      "jum": 534,
      "ĠÃįsl": 535,
      "Ġmeir": 536,
      "Ġtel": 537,
      "ĠnÃ½": 538,
      "sam": 539,
      "ĠB": 540,
      "Ã³k": 541,
      "innar": 542,
      "bÃº": 543,
      "inna": 544,
      "ĠnÃ¡": 545,
      "ĠvÃŃ": 546,
      "Ġstarf": 547,
      "Ã³r": 548,
      "ĠverÃ°ur": 549,
      "Ġgert": 550,
      "Ġend": 551,
      "afn": 552,
      "ĠmÃ©r": 553,
      "ofn": 554,
      "ĠÃ¾au": 555,
      "gj": 556,
      "Ã°an": 557,
      "stak": 558,
      "Ġkoma": 559,
      "ĠÃŀetta": 560,
      "all": 561,
      "legt": 562,
      "sa": 563,
      "ĠÃ¾eirra": 564,
      "Ġ19": 565,
      "rar": 566,
      "Ã°um": 567,
      "Ġnefnd": 568,
      "tl": 569,
      "00": 570,
      "Ã¶l": 571,
      "Ġhl": 572,
      "fl": 573,
      "aun": 574,
      "herra": 575,
      "Ã°r": 576,
      "rÃ³": 577,
      "eta": 578,
      "Ġheim": 579,
      "lÃŃk": 580,
      "ĠÃ¾Ã¦r": 581,
      "ĠÃ¾annig": 582,
      "Ġsag": 583,
      "ĠG": 584,
      "Ġhvort": 585,
      "ker": 586,
      "ĠhÃºn": 587,
      "emur": 588,
      "rh": 589,
      "ĠJ": 590,
      "ull": 591,
      "stÃ¶": 592,
      "Ġleg": 593,
      "att": 594,
      "Ġhug": 595,
      "ĠViÃ°": 596,
      "Ġfara": 597,
      "ind": 598,
      "rygg": 599,
      "Ã¶ld": 600,
      "Ġmill": 601,
      "Ġhr": 602,
      "ĠhÃ¶f": 603,
      "ĠbÃº": 604,
      "Ġvor": 605,
      "Ġrey": 606,
      "Ġskil": 607,
      "Ġsegja": 608,
      "Ġp": 609,
      "Ġmikil": 610,
      "ĠleiÃ°": 611,
      "ina": 612,
      "Ġverk": 613,
      "varp": 614,
      "riÃ°": 615,
      "ĠmÃ¡": 616,
      "Ġbreyt": 617,
      "nt": 618,
      "ans": 619,
      "Ġvel": 620,
      "ĠkomiÃ°": 621,
      "ĠrÃ¦Ã°a": 622,
      "Ġallt": 623,
      "anns": 624,
      "ĠÃ¡h": 625,
      "ĠO": 626,
      "fram": 627,
      "ĠtÃŃma": 628,
      "ĠhjÃ¡": 629,
      "iss": 630,
      "aÃ°i": 631,
      "ands": 632,
      "Ġsku": 633,
      "endur": 634,
      "Ġfull": 635,
      "ĠÃ¶Ã°r": 636,
      "gu": 637,
      "agn": 638,
      "ĠniÃ°ur": 639,
      "ĠbÃ¦": 640,
      "sson": 641,
      "jÃ¶r": 642,
      "Ġheldur": 643,
      "ĠverÃ°": 644,
      "ĠstjÃ³rn": 645,
      "inga": 646,
      "lit": 647,
      "Ġeinhver": 648,
      "ĠslÃŃk": 649,
      "ĠhefÃ°i": 650,
      "Ġsig": 651,
      "ĠmÃ¡li": 652,
      "Ġhald": 653,
      "Ġjafn": 654,
      "Ġvir": 655,
      "Ġdag": 656,
      "skip": 657,
      "ĠÃ¾ur": 658,
      "Ã¦g": 659,
      "Ã³t": 660,
      "Ġ-": 661,
      "Ġatv": 662,
      "Ã°v": 663,
      "kom": 664,
      "eik": 665,
      "yrÃ°i": 666,
      "anda": 667,
      "Ġath": 668,
      "stÃ¦": 669,
      "Ġbygg": 670,
      "Ġhlut": 671,
      "ett": 672,
      "fa": 673,
      "nig": 674,
      "Ġgrein": 675,
      "Ġvoru": 676,
      "Ġ3": 677,
      "Ġhlu": 678,
      "una": 679,
      "lÃ½": 680,
      "eitt": 681,
      "Ã¦ti": 682,
      "rÃº": 683,
      "unni": 684,
      "ana": 685,
      "kvÃ¦md": 686,
      "ĠÃģ": 687,
      "Ġfar": 688,
      "Ġeinn": 689,
      "efni": 690,
      "Ã°s": 691,
      "ĠÃ¾jÃ³Ã°": 692,
      "yl": 693,
      "Ġvegar": 694,
      "Ġof": 695,
      "ĠlÃŃka": 696,
      "ĠhÃ¦gt": 697,
      "rÃ¡": 698,
      "Ãºs": 699,
      "kja": 700,
      "ĠstjÃ³rnar": 701,
      "ynd": 702,
      "gur": 703,
      "dd": 704,
      "unn": 705,
      "ot": 706,
      "ĠsÃº": 707,
      "ĠOg": 708,
      "Ġeitt": 709,
      "ĠL": 710,
      "Ġokkar": 711,
      "jÃ³rn": 712,
      "eig": 713,
      "Ġfrum": 714,
      "Ġhvernig": 715,
      "ĠAlÃ¾ing": 716,
      "rÃ¡Ã°": 717,
      "Ġokkur": 718,
      "ĠsamÃ¾": 719,
      "Ġdr": 720,
      "Ã³m": 721,
      "Ġkemur": 722,
      "ĠfÃ³l": 723,
      "Ġhag": 724,
      "aup": 725,
      "itaÃ°": 726,
      "ĠmÃ¦": 727,
      "ĠÃ¾ingm": 728,
      "ĠmÃŃ": 729,
      "ĠÃ½": 730,
      "Ġber": 731,
      "ĠÃ¡Ã°ur": 732,
      "ĠÃ¶ll": 733,
      "ĠverÃ°a": 734,
      "miÃ°": 735,
      "ĠÃ¾jÃ³": 736,
      "anir": 737,
      "ĠsjÃ¡": 738,
      "eir": 739,
      "naÃ°ar": 740,
      "ĠskÃ½r": 741,
      "ĠsÃ©rstak": 742,
      "Ġalveg": 743,
      "hag": 744,
      "ĠÃ¾essari": 745,
      "ĠljÃ³": 746,
      "ilega": 747,
      "leiÃ°": 748,
      "ok": 749,
      "Ġeng": 750,
      "Ġkost": 751,
      "ĠframkvÃ¦md": 752,
      "Ã¶nd": 753,
      "ingum": 754,
      "ĠÃŃsl": 755,
      "eins": 756,
      "Ġbor": 757,
      "ĠÃ¾arf": 758,
      "Ã¦kk": 759,
      "Ġannar": 760,
      "Ġmeiri": 761,
      "Ãºt": 762,
      "ilegt": 763,
      "sv": 764,
      "Ã¦Ã°um": 765,
      "ĠÃ¾eirri": 766,
      "nn": 767,
      "ĠÃ¾essar": 768,
      "ska": 769,
      "Ġsveit": 770,
      "rif": 771,
      "ĠRey": 772,
      "ĠÃ¦t": 773,
      "amÃ¡l": 774,
      "ĠK": 775,
      "lum": 776,
      "ĠauÃ°v": 777,
      "ĠsÃ½": 778,
      "urinn": 779,
      "ĠÃŀess": 780,
      "Ã¦mi": 781,
      "enda": 782,
      "su": 783,
      "ĠorÃ°iÃ°": 784,
      "Ã¦ki": 785,
      "ĠsÃ©u": 786,
      "tan": 787,
      "ĠHv": 788,
      "kert": 789,
      "Ġekkert": 790,
      "sem": 791,
      "ĠstÃ³r": 792,
      "ĠÃ½m": 793,
      "ĠannaÃ°": 794,
      "lÃ½s": 795,
      "ĠgreiÃ°": 796,
      "Ġgeta": 797,
      "ĠtekiÃ°": 798,
      "gerÃ°": 799,
      "Ġenn": 800,
      "si": 801,
      "ĠumrÃ¦": 802,
      "ĠÃŃslen": 803,
      "sh": 804,
      "Ġundan": 805,
      "ĠÃ¾r": 806,
      "ĠyrÃ°i": 807,
      "Ã¦tl": 808,
      "Ã°uleg": 809,
      "tar": 810,
      "ĠhÃ¡tt": 811,
      "yld": 812,
      "Ã¶rf": 813,
      "Ġendur": 814,
      "ak": 815,
      "Ġfrumvarp": 816,
      "Ġraun": 817,
      "Ġeigi": 818,
      "Ġlig": 819,
      "Ġmillj": 820,
      "aÃ°a": 821,
      "ĠnÃ¦": 822,
      "ga": 823,
      "eyr": 824,
      "Ġleggja": 825,
      "Ã¦tt": 826,
      "Ġbet": 827,
      "dr": 828,
      "ĠHerra": 829,
      "ĠÃŀÃ¡": 830,
      "Ġsaman": 831,
      "Ã¶lu": 832,
      "Ġhefir": 833,
      "ĠaÃ°eins": 834,
      "tu": 835,
      "eita": 836,
      "Ã°l": 837,
      "Ġsamb": 838,
      "stÃ¶Ã°u": 839,
      "lutning": 840,
      "undi": 841,
      "ĠfariÃ°": 842,
      "Ġgef": 843,
      "Ġhins": 844,
      "Ġskatt": 845,
      "Ġatvinnu": 846,
      "tiÃ°": 847,
      "ĠmikiÃ°": 848,
      "Ġsamning": 849,
      "ĠsjÃ³": 850,
      "Ġ(": 851,
      "Ġnem": 852,
      "Ã¶nnum": 853,
      "Ġtv": 854,
      "Ġgeg": 855,
      "ĠrÃ¡Ã°herra": 856,
      "Ġminni": 857,
      "ildi": 858,
      "yk": 859,
      "ĠvarÃ°": 860,
      "tÃ¦k": 861,
      "Ġnau": 862,
      "jald": 863,
      "ĠhÃ¦kk": 864,
      "ku": 865,
      "ĠlÃ½": 866,
      "Ġtill": 867,
      "Ġmilli": 868,
      "ĠmÃ¡liÃ°": 869,
      "ĠT": 870,
      "ĠfÃ³lk": 871,
      "Ġ4": 872,
      "sn": 873,
      "ĠÃ¦tla": 874,
      "Ġheil": 875,
      "sÃ¶g": 876,
      "Ġgeng": 877,
      "ulag": 878,
      "Ġstofn": 879,
      "ĠauÃ°vitaÃ°": 880,
      "zt": 881,
      "Ġgeti": 882,
      "Ġbrey": 883,
      "ĠfÃ©": 884,
      "Ġathug": 885,
      "vÃŃk": 886,
      "ĠFr": 887,
      "Ġalmenn": 888,
      "Ġ5": 889,
      "ĠAlÃ¾ingi": 890,
      "Ġmeg": 891,
      "Ġgetur": 892,
      "ark": 893,
      "ĠhÃ¶fum": 894,
      "fÃ©lag": 895,
      "ĠstÃ¶": 896,
      "ĠÃ¡kveÃ°": 897,
      "ors": 898,
      "Ġfer": 899,
      "Ġtrygg": 900,
      "ykk": 901,
      "vel": 902,
      "Ġeiga": 903,
      "Ã°syn": 904,
      "Ġfeng": 905,
      "Ã°ir": 906,
      "Ġstef": 907,
      "Ġset": 908,
      "ĠEf": 909,
      "ĠâĢ": 910,
      "ĠsagÃ°i": 911,
      "Ġjeg": 912,
      "ĠnauÃ°syn": 913,
      "ĠrÃŃkisstj": 914,
      "Ġkaup": 915,
      "skrÃ¡": 916,
      "Ġauk": 917,
      "ĠmiÃ°": 918,
      "Ġlagt": 919,
      "mÃ¦": 920,
      "ĠÃ¡tt": 921,
      "Ġsama": 922,
      "mÃ¡la": 923,
      "Ġefni": 924,
      "ger": 925,
      "Ġfel": 926,
      "Ġrek": 927,
      "ĠÃ¡stÃ¦": 928,
      "Ġeinnig": 929,
      "Ġhalda": 930,
      "ĠaÃ°il": 931,
      "Ġleyti": 932,
      "Ġmeira": 933,
      "greiÃ°": 934,
      "ĠskoÃ°": 935,
      "ĠÃ¶Ã°rum": 936,
      "riÃ°i": 937,
      "til": 938,
      "Ġsinni": 939,
      "unnar": 940,
      "ul": 941,
      "ĠÃŀar": 942,
      "Ġsagt": 943,
      "Ġutan": 944,
      "inum": 945,
      "ber": 946,
      "Ġmiklu": 947,
      "tum": 948,
      "Ġleng": 949,
      "ÃŃÃ°": 950,
      "Ġmikilv": 951,
      "rÃ©tt": 952,
      "ĠgÃ³": 953,
      "alla": 954,
      "Ġbara": 955,
      "ĠsÃ©rstaklega": 956,
      "fiÃ°": 957,
      "Ġsn": 958,
      "kj": 959,
      "Ġvit": 960,
      "hald": 961,
      "ĠsÃ¡": 962,
      "Ġfyl": 963,
      "Ġgang": 964,
      "Ġnokkur": 965,
      "ĠtillÃ¶g": 966,
      "gum": 967,
      "ĠlÃ¶gum": 968,
      "Ġkv": 969,
      "Ġreg": 970,
      "isk": 971,
      "lend": 972,
      "jÃ³rnar": 973,
      "epp": 974,
      "Ġa": 975,
      "Ġlandinu": 976,
      "Ġfyrst": 977,
      "ĠVir": 978,
      "Ġde": 979,
      "ust": 980,
      "Ġsett": 981,
      "ĠfjÃ¶l": 982,
      "Ġsegir": 983,
      "Ġlang": 984,
      "Ġflu": 985,
      "Ġerum": 986,
      "ĠÃ¡ri": 987,
      "Ġhans": 988,
      "Ġspur": 989,
      "ĠmÃ³": 990,
      "innst": 991,
      "Ġgagn": 992,
      "Ã¶m": 993,
      "Ġsveitarf": 994,
      "ĠSt": 995,
      "sp": 996,
      "Ġop": 997,
      "ĠhÃ¡": 998,
      "ĠrÃŃkiss": 999,
      "ĠrÃ¡Ã°h": 1000,
      "ĠâĢŀ": 1001,
      "ĠVirÃ°uleg": 1002,
      "hv": 1003,
      "Ġnema": 1004,
      "âĢľ": 1005,
      "Ã³la": 1006,
      "ĠÃ¡n": 1007,
      "ĠÃįslands": 1008,
      "Ġskuli": 1009,
      "ĠsÃŃnum": 1010,
      "ĠSam": 1011,
      "gang": 1012,
      "Ġmark": 1013,
      "ĠrÃŃkisstjÃ³rn": 1014,
      "Ġveru": 1015,
      "Ġsambandi": 1016,
      "Ã³tt": 1017,
      "Ã°ast": 1018,
      "Ġlaun": 1019,
      "ĠmÃ¶r": 1020,
      "ĠsamÃ¾ykk": 1021,
      "ank": 1022,
      "smÃ¡l": 1023,
      "jur": 1024,
      "rÃŃ": 1025,
      "flokk": 1026,
      "mrh": 1027,
      "ningar": 1028,
      "sf": 1029,
      "anlega": 1030,
      "Ġbrtt": 1031,
      "Ġlok": 1032,
      "Ġvinnu": 1033,
      "ĠFors": 1034,
      "ĠsÃŃÃ°an": 1035,
      "gi": 1036,
      "Ã°ist": 1037,
      "ĠumrÃ¦Ã°u": 1038,
      "ĠrÃ¦Ã°u": 1039,
      "ĠhÃ¦tti": 1040,
      "ferÃ°": 1041,
      "eiri": 1042,
      "ĠeÃ°l": 1043,
      "ningu": 1044,
      "Ġaftur": 1045,
      "ĠÃ¡rum": 1046,
      "rey": 1047,
      "ĠÃ¶Ã°ru": 1048,
      "aust": 1049,
      "ĠJÃ³": 1050,
      "ĠÃ¡kvÃ¦Ã°i": 1051,
      "ĠÃ¾Ãºs": 1052,
      "ennar": 1053,
      "tal": 1054,
      "ĠÃ¶llum": 1055,
      "Ġlaga": 1056,
      "Ġskal": 1057,
      "pa": 1058,
      "ĠÃ¡fram": 1059,
      "sb": 1060,
      "Ġhluta": 1061,
      "ĠAÃ°": 1062,
      "ĠlÃ¡n": 1063,
      "Ġho": 1064,
      "Ġtala": 1065,
      "ĠlÃ¡ta": 1066,
      "Ġbreytingar": 1067,
      "ĠÃ¡b": 1068,
      "Ã¶ll": 1069,
      "lÃ¡": 1070,
      "ĠmÃ³ti": 1071,
      "tek": 1072,
      "Ġfinnst": 1073,
      "Ġgjald": 1074,
      "ĠupplÃ½s": 1075,
      "ĠÃŃslensk": 1076,
      "ĠNÃº": 1077,
      "Ġ6": 1078,
      "ĠForseti": 1079,
      "heim": 1080,
      "Ġbein": 1081,
      "ĠHann": 1082,
      "flutning": 1083,
      "ĠbÃ¦Ã°i": 1084,
      "ĠfÃ¦r": 1085,
      "rum": 1086,
      "Ġskyld": 1087,
      "Ġlagi": 1088,
      "Ġminn": 1089,
      "ĠÃ¦tl": 1090,
      "Ġbar": 1091,
      "ĠNor": 1092,
      "ĠHÃ¦": 1093,
      "Ġska": 1094,
      "Ġefna": 1095,
      "Ġstanda": 1096,
      "Ġbetur": 1097,
      "ĠMÃ©r": 1098,
      "Ġupph": 1099,
      "tÃ¦ki": 1100,
      "yrir": 1101,
      "kvÃ¦mt": 1102,
      "rÃ³p": 1103,
      "ĠrÃŃkisins": 1104,
      "Ġveit": 1105,
      "sla": 1106,
      "Ġmarg": 1107,
      "Ġnefndar": 1108,
      "enni": 1109,
      "Ġflokk": 1110,
      "ĠfjÃ¡rm": 1111,
      "ĠReykja": 1112,
      "ĠÃ¾jÃ³Ã°ar": 1113,
      "jÃº": 1114,
      "ru": 1115,
      "ĠÃ¡ra": 1116,
      "Ġlandi": 1117,
      "Ġform": 1118,
      "ĠÃ¶r": 1119,
      "Ã©lÃ¶g": 1120,
      "Ġforseta": 1121,
      "Ġinnan": 1122,
      "ĠdÃ³m": 1123,
      "vrÃ³p": 1124,
      "annsÃ³k": 1125,
      "Ġmundi": 1126,
      "Ġfyrr": 1127,
      "Ã¶rÃ°": 1128,
      "ott": 1129,
      "ĠatriÃ°i": 1130,
      "manna": 1131,
      "fÃ¦r": 1132,
      "ĠU": 1133,
      "Ġannars": 1134,
      "akk": 1135,
      "Ġhonum": 1136,
      "ĠVirÃ°ulegi": 1137,
      "Ġliggur": 1138,
      "ĠnokkuÃ°": 1139,
      "ĠÃ¦tti": 1140,
      "verk": 1141,
      "ĠvÃ¦": 1142,
      "Ġfisk": 1143,
      "Ġsum": 1144,
      "Ġvinna": 1145,
      "liÃ°": 1146,
      "Ġspyr": 1147,
      "Ã¦tlun": 1148,
      "Ġefnahag": 1149,
      "ley": 1150,
      "Ġkyn": 1151,
      "ĠrÃŃk": 1152,
      "Ġsann": 1153,
      "far": 1154,
      "ent": 1155,
      "ĠÃ¾Ã³tt": 1156,
      "Ġsetja": 1157,
      "arÃ°": 1158,
      "starf": 1159,
      "Ġrekst": 1160,
      "Ġmann": 1161,
      "ĠkjÃ¶r": 1162,
      "ĠiÃ°": 1163,
      "Ġeinstak": 1164,
      "ildar": 1165,
      "ĠhafÃ°i": 1166,
      "mynd": 1167,
      "Ġheimil": 1168,
      "komulag": 1169,
      "fis": 1170,
      "Ġhaft": 1171,
      "ax": 1172,
      "aga": 1173,
      "ndar": 1174,
      "nustu": 1175,
      "yrg": 1176,
      "ĠvÃ¦r": 1177,
      "ĠhvaÃ°a": 1178,
      "arÃ¡Ã°": 1179,
      "grein": 1180,
      "Ġ20": 1181,
      "ĠÃ¾Ã¡tt": 1182,
      "brig": 1183,
      "Ġnef": 1184,
      "Ġopin": 1185,
      "ĠlÃŃf": 1186,
      "ma": 1187,
      "anum": 1188,
      "Ġleyfi": 1189,
      "ung": 1190,
      "ĠfÃ©lag": 1191,
      "Ġenda": 1192,
      "Ġstyr": 1193,
      "ĠrÃ¶k": 1194,
      "ĠHÃ©r": 1195,
      "ĠHÃ¦stv": 1196,
      "annski": 1197,
      "trÃº": 1198,
      "Ġfleiri": 1199,
      "ĠgÃ¦": 1200,
      "ĠÃ¾essara": 1201,
      "ĠÃ¡Ã°an": 1202,
      "kur": 1203,
      "ĠEvrÃ³p": 1204,
      "ĠmÃ¡lum": 1205,
      "ĠvarÃ°andi": 1206,
      "anefnd": 1207,
      "Ã¶ndum": 1208,
      "ĠfjÃ¡rlag": 1209,
      "Ġfrek": 1210,
      "Ġviss": 1211,
      "Ã¦gt": 1212,
      "Ġganga": 1213,
      "ĠljÃ³st": 1214,
      "ji": 1215,
      "ĠÃ³sk": 1216,
      "vert": 1217,
      "jÃ³Ã°s": 1218,
      "Ġreyna": 1219,
      "tÃ¶k": 1220,
      "ita": 1221,
      "ĠÃ¾arna": 1222,
      "ĠvÃŃs": 1223,
      "Ġskuld": 1224,
      "srÃ¡Ã°": 1225,
      "Ġnot": 1226,
      "hvaÃ°": 1227,
      "Ġmig": 1228,
      "enna": 1229,
      "ttu": 1230,
      "fum": 1231,
      "Ġallir": 1232,
      "jÃ¡l": 1233,
      "Ġhring": 1234,
      "nnan": 1235,
      "Ġkannski": 1236,
      "Ġhor": 1237,
      "Ġfund": 1238,
      "Ġaldr": 1239,
      "ĠgÃ¦ti": 1240,
      "Ġgrund": 1241,
      "rÃ¦": 1242,
      "ĠnÃºna": 1243,
      "lar": 1244,
      "Ġbl": 1245,
      "ĠeitthvaÃ°": 1246,
      "ĠÃįslend": 1247,
      "Ã¶ngu": 1248,
      "oÃ°a": 1249,
      "Ġgegn": 1250,
      "naÃ°i": 1251,
      "ĠmaÃ°ur": 1252,
      "ĠgreiÃ°a": 1253,
      "ĠhÃ¡lf": 1254,
      "Ãºn": 1255,
      "ĠvÃ¦ru": 1256,
      "ĠReykjavÃŃk": 1257,
      "ĠFram": 1258,
      "ĠÃ¾ennan": 1259,
      "ft": 1260,
      "Ġkomi": 1261,
      "llu": 1262,
      "tÃŃm": 1263,
      "lt": 1264,
      "Ġhluti": 1265,
      "veit": 1266,
      "afl": 1267,
      "ĠlÃ¦kk": 1268,
      "Ġ7": 1269,
      "Ġvo": 1270,
      "Ġstendur": 1271,
      "ulega": 1272,
      "aÃ°ar": 1273,
      "band": 1274,
      "lur": 1275,
      "ĠEr": 1276,
      "ĠÃ¾akk": 1277,
      "de": 1278,
      "smenn": 1279,
      "Ġvilja": 1280,
      "Ġatkv": 1281,
      "Ġtekju": 1282,
      "fer": 1283,
      "ĠÃ½ms": 1284,
      "Ġhenni": 1285,
      "kost": 1286,
      "yt": 1287,
      "skatt": 1288,
      "Ġmynd": 1289,
      "ĠvÃ¶r": 1290,
      "sag": 1291,
      "Ġhel": 1292,
      "nast": 1293,
      "Ġjafnvel": 1294,
      "Ġvand": 1295,
      "sjÃ³": 1296,
      "semi": 1297,
      "Ã³ta": 1298,
      "Ġvald": 1299,
      "ĠÃ¡hrif": 1300,
      "Ġsinn": 1301,
      "ĠsjÃ¡var": 1302,
      "Ġkos": 1303,
      "Ã¾jÃ³": 1304,
      "mitt": 1305,
      "Ã¶mu": 1306,
      "Ġvildi": 1307,
      "Ġhana": 1308,
      "bÃ¦": 1309,
      "ĠstÃ¶Ã°u": 1310,
      "allar": 1311,
      "Ġathuga": 1312,
      "ĠJeg": 1313,
      "Ġmanna": 1314,
      "Ġeinu": 1315,
      "Ġmis": 1316,
      "ĠI": 1317,
      "Ġto": 1318,
      "Ġsvona": 1319,
      "Ġsamr": 1320,
      "Ġeinmitt": 1321,
      "ĠsjÃ¡lfsÃ¶g": 1322,
      "Ġerlend": 1323,
      "Ã¾m": 1324,
      "Ġmuni": 1325,
      "ĠveiÃ°": 1326,
      "jÃ¡lf": 1327,
      "brigÃ°i": 1328,
      "ĠfengiÃ°": 1329,
      "ota": 1330,
      "fest": 1331,
      "ĠÃ¾ingmaÃ°ur": 1332,
      "Ġheyr": 1333,
      "aus": 1334,
      "Ġhringir": 1335,
      "ex": 1336,
      "eika": 1337,
      "vÃ¶r": 1338,
      "ĠrÃ¡Ã°st": 1339,
      "vir": 1340,
      "ĠÃ¾urfi": 1341,
      "egar": 1342,
      "ĠÃ¡st": 1343,
      "ĠliÃ°": 1344,
      "Ġsl": 1345,
      "ĠbÃºiÃ°": 1346,
      "ĠfÃ³r": 1347,
      "Ġsm": 1348,
      "Ġopinber": 1349,
      "emst": 1350,
      "Ġalls": 1351,
      "Ġhugs": 1352,
      "ĠsjÃ¡lfsÃ¶gÃ°u": 1353,
      "bÃ³t": 1354,
      "ĠP": 1355,
      "Ġgild": 1356,
      "nefnd": 1357,
      "ĠrÃŃkisstjÃ³rnar": 1358,
      "Ġvill": 1359,
      "ĠrannsÃ³k": 1360,
      "ÃŃÃ°ar": 1361,
      "afr": 1362,
      "ĠÃ¡riÃ°": 1363,
      "fel": 1364,
      "legu": 1365,
      "ĠafgreiÃ°": 1366,
      "Ġheimild": 1367,
      "ĠsamkvÃ¦mt": 1368,
      "stÃ¶k": 1369,
      "sÃ³k": 1370,
      "Ġmennt": 1371,
      "sti": 1372,
      "ĠÃįslandi": 1373,
      "ĠtÃ³k": 1374,
      "ĠrÃ¡": 1375,
      "ĠÃ¡byrg": 1376,
      "Ã¡ttÃº": 1377,
      "ĠÃ¶llu": 1378,
      "nnur": 1379,
      "ĠgerÃ°": 1380,
      "Ġauka": 1381,
      "endi": 1382,
      "ĠmÃ¶g": 1383,
      "staÃ°a": 1384,
      "ĠsÃ¶mu": 1385,
      "Ġalla": 1386,
      "ĠD": 1387,
      "legar": 1388,
      "ĠstuÃ°": 1389,
      "vald": 1390,
      "ĠsammÃ¡la": 1391,
      "Ã°ustu": 1392,
      "ĠsveitarfÃ©lag": 1393,
      "ĠviÃ°skip": 1394,
      "ĠÃ¾akka": 1395,
      "kum": 1396,
      "Ġlit": 1397,
      "sÃ½": 1398,
      "ĠmikilvÃ¦gt": 1399,
      "ĠEvrÃ³pu": 1400,
      "veiÃ°": 1401,
      "ĠÃ¾urfa": 1402,
      "Ã¾ing": 1403,
      "Ġhverju": 1404,
      "Ġ8": 1405,
      "frÃ¦Ã°": 1406,
      "ĠfÃ¦": 1407,
      "ĠhÃ³": 1408,
      "Ġ10": 1409,
      "ĠÃ¾Ã½": 1410,
      "Ġhygg": 1411,
      "ĠÃ³h": 1412,
      "jast": 1413,
      "Ġfyrsta": 1414,
      "dÃ³tt": 1415,
      "Ġbreyta": 1416,
      "rn": 1417,
      "piÃ°": 1418,
      "skÃ³l": 1419,
      "skoÃ°": 1420,
      "Ġsje": 1421,
      "org": 1422,
      "rau": 1423,
      "boÃ°": 1424,
      "bygg": 1425,
      "reg": 1426,
      "Ġ200": 1427,
      "indi": 1428,
      "Ġstund": 1429,
      "ĠVest": 1430,
      "Ġkann": 1431,
      "ĠSig": 1432,
      "ĠfyrirtÃ¦ki": 1433,
      "smanna": 1434,
      "ĠMeÃ°": 1435,
      "Ãºtveg": 1436,
      "eidd": 1437,
      "Ġaldrei": 1438,
      "ĠÃ¾rÃ³": 1439,
      "ĠvarÃ°ar": 1440,
      "ĠnÃ¡m": 1441,
      "ĠframleiÃ°": 1442,
      "ĠSv": 1443,
      "ĠUm": 1444,
      "vart": 1445,
      "Ġteng": 1446,
      "ofnun": 1447,
      "skj": 1448,
      "slur": 1449,
      "gjald": 1450,
      "ĠJÃ³n": 1451,
      "âĢĵ": 1452,
      "ĠfyrirtÃ¦k": 1453,
      "ĠsÃŃÃ°ustu": 1454,
      "ygli": 1455,
      "ĠfulltrÃº": 1456,
      "mark": 1457,
      "ĠÃ¡stÃ¦Ã°a": 1458,
      "ĠbÃ¦ta": 1459,
      "Ġhennar": 1460,
      "slum": 1461,
      "ĠÃ¡her": 1462,
      "ĠÃ¡g": 1463,
      "ĠstÃ¶rf": 1464,
      "ĠSjÃ¡lf": 1465,
      "ĠtÃ¦ki": 1466,
      "ĠmÃ¡ls": 1467,
      "Ġathygli": 1468,
      "Ġfremst": 1469,
      "Ã°url": 1470,
      "ĠÃ¾ingmenn": 1471,
      "ĠÃ¶nnur": 1472,
      "naÃ°ur": 1473,
      "ĠmÃ¡linu": 1474,
      "stof": 1475,
      "legum": 1476,
      "Ġverkefni": 1477,
      "Ġsvar": 1478,
      "ĠhaldiÃ°": 1479,
      "alag": 1480,
      "jer": 1481,
      "Ġvinn": 1482,
      "anka": 1483,
      "ĠHver": 1484,
      "breyt": 1485,
      "ĠnauÃ°synlegt": 1486,
      "Ġeinf": 1487,
      "ĠÃ¡f": 1488,
      "ĠsÃŃna": 1489,
      "ĠsÃŃÃ°ar": 1490,
      "set": 1491,
      "ĠÃŀeir": 1492,
      "Ġtryggja": 1493,
      "Ġvax": 1494,
      "Ãºk": 1495,
      "allaÃ°": 1496,
      "ĠfjÃ¡rmÃ¡l": 1497,
      "ÃŃki": 1498,
      "ĠmÃŃn": 1499,
      "ĠnÃ¡ttÃº": 1500,
      "kt": 1501,
      "samning": 1502,
      "ĠstaÃ°ar": 1503,
      "ĠaÃ°al": 1504,
      "Ġhin": 1505,
      "ĠgengiÃ°": 1506,
      "Ġoft": 1507,
      "ĠÃŀegar": 1508,
      "Ġvan": 1509,
      "ĠsamÃ¾ykkt": 1510,
      "Ġlandsins": 1511,
      "ĠEins": 1512,
      "ĠvirÃ°ist": 1513,
      "ĠlÃ¶ggj": 1514,
      "ĠmeÃ°al": 1515,
      "Ġeinstakl": 1516,
      "ĠslÃŃkt": 1517,
      "Ã¦Ã°is": 1518,
      "semd": 1519,
      "Ġmilljar": 1520,
      "ĠhefÃ°u": 1521,
      "Ġflyt": 1522,
      "Ġframt": 1523,
      "ĠÃ¾ingi": 1524,
      "hÃºs": 1525,
      "Ġflutt": 1526,
      "Ġkj": 1527,
      "ĠheilbrigÃ°i": 1528,
      "ĠmÃ³t": 1529,
      "ĠÃ¡kvÃ¶rÃ°": 1530,
      "afa": 1531,
      "ĠÃŀvÃŃ": 1532,
      "ĠeÃ°lilegt": 1533,
      "verÃ°": 1534,
      "ĠÃ¾Ã¶rf": 1535,
      "alli": 1536,
      "stÃ¶Ã°": 1537,
      "narmiÃ°": 1538,
      "afi": 1539,
      "ĠmÃ¡lsins": 1540,
      "ĠsviÃ°": 1541,
      "tist": 1542,
      "Ġallra": 1543,
      "Ġefnum": 1544,
      "Ã¶fn": 1545,
      "Ã°asta": 1546,
      "staÃ°": 1547,
      "ĠsjÃºk": 1548,
      "Ġbyr": 1549,
      "..": 1550,
      ".-": 1551,
      "ĠSjÃ¡lfst": 1552,
      "Ġdraga": 1553,
      "ĠÃ¾ingmann": 1554,
      "Ġengin": 1555,
      "sku": 1556,
      ".âĢľ": 1557,
      "ĠtrÃº": 1558,
      "ĠsjÃ¡varÃºtveg": 1559,
      "ĠtalaÃ°": 1560,
      "yÃ°": 1561,
      "rir": 1562,
      "ĠÃŀessi": 1563,
      "vinnu": 1564,
      "Ġfrekar": 1565,
      "Ġvita": 1566,
      "unin": 1567,
      "Ġbera": 1568,
      "Ġnein": 1569,
      "Ġminna": 1570,
      "Ġraf": 1571,
      "ĠupplÃ½singar": 1572,
      "Ġeina": 1573,
      "ĠljÃ³s": 1574,
      "Ġspyrja": 1575,
      "Ġunn": 1576,
      "fÃ¶r": 1577,
      "Ġeigin": 1578,
      "mann": 1579,
      "ĠhÃ¡lfu": 1580,
      "ĠlandbÃº": 1581,
      "ĠrÃ¡Ã°un": 1582,
      "ĠstÃ¦r": 1583,
      "ĠhlÃ½": 1584,
      "Ġgetum": 1585,
      "ĠÃŃbÃº": 1586,
      "Ġker": 1587,
      "esta": 1588,
      "ripiÃ°": 1589,
      "yni": 1590,
      "jÃ³ta": 1591,
      "stri": 1592,
      "Ġkonar": 1593,
      "mi": 1594,
      "Ġatvinn": 1595,
      "Ġmat": 1596,
      "ĠÃ¾ekk": 1597,
      "Ġumhver": 1598,
      "uga": 1599,
      "erk": 1600,
      "Ġstefnu": 1601,
      "finu": 1602,
      "ĠbÃ¦nd": 1603,
      "ĠmÃ¶nnum": 1604,
      "gjÃ¶ld": 1605,
      "ĠaÃ°ila": 1606,
      "Ġveita": 1607,
      "ĠsÃŃn": 1608,
      "ĠsÃŃÃ°asta": 1609,
      "ingur": 1610,
      "ĠRÃŃki": 1611,
      "ĠAlÃ¾ingis": 1612,
      "rÃ½": 1613,
      "ĠÃ¾eirrar": 1614,
      "Ġtekjur": 1615,
      "ĠkrÃ¶f": 1616,
      "ĠmiÃ°aÃ°": 1617,
      "srÃ¡Ã°herra": 1618,
      "Ã¡Ã¦tlun": 1619,
      "Ġfag": 1620,
      "ĠnÃ¦sta": 1621,
      "ferÃ°ar": 1622,
      "bil": 1623,
      "Ġhugmynd": 1624,
      "ĠumrÃ¦Ã°": 1625,
      "ĠskoÃ°un": 1626,
      "laga": 1627,
      "ĠferÃ°": 1628,
      "framt": 1629,
      "ljÃ³": 1630,
      "ĠdÃ¦mi": 1631,
      "Ġgott": 1632,
      "dÃ³m": 1633,
      "lÃ¶gum": 1634,
      "verandi": 1635,
      "Ã³Ã°": 1636,
      "ĠnÃ¦r": 1637,
      "ĠstaÃ°iÃ°": 1638,
      "Ġgerir": 1639,
      "Ġenginn": 1640,
      "ĠmÃ¡nu": 1641,
      "Ġbenda": 1642,
      "liti": 1643,
      "Ġhagsm": 1644,
      "Ġgrundv": 1645,
      "ĠGuÃ°": 1646,
      "ĠÃ¡stÃ¦Ã°u": 1647,
      "jÃ¶ld": 1648,
      "efn": 1649,
      "ĠnÃ¡l": 1650,
      "ĠrÃ¦tt": 1651,
      "Ġreyn": 1652,
      "Ġuppi": 1653,
      "ĠSk": 1654,
      "tak": 1655,
      "Ġmegi": 1656,
      "Ġbank": 1657,
      "ĠTil": 1658,
      "aleg": 1659,
      "Ġfjmrh": 1660,
      "eyti": 1661,
      "Ġreglu": 1662,
      "Ġgeri": 1663,
      "ĠHÃºn": 1664,
      "Ġlangt": 1665,
      "ingin": 1666,
      "kki": 1667,
      "Ġallar": 1668,
      "skÃ³la": 1669,
      "inda": 1670,
      "Ã©tta": 1671,
      "ĠÃ¾essarar": 1672,
      "ĠviÃ°ur": 1673,
      "ĠstjÃ³rnarskrÃ¡": 1674,
      "Ġreik": 1675,
      "bank": 1676,
      "Ġfari": 1677,
      "Ġmegin": 1678,
      "Ġnota": 1679,
      "fÃ¦ri": 1680,
      "fti": 1681,
      "samband": 1682,
      "ĠsveitarfÃ©lÃ¶g": 1683,
      "Ġ9": 1684,
      "Ġgefa": 1685,
      "Ġma": 1686,
      "Ġalltaf": 1687,
      "laÃ°": 1688,
      "nis": 1689,
      "ĠÃ¾inginu": 1690,
      "ĠAf": 1691,
      "unnug": 1692,
      "hlut": 1693,
      "Ã¦tti": 1694,
      "Ġlof": 1695,
      "Ġsamkomulag": 1696,
      "mÃ¦li": 1697,
      "Ġse": 1698,
      "ĠsÃŃnu": 1699,
      "ĠvÃŃsu": 1700,
      "ĠorÃ°um": 1701,
      "ĠmÃŃnu": 1702,
      "viÃ°": 1703,
      "ĠÃ¾jÃ³nustu": 1704,
      "ykt": 1705,
      "ĠrÃŃkis": 1706,
      "Ã³lit": 1707,
      "Ã³litÃŃ": 1708,
      "ĠÃ¡l": 1709,
      "ĠmÃ¦tti": 1710,
      "ĠNorÃ°url": 1711,
      "ĠaÃ°gerÃ°": 1712,
      "es": 1713,
      "rÃŃki": 1714,
      "Ġsamg": 1715,
      "stÃ¦Ã°": 1716,
      "ĠhÃºsn": 1717,
      "ĠfÃ¡i": 1718,
      "arnir": 1719,
      "gir": 1720,
      "angar": 1721,
      "fj": 1722,
      "Ã¡r": 1723,
      "Ġgildi": 1724,
      "ĠaÃ°ra": 1725,
      "smiÃ°": 1726,
      "ĠÃ¡byrgÃ°": 1727,
      "Ġaug": 1728,
      "Ġand": 1729,
      "Ã¶p": 1730,
      "Ġeigum": 1731,
      "kist": 1732,
      "tÃŃma": 1733,
      "ĠÃ¾yr": 1734,
      "Ġ198": 1735,
      "ĠundirbÃº": 1736,
      "Ġsitt": 1737,
      "Ġspurning": 1738,
      "Ġ,": 1739,
      "onar": 1740,
      "alÃ¶g": 1741,
      "reiÃ°": 1742,
      "mÃ¶r": 1743,
      "ĠÃ¡kvÃ¶rÃ°un": 1744,
      "Ġvik": 1745,
      "ĠÃ¾ings": 1746,
      "ĠHvaÃ°": 1747,
      "ĠsjÃ³narmiÃ°": 1748,
      "Ġmikla": 1749,
      "ĠsamfÃ©lag": 1750,
      "ĠnÃ³": 1751,
      "Ġreyndar": 1752,
      "ĠrÃŃkissjÃ³": 1753,
      "ĠHins": 1754,
      "mar": 1755,
      "ĠÃ¾urfum": 1756,
      "nas": 1757,
      "ĠÃ¾jÃ³Ã°fÃ©lag": 1758,
      "ĠÃ¡lit": 1759,
      "Ġveitt": 1760,
      "Ġfast": 1761,
      "ĠskoÃ°a": 1762,
      "stur": 1763,
      "Ġvon": 1764,
      "ĠgerÃ°i": 1765,
      "Ġherra": 1766,
      "ĠmiÃ°ur": 1767,
      "ĠÃĵ": 1768,
      "Ġtelja": 1769,
      "ĠsÃ¶lu": 1770,
      "ĠdÃ½r": 1771,
      "ĠsÃ©Ã°": 1772,
      "ĠmikilvÃ¦g": 1773,
      "Ġdeil": 1774,
      "Ġsamstarf": 1775,
      "ĠrÃ¡Ã°her": 1776,
      "ĠviÃ°urk": 1777,
      "ĠunniÃ°": 1778,
      "ĠtaliÃ°": 1779,
      "ĠsÃŃÃ°ur": 1780,
      "Ġliggja": 1781,
      "ĠmÃ¶gul": 1782,
      "Ġ,,": 1783,
      "Ġsel": 1784,
      "jÃ³ra": 1785,
      "ssk": 1786,
      "endum": 1787,
      "ĠaÃ°rir": 1788,
      "amenn": 1789,
      "skyld": 1790,
      "ĠaÃ°rar": 1791,
      "ĠGripiÃ°": 1792,
      "ĠsÃ¶g": 1793,
      "Ġnokkrum": 1794,
      "Ġflytja": 1795,
      "Ġhversu": 1796,
      "``": 1797,
      "):": 1798,
      "ĠÃ¡tti": 1799,
      "ĠskÃ³la": 1800,
      "ĠÃ¡kveÃ°iÃ°": 1801,
      "ĠÃ¡rinu": 1802,
      "ĠnÃ¦stu": 1803,
      "ekk": 1804,
      "Ġforsrh": 1805,
      "ĠbÃºa": 1806,
      "ĠbÃŃ": 1807,
      "fall": 1808,
      "ĠvÃ¦nt": 1809,
      "kepp": 1810,
      "ĠerfiÃ°": 1811,
      "Ġun": 1812,
      "ĠrÃŃkiÃ°": 1813,
      "Ġgegnum": 1814,
      "kun": 1815,
      "Ġ199": 1816,
      "Ġ15": 1817,
      "Ã¡n": 1818,
      "Ġgagnvart": 1819,
      "Ġheild": 1820,
      "ĠlÃŃfeyr": 1821,
      "Ġnefna": 1822,
      "ĠhÃ¶fuÃ°": 1823,
      "Ġflest": 1824,
      "ĠgerÃ°ar": 1825,
      "sÃ³knar": 1826,
      "skur": 1827,
      "Ġfylgja": 1828,
      "ĠdagskrÃ¡": 1829,
      "Ã¾jÃ³Ã°": 1830,
      "Ġpen": 1831,
      "ĠÃ¾skj": 1832,
      "Ġstarfsemi": 1833,
      "Ġtak": 1834,
      "engi": 1835,
      "ĠÃ¾jÃ³Ã°arinnar": 1836,
      "Ġerf": 1837,
      "ĠtillÃ¶gur": 1838,
      "ĠskÃ³l": 1839,
      "eif": 1840,
      "ĠlÃŃk": 1841,
      "Ġeftirlit": 1842,
      "Ġ197": 1843,
      "Ġfinna": 1844,
      "Ġhendi": 1845,
      "Ġkunnug": 1846,
      "Ġhjer": 1847,
      "ĠSÃŃ": 1848,
      "Ġem": 1849,
      "Ġbyggja": 1850,
      "ĠLands": 1851,
      "ĠundanfÃ¶r": 1852,
      "--": 1853,
      "ĠjÃ¡": 1854,
      "Ġalger": 1855,
      "ĠÃ¡Ã¦tl": 1856,
      "Ġsner": 1857,
      "eka": 1858,
      "ĠhÃºsnÃ¦Ã°i": 1859,
      "Ġneitt": 1860,
      "jÃ³l": 1861,
      "arÃ¡Ã°herra": 1862,
      "slega": 1863,
      "as": 1864,
      "skap": 1865,
      "komandi": 1866,
      "ĠlÃŃtiÃ°": 1867,
      "ĠafgreiÃ°slu": 1868,
      "Ġhvers": 1869,
      "ĠsjÃ³Ã°": 1870,
      "ĠstuÃ°ning": 1871,
      "mun": 1872,
      "Ġskrif": 1873,
      "ĠsamrÃ¦mi": 1874,
      "Ġframhald": 1875,
      "Ġbreytt": 1876,
      "Ġannarra": 1877,
      "jan": 1878,
      "ĠmÃ¡la": 1879,
      "ĠmarkmiÃ°": 1880,
      "Ġeinfald": 1881,
      "ĠtillÃ¶gu": 1882,
      "ĠSvo": 1883,
      "ĠhliÃ°": 1884,
      "Ġher": 1885,
      "Ġgreinar": 1886,
      "ĠlÃ¶gÃ°": 1887,
      "Ġsjer": 1888,
      "ĠskÃ½rslu": 1889,
      "Ġlegg": 1890,
      "ĠbÃ¡": 1891,
      "Ġvek": 1892,
      "Ġmiss": 1893,
      "ĠlÃ¦k": 1894,
      "ip": 1895,
      "aÃ°il": 1896,
      "Ġ12": 1897,
      "Ġtekin": 1898,
      "ĠÃ¾ingiÃ°": 1899,
      "ĠBr": 1900,
      "deild": 1901,
      "Ġsit": 1902,
      "dÃ³ttir": 1903,
      "stÃ¦Ã°ur": 1904,
      "Ã¡kv": 1905,
      "Ġlangar": 1906,
      "Ġmunu": 1907,
      "ĠhiÃ°": 1908,
      "Ġumhverfis": 1909,
      "Ã³lk": 1910,
      "ĠgÃ³Ã°": 1911,
      "Ġfremur": 1912,
      "Ġnefndarinnar": 1913,
      "leik": 1914,
      "ĠtÃ¶lu": 1915,
      "Ġstofnun": 1916,
      "Ġfjar": 1917,
      "trygg": 1918,
      "Ġhuga": 1919,
      "till": 1920,
      "ĠhÃ¦kka": 1921,
      "spur": 1922,
      "ĠÃŀann": 1923,
      "Ã©f": 1924,
      "ĠrÃŃkissjÃ³Ã°s": 1925,
      "brey": 1926,
      "gerÃ°ar": 1927,
      "ĠvÃ¦n": 1928,
      "vÃ¶ld": 1929,
      "fyl": 1930,
      "ĠaÃ°st": 1931,
      "ĠstjÃ³rnarand": 1932,
      "ĠmÃ¶rgum": 1933,
      "ĠsjÃ¡lfsag": 1934,
      "ĠverÃ°lag": 1935,
      "Ġil": 1936,
      "vinn": 1937,
      "vik": 1938,
      "Ġjafnframt": 1939,
      "ĠMenn": 1940,
      "hÃ¦": 1941,
      "ĠfjÃ¡rhag": 1942,
      "ÃŃf": 1943,
      "nun": 1944,
      "ĠhÃºs": 1945,
      "Ġorku": 1946,
      "afar": 1947,
      "Ġyr": 1948,
      "Ġleggur": 1949,
      "ĠmeÃ°an": 1950,
      "ĠfjÃ¡rmagn": 1951,
      "Ã³n": 1952,
      "Ã½ra": 1953,
      "iski": 1954,
      "Ġafla": 1955,
      "Ġskor": 1956,
      "Ġmargir": 1957,
      "ĠrÃŃkisstjÃ³rnin": 1958,
      "orm": 1959,
      "Ġmest": 1960,
      "Ġhvor": 1961,
      "ĠmÃ¶rg": 1962,
      "orku": 1963,
      "bund": 1964,
      "Ġathugasemd": 1965,
      "ĠskÃ½rt": 1966,
      "ĠendurskoÃ°": 1967,
      "arÃŃ": 1968,
      "ĠafstÃ¶Ã°u": 1969,
      "Ġmund": 1970,
      "ĠpÃ³litÃŃ": 1971,
      "ĠÃºti": 1972,
      "nist": 1973,
      "Ġalmenning": 1974,
      "stjÃ³rn": 1975,
      "ĠtÃ¶l": 1976,
      "Ġbreytingu": 1977,
      "Ġeink": 1978,
      "ĠhÃ¦r": 1979,
      "ĠviÃ°komandi": 1980,
      "tr": 1981,
      "ĠnÃ¦g": 1982,
      "Ġspar": 1983,
      "Ġtelur": 1984,
      "ykir": 1985,
      "ĠtÃ¦k": 1986,
      "Ġskyldi": 1987,
      "ĠÃ¾ingsins": 1988,
      "ĠsveitarfÃ©laga": 1989,
      "ĠmÃ¦li": 1990,
      "ĠbiÃ°": 1991,
      "ĠÃ¾essir": 1992,
      "hug": 1993,
      "Ġalmennt": 1994,
      "ĠÃŀannig": 1995,
      "Ġkomin": 1996,
      "ĠrÃŃkisstjÃ³rnarinnar": 1997,
      "uÃ°u": 1998,
      "ingaÃ°": 1999,
      "Ġhefi": 2000,
      "Ġleita": 2001,
      "Ġ201": 2002,
      "Ġsamkepp": 2003,
      "ĠĠ": 2004,
      "ĠhlÃ½tur": 2005,
      "Ġgrunn": 2006,
      "Ġflug": 2007,
      "ĠhÃ¦kkun": 2008,
      "ĠReykv": 2009,
      "rein": 2010,
      "ĠupphÃ¦Ã°": 2011,
      "Ġsvara": 2012,
      "taka": 2013,
      "ĠatvinnulÃŃ": 2014,
      "ĠlÃ¦g": 2015,
      "flu": 2016,
      "efna": 2017,
      "Ġflutning": 2018,
      "Ã¦Ã°a": 2019,
      "eÃ°la": 2020,
      "ĠhÃ³p": 2021,
      "ĠfÃ¦ra": 2022,
      "Ġdreg": 2023,
      "ĠyrÃ°u": 2024,
      "Ġskyn": 2025,
      "Ã¶Ã°": 2026,
      "Ġstyrk": 2027,
      "aflega": 2028,
      "Ġeignar": 2029,
      "aflokk": 2030,
      "bÃ¦tt": 2031,
      "ĠsmÃ¡": 2032,
      "amanna": 2033,
      "vn": 2034,
      "ĠÃ¾ykir": 2035,
      "Ġstr": 2036,
      "einu": 2037,
      "atn": 2038,
      "ĠeÃ°lileg": 2039,
      "Ġreglur": 2040,
      "Ġfyrra": 2041,
      "Ġtrey": 2042,
      "brÃ¶g": 2043,
      "ĠnÃ¡kvÃ¦m": 2044,
      "rÃ¦Ã°i": 2045,
      "Ġtekur": 2046,
      "jett": 2047,
      "ĠhljÃ³": 2048,
      "leitt": 2049,
      "Ġbir": 2050,
      "Ġtald": 2051,
      "ĠdÃ¦m": 2052,
      "Ġvona": 2053,
      "Ġstu": 2054,
      "velli": 2055,
      "000": 2056,
      "Ġra": 2057,
      "Ġkunnugt": 2058,
      "ĠbÃ¶r": 2059,
      "Ġdeild": 2060,
      "ĠaÃ°ilar": 2061,
      "ĠÃ¡rang": 2062,
      "ĠrÃ¦Ã°um": 2063,
      "Ġfyrri": 2064,
      "bur": 2065,
      "ĠÃ½mis": 2066,
      "mund": 2067,
      "Ġerfitt": 2068,
      "reynd": 2069,
      "Ġstof": 2070,
      "Ġtaki": 2071,
      "ĠsviÃ°i": 2072,
      "ĠsÃ©rstÃ¶k": 2073,
      "legri": 2074,
      "Ġheildar": 2075,
      "aÃ°ir": 2076,
      "ĠÃįsland": 2077,
      "Ã¦kkun": 2078,
      "ĠsjÃ¡lfsagt": 2079,
      "ĠfjÃ¡rfest": 2080,
      "ĠsÃŃst": 2081,
      "bÃ¦tur": 2082,
      "ĠkostnaÃ°": 2083,
      "ĠhingaÃ°": 2084,
      "ĠlandbÃºnaÃ°ar": 2085,
      "Ġvilji": 2086,
      "ĠleiÃ°ir": 2087,
      "ĠnÃ¡ttÃºr": 2088,
      "Ġsker": 2089,
      "ssonar": 2090,
      "Ġsvip": 2091,
      "ĠSÃŃÃ°an": 2092,
      "rÃ¦Ã°": 2093,
      "ĠÃĸ": 2094,
      "jandi": 2095,
      "jarn": 2096,
      "kr": 2097,
      "ĠvirÃ°uleg": 2098,
      "Ã¶kum": 2099,
      "slan": 2100,
      "mik": 2101,
      "Ġnr": 2102,
      "Ġhinum": 2103,
      "afÃ©lag": 2104,
      "ĠlÃ¡tiÃ°": 2105,
      "Ġhinn": 2106,
      "legur": 2107,
      "Ġalvar": 2108,
      "ĠlÃ¶ggjÃ¶f": 2109,
      "ĠÃ½msum": 2110,
      "Ġnefndin": 2111,
      "ĠstyÃ°": 2112,
      "Ġsegi": 2113,
      "ĠnÃ½tt": 2114,
      "ĠÃŀÃ³": 2115,
      "Ġlo": 2116,
      "ĠvÃŃsaÃ°": 2117,
      "Ġskipulag": 2118,
      "ĠÃ¾riÃ°": 2119,
      "Ġgat": 2120,
      "Ġstarfa": 2121,
      "ĠÃįslendingar": 2122,
      "bor": 2123,
      "Ġgrundvallar": 2124,
      "ĠÃįslendinga": 2125,
      "ĠÃ¡herslu": 2126,
      "Ġhvert": 2127,
      "Ġbanka": 2128,
      "ske": 2129,
      "ĠRÃŃkis": 2130,
      "Ġsamh": 2131,
      "ĠhÃ¶fÃ°u": 2132,
      "ĠtÃŃÃ°": 2133,
      "Ġsamt": 2134,
      "ĠviÃ°bÃ³t": 2135,
      "ĠÃ¾yrfti": 2136,
      "Ġbreyting": 2137,
      "ĠrÃ¡Ã°staf": 2138,
      "kerfi": 2139,
      "ĠFrÃº": 2140,
      "iti": 2141,
      "ĠlandiÃ°": 2142,
      "Ġsinna": 2143,
      "ĠSjÃ¡lfstfl": 2144,
      "Ġvissulega": 2145,
      "Ã¾rÃ³": 2146,
      "ĠmarkaÃ°": 2147,
      "ĠframtÃŃÃ°": 2148,
      "ĠrÃº": 2149,
      "uÃ°um": 2150,
      "ĠEin": 2151,
      "ĠÃ¡k": 2152,
      "Ġhve": 2153,
      "gjÃ¶r": 2154,
      "ĠbÃ½": 2155,
      "Ġmikill": 2156,
      "ĠframkvÃ¦mda": 2157,
      "Ġrekstrar": 2158,
      "Ġbarna": 2159,
      "ĠgagnrÃ½": 2160,
      "Ġtiltek": 2161,
      "ĠmÃŃnum": 2162,
      "Ġraunver": 2163,
      "Ġnor": 2164,
      "vÃŃs": 2165,
      "rist": 2166,
      "ofnunar": 2167,
      "Ġskap": 2168,
      "19": 2169,
      "ĠÃºtflutning": 2170,
      "ĠSigur": 2171,
      "Ã¶ngum": 2172,
      "Ġfjalla": 2173,
      "ĠAn": 2174,
      "Ã¡m": 2175,
      "ĠÃ¡Ã¦tlun": 2176,
      "samt": 2177,
      "anlegt": 2178,
      "ĠÃ¾rÃ¡tt": 2179,
      "Ġfrumvarpinu": 2180,
      "ĠtÃ¦kifÃ¦ri": 2181,
      "ĠnÃ¡Ã°": 2182,
      "Ġfundi": 2183,
      "Ġskiptir": 2184,
      "Ġlau": 2185,
      "ĠÃ³Ã¾": 2186,
      "Ġutanr": 2187,
      "Ġskatta": 2188,
      "Ġupphafi": 2189,
      "Ġkomast": 2190,
      "ĠmeÃ°ferÃ°": 2191,
      "ĠundanfÃ¶rnum": 2192,
      "ningi": 2193,
      "Ġgam": 2194,
      "Ġsamkv": 2195,
      "Ġjaf": 2196,
      "ĠvandamÃ¡l": 2197,
      "stjÃ³r": 2198,
      "atriÃ°i": 2199,
      "ĠÃ³v": 2200,
      "Ġmargt": 2201,
      "ĠbrÃ½": 2202,
      "eÃ°a": 2203,
      "Ġnokkru": 2204,
      "ĠrÃ¡Ã°a": 2205,
      "ĠforsÃ¦ti": 2206,
      "Ġstig": 2207,
      "ĠnÃ¡nar": 2208,
      "ĠÃŃslenz": 2209,
      "Ġ11": 2210,
      "Ġfiski": 2211,
      "ĠÃ¡gÃ¦": 2212,
      "Ġpr": 2213,
      "ĠnÃ½ja": 2214,
      "ĠReykjavÃŃkur": 2215,
      "Ġbest": 2216,
      "stÃ³l": 2217,
      "Ġengu": 2218,
      "staka": 2219,
      "ĠutanrÃŃki": 2220,
      "frv": 2221,
      "eyri": 2222,
      "Ã³nu": 2223,
      "Ġbe": 2224,
      "ĠÃ¾rÃ³un": 2225,
      "Ġ196": 2226,
      "Ġeinhverjum": 2227,
      "ningur": 2228,
      "ttum": 2229,
      "ĠÃ¶rygg": 2230,
      "ĠyfirlÃ½s": 2231,
      "alt": 2232,
      "jaÃ°": 2233,
      ".)": 2234,
      "Ġkomu": 2235,
      "sfl": 2236,
      "ĠverÃ°um": 2237,
      "Ã¶gum": 2238,
      "irnar": 2239,
      "Ġhaust": 2240,
      "Ġstra": 2241,
      "landi": 2242,
      "Ġtveim": 2243,
      "Ġnefndi": 2244,
      "ĠstjÃ³rnmÃ¡l": 2245,
      "ĠJÃ³nsson": 2246,
      "ĠhÃ©": 2247,
      "Ġbetri": 2248,
      "laf": 2249,
      "uÃ°v": 2250,
      "andarÃŃ": 2251,
      "Ġsameig": 2252,
      "ĠfÃ³lki": 2253,
      "efnum": 2254,
      "Ġlengi": 2255,
      "Ã¶ng": 2256,
      "efnu": 2257,
      "laust": 2258,
      "tingu": 2259,
      "Ġvanda": 2260,
      "ĠhÃ¶ndum": 2261,
      "Ġhverjum": 2262,
      "ĠgreiÃ°slu": 2263,
      "arlega": 2264,
      "Ġleyfa": 2265,
      "ĠsvÃ¶r": 2266,
      "Ġmjer": 2267,
      "bÃ³l": 2268,
      "ĠEvrÃ³pusamband": 2269,
      "Ġkaupa": 2270,
      "Ġlands": 2271,
      "anefndar": 2272,
      "ĠboÃ°": 2273,
      "Ã¾eg": 2274,
      "Ġalgerlega": 2275,
      "Ġeinka": 2276,
      "Ġleig": 2277,
      "ĠfjÃ¡rveit": 2278,
      "Ġfalli": 2279,
      "ĠnÃºverandi": 2280,
      "Ã¡Ã°a": 2281,
      "ĠlÃ¦kka": 2282,
      "ĠgÃ¦tu": 2283,
      "esa": 2284,
      "indum": 2285,
      "Ġmati": 2286,
      "Ã¾jÃ³nustu": 2287,
      "eldi": 2288,
      "ĠfiskveiÃ°": 2289,
      "ĠsnÃº": 2290,
      "ĠsÃŃld": 2291,
      "Ġleik": 2292,
      "imm": 2293,
      "ĠmilljarÃ°a": 2294,
      "Ġeing": 2295,
      "lÃŃka": 2296,
      "skil": 2297,
      "ĠÃŃtr": 2298,
      "dÃ¦mi": 2299,
      "Ãŀ": 2300,
      "ĠnÃ½ju": 2301,
      "agi": 2302,
      "eÃ°iÃ°": 2303,
      "dÃ¦m": 2304,
      "ĠsjÃ¡lfu": 2305,
      "Ġtoll": 2306,
      "Ġverulega": 2307,
      "ĠfjallaÃ°": 2308,
      "Ġhinu": 2309,
      "ĠÃ¾Ã¡l": 2310,
      "Ġskipa": 2311,
      "Ġney": 2312,
      "ĠfÃ©l": 2313,
      "agreiÃ°": 2314,
      "ĠAust": 2315,
      "Ġstefna": 2316,
      "laus": 2317,
      "Ġsveitar": 2318,
      "ĠframleiÃ°slu": 2319,
      "Ġeinfaldlega": 2320,
      "ĠboriÃ°": 2321,
      "jÃ³n": 2322,
      "ĠstaÃ°reynd": 2323,
      "Ġli": 2324,
      "Ġkalla": 2325,
      "ĠfrjÃ¡l": 2326,
      "ĠeingÃ¶ngu": 2327,
      "ĠÃ¡hygg": 2328,
      "ĠÃ¡huga": 2329,
      "heimild": 2330,
      "ĠiÃ°n": 2331,
      "pt": 2332,
      "Ġsumar": 2333,
      "Ġeld": 2334,
      "snefnd": 2335,
      "jir": 2336,
      "aliÃ°": 2337,
      "uni": 2338,
      "Ġnefndinni": 2339,
      "ĠviÃ°sk": 2340,
      "lun": 2341,
      "Ġkannske": 2342,
      "Ġsamkeppni": 2343,
      "ĠnÃ¦st": 2344,
      "Ġannan": 2345,
      ".``": 2346,
      "ĠstÃ³": 2347,
      "Ġleit": 2348,
      "nust": 2349,
      "ĠlÃŃta": 2350,
      "Ġyfirleitt": 2351,
      "ĠsjÃºkra": 2352,
      "ĠsÃ½na": 2353,
      "Ġhitt": 2354,
      "str": 2355,
      "Ġheyra": 2356,
      "reik": 2357,
      "svert": 2358,
      "raust": 2359,
      "Ġnokkurn": 2360,
      "ĠsjÃ¡lfst": 2361,
      "star": 2362,
      "nÃ½": 2363,
      "Ġkjara": 2364,
      "ĠAll": 2365,
      "ĠvÃ¦ntanlega": 2366,
      "Ġbyggingar": 2367,
      "kju": 2368,
      "ĠÃ¡rs": 2369,
      "Ġfimm": 2370,
      "ĠnÃ¡kvÃ¦mlega": 2371,
      "ungis": 2372,
      "Ġilla": 2373,
      "bÃ¦r": 2374,
      "Ġhvar": 2375,
      "Ġ30": 2376,
      "Ġeinhvern": 2377,
      "jÃ³ri": 2378,
      "ĠFyrir": 2379,
      "ĠstÃ¶rfum": 2380,
      "Ġlengur": 2381,
      "Ġkl": 2382,
      "Ġflm": 2383,
      "ĠnÃ½r": 2384,
      "legra": 2385,
      "Ġtillit": 2386,
      "Ã¦Ã°inu": 2387,
      "ĠeÃ°": 2388,
      "ĠniÃ°urstÃ¶Ã°u": 2389,
      "Ġmismun": 2390,
      "Ġkosning": 2391,
      "ĠÃ¦tlaÃ°": 2392,
      "Ġfyrirspur": 2393,
      "ĠnÃ©": 2394,
      "ĠframkvÃ¦mdir": 2395,
      "Ġmundu": 2396,
      "Ġbeint": 2397,
      "Ġhrein": 2398,
      "ĠfjÃ¶ld": 2399,
      "Ã°ingar": 2400,
      "ĠupplÃ½": 2401,
      "Ġgreina": 2402,
      "ĠÃ³brey": 2403,
      "brÃ¶gÃ°": 2404,
      "komu": 2405,
      "sbygg": 2406,
      "riÃ°um": 2407,
      "Ġskipta": 2408,
      "Ã¦n": 2409,
      "ĠaÃ°stÃ¦Ã°ur": 2410,
      "ĠkjÃ³": 2411,
      "Ġba": 2412,
      "Ġbent": 2413,
      "Ġselja": 2414,
      "sÃ¶gn": 2415,
      "Ġlandsk": 2416,
      "Ġvex": 2417,
      "lir": 2418,
      "Ġvak": 2419,
      "fjÃ¶ll": 2420,
      "ĠtvÃ¶": 2421,
      "Ġtilefni": 2422,
      "Ġven": 2423,
      "ĠnÃ¡ttÃºrlega": 2424,
      "ĠFramsfl": 2425,
      "Ġfullkom": 2426,
      "ĠlÃ¶gin": 2427,
      "dag": 2428,
      "ĠAlÃ¾fl": 2429,
      "ĠslÃŃkum": 2430,
      "staÃ°an": 2431,
      "afrv": 2432,
      "ĠÃļ": 2433,
      "ĠEkki": 2434,
      "Ġtaldi": 2435,
      "Ġ195": 2436,
      "ĠÃ¦ttu": 2437,
      "ĠsvÃ¦Ã°i": 2438,
      "ĠeinstÃ¶k": 2439,
      "ĠverÃ°bÃ³l": 2440,
      "raun": 2441,
      "gÃ¦": 2442,
      "ĠprÃ³": 2443,
      "orgun": 2444,
      "ĠSÃº": 2445,
      "Ġrang": 2446,
      "arÃ°an": 2447,
      "Ġefnahags": 2448,
      "Ġ25": 2449,
      "ĠsjÃºt": 2450,
      "tug": 2451,
      "Ġeinungis": 2452,
      "amm": 2453,
      "ĠsÃŃnar": 2454,
      "Ġsnertir": 2455,
      "ĠhÃ¡ttv": 2456,
      "orÃ°": 2457,
      "Ġreynt": 2458,
      "ĠÃŀÃ³r": 2459,
      "Ġmitt": 2460,
      "ĠkÃ¦mi": 2461,
      "Ġborga": 2462,
      "Ġey": 2463,
      "skÃ¶p": 2464,
      "ssyni": 2465,
      "Ġundanfar": 2466,
      "ĠfjÃ³r": 2467,
      "ĠembÃ¦tt": 2468,
      "ĠSeÃ°la": 2469,
      "yf": 2470,
      "hr": 2471,
      "tillÃ¶g": 2472,
      "Ġbreytingum": 2473,
      "Ġsameigin": 2474,
      "ĠformaÃ°ur": 2475,
      "ĠumfjÃ¶ll": 2476,
      "Ġgengur": 2477,
      "Ġskr": 2478,
      "ĠfÃ³lks": 2479,
      "%.": 2480,
      "Ġsamein": 2481,
      "ĠgefiÃ°": 2482,
      "ĠLand": 2483,
      "ĠlÃ¡g": 2484,
      "Ġatvinnur": 2485,
      "jarÃ°ar": 2486,
      "gild": 2487,
      "Ġheima": 2488,
      "ĠvÃ¶ru": 2489,
      "luta": 2490,
      "jÃ³Ã°a": 2491,
      "Ġfyrirkomulag": 2492,
      "einn": 2493,
      "uÃ°vitaÃ°": 2494,
      "ĠlÃ½st": 2495,
      "ĠauÃ°l": 2496,
      "Ã¦ra": 2497,
      "ĠljÃ³si": 2498,
      "ers": 2499,
      "ĠskilyrÃ°i": 2500,
      "ĠÃģr": 2501,
      "ĠAuÃ°vitaÃ°": 2502,
      "Ġeinhverju": 2503,
      "vara": 2504,
      "Ġfrest": 2505,
      "irg": 2506,
      "Ġ18": 2507,
      "Ġmiklar": 2508,
      "stjÃ³rnar": 2509,
      "ĠgÃ¦r": 2510,
      "sker": 2511,
      "tals": 2512,
      "kerfiÃ°": 2513,
      "Ġallsh": 2514,
      "ĠÃ¾ingmanni": 2515,
      "ĠskoÃ°unar": 2516,
      "leika": 2517,
      "Ġafgr": 2518,
      "Ġkerfi": 2519,
      "Ġhendur": 2520,
      "alÃ½": 2521,
      "irnir": 2522,
      "Ġvet": 2523,
      "Ġgreidd": 2524,
      "Ġvega": 2525,
      "stjÃ³ra": 2526,
      "Ġfalla": 2527,
      "ĠMig": 2528,
      "Ġefnis": 2529,
      "bÃ½": 2530,
      "ĠvÃ©": 2531,
      "ĠsÃ¦k": 2532,
      "Ġinni": 2533,
      "ĠbÃ¶rn": 2534,
      "fyrir": 2535,
      "virkj": 2536,
      "Ġskynsam": 2537,
      "Ġuppbygg": 2538,
      "ĠÃºtgjÃ¶ld": 2539,
      "ĠGuÃ°mund": 2540,
      "Ġvinnum": 2541,
      "ĠsjÃ¡lfstÃ¦Ã°i": 2542,
      "hor": 2543,
      "mn": 2544,
      "ĠsÃ½nt": 2545,
      "Ġtilgang": 2546,
      "ĠfÃ¶r": 2547,
      "jun": 2548,
      "ĠbÃ³k": 2549,
      "Ġrjett": 2550,
      "ĠleiÃ°a": 2551,
      "afla": 2552,
      "ĠsÃŃÃ°ast": 2553,
      "ĠÃ¾Ã¦tti": 2554,
      "Ġfullyr": 2555,
      "ĠtÃŃ": 2556,
      "Ġframlag": 2557,
      "veggja": 2558,
      "Ġful": 2559,
      "ĠsÃ¡tt": 2560,
      "ess": 2561,
      "ĠlÃŃtil": 2562,
      "Ġkenn": 2563,
      "mÃ¡lum": 2564,
      "Ġeg": 2565,
      "Ġbeita": 2566,
      "ĠKrist": 2567,
      "Ġ100": 2568,
      "Ġstrax": 2569,
      "Ġallan": 2570,
      "ĠborÃ°": 2571,
      "Ġafar": 2572,
      "ĠÃ³ska": 2573,
      "Ġviljum": 2574,
      "ĠvÃŃsa": 2575,
      "Ġfagna": 2576,
      "ĠstjÃ³rnvÃ¶ld": 2577,
      "sjÃ³Ã°": 2578,
      "ĠÃ¡lÃŃ": 2579,
      "hÃ¦Ã°": 2580,
      "ĠfjÃ¡rl": 2581,
      "ĠrÃ¡Ã°stafanir": 2582,
      "ĠBandarÃŃ": 2583,
      "Ġgangi": 2584,
      "ĠmÃ¶guleika": 2585,
      "ĠnÃ½ta": 2586,
      "fu": 2587,
      "Ġvekja": 2588,
      "Ġatvinnurek": 2589,
      "alaust": 2590,
      "Ġkringum": 2591,
      "Ġeinum": 2592,
      "Ġald": 2593,
      "ĠÃĵlaf": 2594,
      "Ġ50": 2595,
      "Ġraunar": 2596,
      "ĠmÃ¡nuÃ°i": 2597,
      "nur": 2598,
      "Ġinnflutning": 2599,
      "Ġmiklum": 2600,
      "ĠÃ¡stand": 2601,
      "Ġ13": 2602,
      "ĠÃ¾ingflokk": 2603,
      "Ã¶x": 2604,
      "Ġtveimur": 2605,
      "Ġalm": 2606,
      "Ã¶t": 2607,
      "sfjÃ¡r": 2608,
      "gjandi": 2609,
      "ĠreglugerÃ°": 2610,
      "Ġsamninga": 2611,
      "ĠlÃŃfeyriss": 2612,
      "instri": 2613,
      "birg": 2614,
      "ĠlokiÃ°": 2615,
      "Ġgrundvelli": 2616,
      "hel": 2617,
      "ĠlitiÃ°": 2618,
      "skipti": 2619,
      "ĠvirÃ°i": 2620,
      "ĠaÃ°gerÃ°ir": 2621,
      "Ãºl": 2622,
      "yll": 2623,
      "ĠfriÃ°": 2624,
      "ĠrÃ¡Ã°uneyti": 2625,
      "Ġstj": 2626,
      "ĠforsÃ¦tisrÃ¡Ã°herra": 2627,
      "Ġvegum": 2628,
      "amÃ³t": 2629,
      "smÃ¡lum": 2630,
      "ĠviÃ°skipta": 2631,
      "ill": 2632,
      "ĠtalaÃ°i": 2633,
      "kaup": 2634,
      "ĠVirÃ°ulegur": 2635,
      "Ġskila": 2636,
      "Ġsvok": 2637,
      "Ġvirkj": 2638,
      "Ã³p": 2639,
      "ĠslÃŃka": 2640,
      "ĠSu": 2641,
      "son": 2642,
      "raut": 2643,
      "Ġatvinnuveg": 2644,
      "Ġfylg": 2645,
      "Ġleysa": 2646,
      "slunni": 2647,
      "sÃ½slu": 2648,
      "Ġvitum": 2649,
      "ĠlÃ¶greg": 2650,
      "ĠljÃº": 2651,
      "Ãºtvarp": 2652,
      "angi": 2653,
      "ĠÃ¾Ã½Ã°ir": 2654,
      "eftir": 2655,
      "ĠhÃ¶nd": 2656,
      "ĠkostnaÃ°ar": 2657,
      "Ġrauninni": 2658,
      "ĠÃŀÃ¦r": 2659,
      "ĠgrÃŃÃ°ar": 2660,
      "ĠeÃ°li": 2661,
      "ĠhÃ¦rri": 2662,
      "eÃ°l": 2663,
      "ol": 2664,
      "Ġstyrkja": 2665,
      "Ġtveggja": 2666,
      "kil": 2667,
      "Ġfrumvarpi": 2668,
      "leys": 2669,
      "stig": 2670,
      "drÃ¡tt": 2671,
      "ĠverkalÃ½": 2672,
      "Ġgl": 2673,
      "Ġafn": 2674,
      "Ġskulum": 2675,
      "ĠÃ¡kaflega": 2676,
      "Ġveginn": 2677,
      "ĠolÃŃ": 2678,
      "tÃ¶ku": 2679,
      "ĠiÃ°naÃ°ar": 2680,
      "Ġsamvinnu": 2681,
      "Ġlandsbygg": 2682,
      "mÃ¶nnum": 2683,
      "ĠfÃ¦ri": 2684,
      "legan": 2685,
      "ĠhÃ¦ttu": 2686,
      "ĠbÃ¦jar": 2687,
      "Ġben": 2688,
      "ĠÃ¡grein": 2689,
      "ĠfjÃ¶lmiÃ°": 2690,
      "mrn": 2691,
      "skrif": 2692,
      "Ġberi": 2693,
      "ĠalgjÃ¶r": 2694,
      "lÃŃtiÃ°": 2695,
      "Ġopinbera": 2696,
      "ĠbrÃ¡Ã°a": 2697,
      "ĠrÃŃkissjÃ³Ã°i": 2698,
      "ala": 2699,
      "Ġofan": 2700,
      "Ġskref": 2701,
      "ĠbyggÃ°": 2702,
      "ĠtÃŃmi": 2703,
      "ĠslÃŃkar": 2704,
      "Ġlauna": 2705,
      "ĠsÃ¦ti": 2706,
      "ĠÃŀau": 2707,
      "ĠfrumvarpiÃ°": 2708,
      "Ġ---": 2709,
      "Ġbarn": 2710,
      "ĠrÃºm": 2711,
      "Ġ14": 2712,
      "Ġhlutverk": 2713,
      "ĠrÃ¡Ã°herr": 2714,
      "Ġung": 2715,
      "ĠbÃ¦tt": 2716,
      "Ġhugsa": 2717,
      "Ġkosningar": 2718,
      "Ġbak": 2719,
      "ĠfjÃ¡rlÃ¶g": 2720,
      "ĠviÃ°bÃ³tar": 2721,
      "ĠÃ¡kvarÃ°an": 2722,
      "geng": 2723,
      "Ã¦Ã°iÃ°": 2724,
      "Ġstarfi": 2725,
      "hn": 2726,
      "Ġlesa": 2727,
      "nÃ¦": 2728,
      "ĠlagÃ°i": 2729,
      "ĠhÃ¦tta": 2730,
      "ĠÃ¡nÃ¦g": 2731,
      "jÃ¶rÃ°um": 2732,
      "eitir": 2733,
      "ĠsÃ¦": 2734,
      "emm": 2735,
      "Ġtilfel": 2736,
      "ĠBjar": 2737,
      "ĠÃ¾riÃ°ja": 2738,
      "ĠumrÃ¦Ã°unni": 2739,
      "ĠtvÃŃ": 2740,
      "ĠrÃ¡Ã°stÃ¶f": 2741,
      "ĠEg": 2742,
      "ĠÃ¡samt": 2743,
      "ĠlÃ½sa": 2744,
      "ĠNefnd": 2745,
      "ĠafleiÃ°": 2746,
      "ĠfjÃ¡rlaga": 2747,
      "ĠaugljÃ³": 2748,
      "Ãį": 2749,
      "ĠfjÃ¶lskyld": 2750,
      "Ġengan": 2751,
      "Ġfall": 2752,
      "lau": 2753,
      "ĠrÃ¦dd": 2754,
      "umÃ¡l": 2755,
      "dÃ³ttur": 2756,
      "Ġeinhvers": 2757,
      "Ġrekstur": 2758,
      "Ġstundum": 2759,
      "ĠÃŃslenska": 2760,
      "ĠsamrÃ¦m": 2761,
      "ĠaÃ°stÃ¶Ã°u": 2762,
      "ÃŃtiÃ°": 2763,
      "irkju": 2764,
      "fjÃ¡r": 2765,
      "stÃ¶Ã°um": 2766,
      "urÃ°u": 2767,
      "sir": 2768,
      "smÃ¶nnum": 2769,
      "amÃ¡lum": 2770,
      "Ġefla": 2771,
      "ĠrÃ¦Ã°": 2772,
      "Ġbrot": 2773,
      "Ġeinkum": 2774,
      "Ġborgar": 2775,
      "stofn": 2776,
      "Ġfrekari": 2777,
      "gjÃ¶f": 2778,
      "angaÃ°": 2779,
      "ĠÃ³s": 2780,
      "Ġutanrrh": 2781,
      "Ġumfram": 2782,
      "Ã©ttar": 2783,
      "ĠnÃ¡ttÃºru": 2784,
      "ifr": 2785,
      "ĠdÃ¡l": 2786,
      "ĠgetaÃ°": 2787,
      "Ġreynd": 2788,
      "lands": 2789,
      "Ġgerast": 2790,
      "Ã¦p": 2791,
      "ĠaÃ°ferÃ°": 2792,
      "Ġlaganna": 2793,
      "Ġhvorki": 2794,
      "ettv": 2795,
      "valda": 2796,
      "ĠmÃŃna": 2797,
      "kyn": 2798,
      "ĠsÃ½nist": 2799,
      "okki": 2800,
      "ĠbrÃ¡Ã°abirg": 2801,
      "Ġ16": 2802,
      "endir": 2803,
      "ĠvirÃ°ulegi": 2804,
      "ĠVestf": 2805,
      "liÃ°a": 2806,
      "ssam": 2807,
      "Ġfyrstu": 2808,
      "leysi": 2809,
      "ĠgÃ³Ã°a": 2810,
      "Ã½Ã°u": 2811,
      "ĠÃŃtar": 2812,
      "ĠjarÃ°": 2813,
      "Ġskapa": 2814,
      "ingarinnar": 2815,
      "Ġmestu": 2816,
      "bÃ³ta": 2817,
      "ÃŃtal": 2818,
      "ĠframtÃŃÃ°ar": 2819,
      "nda": 2820,
      "ĠÃ¡ratug": 2821,
      "Ġtagi": 2822,
      "ĠÃŃslensku": 2823,
      "ĠembÃ¦ttis": 2824,
      "Ġvinnumark": 2825,
      "Ġfella": 2826,
      "kerfinu": 2827,
      "ĠkrÃ¶fur": 2828,
      "egi": 2829,
      "Ġlokum": 2830,
      "Ġ194": 2831,
      "ĠVeg": 2832,
      "ĠfulltrÃºa": 2833,
      "ĠIc": 2834,
      "Ġvatn": 2835,
      "ĠmÃ¡lefni": 2836,
      "ĠfÃ©lags": 2837,
      "ĠsjÃ¡lfur": 2838,
      "fÃ¦rslu": 2839,
      "Ġgrg": 2840,
      "ĠatkvÃ¦Ã°i": 2841,
      "ĠlÃ¶gunum": 2842,
      "Ġhar": 2843,
      "ĠhjÃ¡l": 2844,
      "ĠvÃŃÃ°a": 2845,
      "ĠAkur": 2846,
      "oll": 2847,
      "svald": 2848,
      "ĠlÃ½Ã°r": 2849,
      "ĠsamÃ¾ykkja": 2850,
      "ĠrÃ¡Ã°uneyt": 2851,
      "ĠendurskoÃ°un": 2852,
      "bili": 2853,
      "Ġkomist": 2854,
      "Ġbund": 2855,
      "anni": 2856,
      "ĠHvernig": 2857,
      "ĠsÃ©rfrÃ¦Ã°": 2858,
      "ĠFl": 2859,
      "ĠÃ³eÃ°l": 2860,
      "Ġsak": 2861,
      "Ġkosti": 2862,
      "Ã°ingu": 2863,
      "ĠfyrirtÃ¦kja": 2864,
      "ĠEinn": 2865,
      "Ġgerist": 2866,
      "ĠgÃ¦ta": 2867,
      "ĠRÃŃkisÃºtvarp": 2868,
      "Ġheimilt": 2869,
      "Ġmerk": 2870,
      "saf": 2871,
      "ifreiÃ°": 2872,
      "auka": 2873,
      "ĠFrsm": 2874,
      "ÃŃk": 2875,
      "egund": 2876,
      "Ġsenn": 2877,
      "ĠrÃŃkissjÃ³Ã°ur": 2878,
      "ĠmÃ¦la": 2879,
      "ĠÃ¾angaÃ°": 2880,
      "fylk": 2881,
      "Ġskilgrein": 2882,
      "ĠÃºtvarp": 2883,
      "jarnan": 2884,
      "Ãºar": 2885,
      "Ã¦Ã°agreiÃ°": 2886,
      "Ġhorfa": 2887,
      "Ġstandi": 2888,
      "Ġinnheim": 2889,
      "Ġfasteig": 2890,
      "ĠÃŀor": 2891,
      "svar": 2892,
      "Ã¶ldum": 2893,
      "framleiÃ°": 2894,
      "Ġsitja": 2895,
      "greiÃ°slu": 2896,
      "ĠÃ¾or": 2897,
      "Ġskyldu": 2898,
      "Ġdreif": 2899,
      "ĠAustur": 2900,
      "Ġte": 2901,
      "ĠlÃ©": 2902,
      "ersÃ³nu": 2903,
      "Ġerlendis": 2904,
      "ĠfÃ©kk": 2905,
      "eftirlit": 2906,
      "sdÃ³ttir": 2907,
      "Ġfjvn": 2908,
      "ddur": 2909,
      "ĠorÃ°in": 2910,
      "ÃŃr": 2911,
      "Ġhrey": 2912,
      "ĠÃ¦sk": 2913,
      "ulegt": 2914,
      "Ġtekjum": 2915,
      "ĠEftir": 2916,
      "Ġlengra": 2917,
      "Ġtillaga": 2918,
      "ĠSeÃ°labank": 2919,
      "ĠnefndarÃ¡l": 2920,
      "ĠVarÃ°": 2921,
      "Ġskilja": 2922,
      "Ġumsag": 2923,
      "Ġbil": 2924,
      "ĠfjÃ¡rlÃ¶gum": 2925,
      "Ġskipti": 2926,
      "ĠÃ³breytt": 2927,
      "her": 2928,
      "ĠÃ¡kveÃ°in": 2929,
      "ĠfÃ¦rt": 2930,
      "ĠsÃ¦kja": 2931,
      "ennt": 2932,
      "ĠfljÃ³": 2933,
      "ĠAnnar": 2934,
      "eira": 2935,
      "ĠÃ¾jÃ³Ã°in": 2936,
      "ĠmilljÃ³": 2937,
      "Ġenga": 2938,
      "Ãºr": 2939,
      "tÃ¶lu": 2940,
      "ĠÃºtgerÃ°ar": 2941,
      "ĠSjÃ¡lfstÃ¦Ã°is": 2942,
      "banka": 2943,
      "Ġraforku": 2944,
      "agerÃ°": 2945,
      "magn": 2946,
      "Ġhlutfall": 2947,
      "borgar": 2948,
      "ĠJÃ³h": 2949,
      "hl": 2950,
      "Ġ40": 2951,
      "app": 2952,
      "Ġstarfsmanna": 2953,
      "Ġeinstaklinga": 2954,
      "ĠstyÃ°ja": 2955,
      "Ġmisskil": 2956,
      "sluna": 2957,
      "ĠbÃ¦ndur": 2958,
      "eÃ°ur": 2959,
      "ĠÃ¾ingmanna": 2960,
      "Ġgjarnan": 2961,
      "Ã³Ã°ur": 2962,
      "ĠgreinargerÃ°": 2963,
      "brÃ©f": 2964,
      "Ġathugunar": 2965,
      "if": 2966,
      "elsi": 2967,
      "ĠjÃ¡kv": 2968,
      "ĠviljaÃ°": 2969,
      "gri": 2970,
      "Ġbreg": 2971,
      "ĠverksmiÃ°": 2972,
      "leiÃ°is": 2973,
      "uneyt": 2974,
      "eil": 2975,
      "tÃŃÃ°": 2976,
      "ĠÃ¡stÃ¦Ã°um": 2977,
      "Ġsannarlega": 2978,
      "Ġkominn": 2979,
      "ĠÃ½msar": 2980,
      "Ġtilraun": 2981,
      "fang": 2982,
      "fur": 2983,
      "ĠHel": 2984,
      "Ġunnt": 2985,
      "ĠVarÃ°andi": 2986,
      "bind": 2987,
      "lÃŃnis": 2988,
      "tin": 2989,
      "20": 2990,
      "Ã¶ku": 2991,
      "ĠbÃ¡Ã°": 2992,
      "hÃ¦kk": 2993,
      "sum": 2994,
      "Ġbyrja": 2995,
      "ykki": 2996,
      "ĠÃ¡lykt": 2997,
      "Ġreynslu": 2998,
      "unarinnar": 2999,
      "ĠÃ¡liti": 3000,
      "gerÃ°a": 3001,
      "Ġjar": 3002,
      "ĠÃ¾Ã¡ltill": 3003,
      "Ġeinhverja": 3004,
      "Ã¦Ã°slu": 3005,
      "ĠrÃŃkissjÃ³Ã°": 3006,
      "Ġman": 3007,
      "sjÃ³Ã°i": 3008,
      "ĠÃ¡hyggjur": 3009,
      "Ġbjar": 3010,
      "vÃ¦g": 3011,
      "ĠtÃ¶lur": 3012,
      "Ã¡lykt": 3013,
      "ĠÃ¶rug": 3014,
      "estur": 3015,
      "ĠSamfylk": 3016,
      "ĠÃ³lÃŃk": 3017,
      "ĠSjÃ¡lfstÃ¦Ã°isflokk": 3018,
      "Ġgilda": 3019,
      "ĠbÃ³": 3020,
      "%,": 3021,
      "agni": 3022,
      "nilega": 3023,
      "ĠumrÃ¦Ã°a": 3024,
      "Ġbetra": 3025,
      "ĠGunnar": 3026,
      "ĠHÃ¡": 3027,
      "ÃŃn": 3028,
      "eyris": 3029,
      "ĠbÃŃÃ°a": 3030,
      "ĠPÃ¡l": 3031,
      "verksmiÃ°": 3032,
      "ĠÃ¡kveÃ°a": 3033,
      "Ġvenju": 3034,
      "Ġhanda": 3035,
      "enÃ¦r": 3036,
      "firÃ°i": 3037,
      "sjÃ³Ã°ur": 3038,
      "Ġtilliti": 3039,
      "....": 3040,
      "ĠrÃ©ttar": 3041,
      "ĠbeinlÃŃnis": 3042,
      "ĠsannfÃ¦r": 3043,
      "Ġskamm": 3044,
      "upp": 3045,
      "ĠhÃ¡skÃ³l": 3046,
      "ĠsÃ¶gu": 3047,
      "Ġborg": 3048,
      "ĠsamrÃ¡Ã°": 3049,
      "Ġkennar": 3050,
      "ĠpÃ³litÃŃsk": 3051,
      "ĠÃ¾jÃ³Ã°fÃ©laginu": 3052,
      "Ġmargar": 3053,
      "ĠHitt": 3054,
      "ĠrÃ©ttindi": 3055,
      "Ġgildandi": 3056,
      "Ġverja": 3057,
      "heimil": 3058,
      "frÃ¦Ã°i": 3059,
      "ĠnjÃ³ta": 3060,
      "Ġands": 3061,
      "ĠstaÃ°fest": 3062,
      "Ġvitanlega": 3063,
      "ĠbÃ³ta": 3064,
      "Ġrekstri": 3065,
      "Ã¶fnunar": 3066,
      "ĠslÃŃku": 3067,
      "ĠmeÃ°ferÃ°ar": 3068,
      "ĠnÃ¡nast": 3069,
      "ĠnÃºv": 3070,
      "ĠalÃ¾jÃ³Ã°": 3071,
      "vi": 3072,
      "verndar": 3073,
      "ĠÃ¡tta": 3074,
      "Ġheilbr": 3075,
      "Ġendursk": 3076,
      "ĠpersÃ³nu": 3077,
      "ĠljÃºka": 3078,
      "vil": 3079,
      "Ġstofnanir": 3080,
      "Ã¶llum": 3081,
      "ĠfulltrÃºar": 3082,
      "Ġstarfsmenn": 3083,
      "maÃ°ur": 3084,
      "sÃ¦": 3085,
      "Ġtraust": 3086,
      "Ġfelst": 3087,
      "Ġhn": 3088,
      "ĠÃŀjÃ³Ã°": 3089,
      "Ġmgr": 3090,
      "rÃ¦Ã°um": 3091,
      "Ġrei": 3092,
      "ĠÃļt": 3093,
      "ugrein": 3094,
      "ĠsÃ½nir": 3095,
      "Ġfrumvarpsins": 3096,
      "tast": 3097,
      "ĠNd": 3098,
      "smaÃ°ur": 3099,
      "borg": 3100,
      "ĠupplÃ½singum": 3101,
      "ustu": 3102,
      "Ġskemm": 3103,
      "ĠsÃ©rstaka": 3104,
      "Ġ17": 3105,
      "ĠNefndin": 3106,
      "izt": 3107,
      "Ã¡kvÃ¦Ã°i": 3108,
      "Ã¾Ã¡": 3109,
      "Ġvild": 3110,
      "ĠvÃ¦nti": 3111,
      "ĠtvÃ¦r": 3112,
      "kast": 3113,
      "par": 3114,
      "vÃŃsi": 3115,
      "Ġel": 3116,
      "ĠframkvÃ¦m": 3117,
      "Ġhepp": 3118,
      "ĠtilbÃº": 3119,
      "rek": 3120,
      "ĠsÃ©um": 3121,
      "ĠÃ¾ingsÃ¡lykt": 3122,
      "ĠmÃ¡tt": 3123,
      "yrk": 3124,
      "anleg": 3125,
      "Ġforeld": 3126,
      "Ġhelm": 3127,
      "ĠauÃ°lind": 3128,
      "ĠÃ¡kvarÃ°anir": 3129,
      "ĠstjÃ³rnarflokk": 3130,
      "Ġlausn": 3131,
      "annast": 3132,
      "alega": 3133,
      "ES": 3134,
      "ĠbyggÃ°ar": 3135,
      "ĠÃºrskur": 3136,
      "ĠÃ¦tlar": 3137,
      "Ġraunverulega": 3138,
      "ĠFramsÃ³knar": 3139,
      "Ġfyrirspurn": 3140,
      "Ġgengi": 3141,
      "Ġhugmyndir": 3142,
      "ĠÃŃtreka": 3143,
      "reikning": 3144,
      "Ġmeta": 3145,
      "byrg": 3146,
      "vÃ¦": 3147,
      "ĠrannsÃ³knar": 3148,
      "ĠÃ¡kvÃ¦Ã°um": 3149,
      "Ġhund": 3150,
      "skuld": 3151,
      "ling": 3152,
      "bÃ¡": 3153,
      "Ġnefnt": 3154,
      "Ġmanns": 3155,
      "ĠgjÃ¶ld": 3156,
      "Ġreka": 3157,
      "ĠdÃ¡lÃŃtiÃ°": 3158,
      "Ġhina": 3159,
      "andalag": 3160,
      "di": 3161,
      "Ġleitt": 3162,
      "ĠsÃŃÃ°ari": 3163,
      "Ġnokkrar": 3164,
      "nason": 3165,
      "Ġtrygging": 3166,
      "Ġbeina": 3167,
      "Ġneyt": 3168,
      "ĠbÃºin": 3169,
      "ĠheilbrigÃ°is": 3170,
      "afrum": 3171,
      "agjald": 3172,
      "gv": 3173,
      "ĠfrÃ©tt": 3174,
      "Ġhrepp": 3175,
      "ĠvÃŃÃ°": 3176,
      "Ġstutt": 3177,
      "ĠrÃ©ttl": 3178,
      "Ġhagsmuna": 3179,
      "uneyti": 3180,
      "issa": 3181,
      "sver": 3182,
      "ĠkallaÃ°": 3183,
      "fÃ¡": 3184,
      "ĠvÃŃsit": 3185,
      "ĠfjÃ¡rmÃ¡larÃ¡Ã°herra": 3186,
      "ĠumrÃ¦Ã°ur": 3187,
      "ĠvinnubrÃ¶gÃ°": 3188,
      "ĠÃ¾Ã³tti": 3189,
      "ĠJafn": 3190,
      "ĠmjÃ³l": 3191,
      "ĠlandsbyggÃ°": 3192,
      "ingunni": 3193,
      "ĠtillÃ¶gum": 3194,
      "Ġhinna": 3195,
      "setningu": 3196,
      "ĠhÃ¦kkaÃ°": 3197,
      "kin": 3198,
      "ĠtÃ¦p": 3199,
      "ĠVestur": 3200,
      "ĠlÃ¡na": 3201,
      "ĠmÃ¦ta": 3202,
      "Ġ.": 3203,
      "Ġsemja": 3204,
      "lÃ¶nd": 3205,
      "Ġathugasemdir": 3206,
      "ĠstjÃ³rnarskrÃ¡r": 3207,
      "ĠgrÃŃ": 3208,
      "aÃ°ila": 3209,
      "vÃ¶rp": 3210,
      "hluta": 3211,
      "Ġvettv": 3212,
      "ylt": 3213,
      "Ã¶lum": 3214,
      "rÃ¦k": 3215,
      "ĠAnnars": 3216,
      "ĠaÃ°ilum": 3217,
      "ĠVer": 3218,
      "nuÃ°": 3219,
      "ĠbrÃ©f": 3220,
      "eiti": 3221,
      "ĠÃŀarna": 3222,
      "Ġton": 3223,
      "Ã¶gn": 3224,
      "ĠhÃ¦tt": 3225,
      "Ġnokkra": 3226,
      "nni": 3227,
      "ĠBandarÃŃkj": 3228,
      "ĠmilljarÃ°ar": 3229,
      "sviÃ°": 3230,
      "nefndar": 3231,
      "ĠmenntamÃ¡l": 3232,
      "ĠstaÃ°inn": 3233,
      "ĠfÃ¶": 3234,
      "sstjÃ³rn": 3235,
      "ĠÃ¡rin": 3236,
      "ĠumsÃ¶gn": 3237,
      "ĠsveitarfÃ©lÃ¶gin": 3238,
      "fÃ©lÃ¶g": 3239,
      "Ġtveir": 3240,
      "Ġmenningar": 3241,
      "afyrir": 3242,
      "brÃ©": 3243,
      "Ġgreitt": 3244,
      "reyf": 3245,
      "ĠÃ¡lag": 3246,
      "ĠvÃŃkja": 3247,
      "ĠbÃ¦nda": 3248,
      "ĠFjÃ¡r": 3249,
      "oÃ°i": 3250,
      "ĠEd": 3251,
      "Ġgey": 3252,
      "ĠBygg": 3253,
      "vÃ¶ru": 3254,
      "Ġvaxta": 3255,
      "ĠalgjÃ¶rlega": 3256,
      "Ġafl": 3257,
      "Ġlyf": 3258,
      "ĠhvÃŃ": 3259,
      "ĠFyr": 3260,
      "Ġalt": 3261,
      "asta": 3262,
      "Ġforgang": 3263,
      "Ã¶ngur": 3264,
      "ĠferÃ°a": 3265,
      "Ġsamningum": 3266,
      "endurskoÃ°": 3267,
      "rÃ¡Ã°i": 3268,
      "Ġmein": 3269,
      "Ġsamhengi": 3270,
      "rÃŃm": 3271,
      "ĠEES": 3272,
      "last": 3273,
      "ĠstÃ¶Ã°v": 3274,
      "ĠvÃŃst": 3275,
      "elt": 3276,
      "Ġengar": 3277,
      "ĠEnn": 3278,
      "ĠÃ¶Ã°ruvÃŃsi": 3279,
      "Ġkar": 3280,
      "kaÃ°": 3281,
      "Ġfyrirvara": 3282,
      "ĠaÃ°gang": 3283,
      "ĠfjÃ¡rlagafrv": 3284,
      "Ġdaga": 3285,
      "Ġalmennings": 3286,
      "mÃ¦lum": 3287,
      "Ġstarfs": 3288,
      "ĠÃ½mislegt": 3289,
      "ĠHef": 3290,
      "Ġhlutinn": 3291,
      "ĠÃ¡rangur": 3292,
      "ĠÃ¾y": 3293,
      "Ġveik": 3294,
      "ĠumboÃ°": 3295,
      "ĠskÃ½ra": 3296,
      "ĠÃ¡rsins": 3297,
      "Ġfjallar": 3298,
      "ÃŃs": 3299,
      "Ġnei": 3300,
      "Ġlengri": 3301,
      "ĠstaÃ°a": 3302,
      "stofu": 3303,
      "kostnaÃ°": 3304,
      "Ġkynna": 3305,
      "ĠÃŀing": 3306,
      "ĠvariÃ°": 3307,
      "vo": 3308,
      "Ġfelld": 3309,
      "uk": 3310,
      "Ã¡byrg": 3311,
      "Ġeinhverjar": 3312,
      "ĠafgreiÃ°a": 3313,
      "Ġmismunandi": 3314,
      "Ġheyrt": 3315,
      "ĠÃ¡ramÃ³t": 3316,
      "ĠÃ¡feng": 3317,
      "atrygg": 3318,
      "ĠaÃ°ild": 3319,
      "ĠskiliÃ°": 3320,
      "ĠÃ¡lÃŃt": 3321,
      "ĠorÃ°a": 3322,
      "hÃ¦f": 3323,
      "ĠÃ³m": 3324,
      "sÃ¶lu": 3325,
      "Ã½st": 3326,
      "ĠmÃ¡lflutning": 3327,
      "rÃ¦Ã°ur": 3328,
      ".:": 3329,
      "Ġsal": 3330,
      "ĠÃºtveg": 3331,
      "rÃ©tti": 3332,
      "Ġfann": 3333,
      "ĠatvinnulÃŃf": 3334,
      "ĠkveÃ°iÃ°": 3335,
      "riÃ°iÃ°": 3336,
      "irkj": 3337,
      "jÃ¡n": 3338,
      "Ġmega": 3339,
      "ĠundirbÃºning": 3340,
      "inguna": 3341,
      "ĠStef": 3342,
      "Ġbur": 3343,
      "ĠfjÃ¡rhags": 3344,
      "ĠskÃ³": 3345,
      "ĠsjÃºtv": 3346,
      "samtÃ¶k": 3347,
      "ĠframsÃ¶g": 3348,
      "ĠstÃ¶Ã°um": 3349,
      "ĠsjÃ¡lfir": 3350,
      "endingar": 3351,
      "Ġsatt": 3352,
      "ĠverkalÃ½Ã°s": 3353,
      "ĠEinnig": 3354,
      "ĠkrÃ¶fu": 3355,
      "Ã¾jÃ³nust": 3356,
      "jÃ¶rn": 3357,
      "Ã¶llu": 3358,
      "slunnar": 3359,
      "Ġmanni": 3360,
      "ĠÃ¾urft": 3361,
      "ĠÃ¾Ãºsund": 3362,
      "sna": 3363,
      "Ġstefnum": 3364,
      "ĠÃ½msu": 3365,
      "ĠsÃŃldar": 3366,
      "Ġlaus": 3367,
      "Ġjan": 3368,
      "Ġmunum": 3369,
      "ĠmÃ¡laflokk": 3370,
      "stand": 3371,
      "ĠAlÃ¾b": 3372,
      "ĠfjÃ¡rmÃ¡la": 3373,
      "Ġteljum": 3374,
      "vÃ©": 3375,
      "lunar": 3376,
      "Ġhugsanlega": 3377,
      "ĠrannsÃ³kn": 3378,
      "ĠstjÃ³rnvalda": 3379,
      "pur": 3380,
      "hvert": 3381,
      "arfÃ©lag": 3382,
      "Ġval": 3383,
      "ĠlÃ¶ndum": 3384,
      "ĠhvenÃ¦r": 3385,
      "ĠsamÃ¾ykki": 3386,
      "ĠrÃ¡Ã°herrar": 3387,
      "undur": 3388,
      "slun": 3389,
      "ĠframkvÃ¦mdar": 3390,
      "ĠsjÃ³n": 3391,
      "Ġframhaldssk": 3392,
      "rÃ¡Ã°herra": 3393,
      "ĠÃ¾ingmÃ¶nnum": 3394,
      "ĠumrÃ¦Ã°um": 3395,
      "sjÃ³Ã°s": 3396,
      "Ġsty": 3397,
      "anga": 3398,
      "ĠNei": 3399,
      "Ġtakmark": 3400,
      "ĠnÃ³g": 3401,
      "fisins": 3402,
      "Ã¦t": 3403,
      "ĠolÃŃu": 3404,
      "Ġspurningu": 3405,
      "ĠÃ³Ã¾arf": 3406,
      "Ġfrsm": 3407,
      "ĠnÃ¡i": 3408,
      "amark": 3409,
      "Ġhelst": 3410,
      "Ġgley": 3411,
      "smrh": 3412,
      "Ġsein": 3413,
      "Ġ193": 3414,
      "vÃŃkur": 3415,
      "Ġefa": 3416,
      "finn": 3417,
      "Ġfullu": 3418,
      "Ġrak": 3419,
      "ingi": 3420,
      "helg": 3421,
      "ost": 3422,
      "Ġmynda": 3423,
      "Ġframmi": 3424,
      "ĠHaf": 3425,
      "linga": 3426,
      "breytingar": 3427,
      "ĠÃŃslenskra": 3428,
      "Ġreglum": 3429,
      "oss": 3430,
      "Ġbann": 3431,
      "stjÃ³ri": 3432,
      "Ġmikinn": 3433,
      "ĠstÃ¦rri": 3434,
      "auk": 3435,
      "ĠÃ¾ingsÃ¡lyktunar": 3436,
      "land": 3437,
      "afÃ³lk": 3438,
      "ĠbÃºinn": 3439,
      "Ġmenntmrh": 3440,
      "ĠstÃ³Ã°": 3441,
      "sjÃ³n": 3442,
      "ĠfjÃ¡rfestingar": 3443,
      "ĠsamtÃ¶k": 3444,
      "irÃ°i": 3445,
      "sen": 3446,
      "ĠframsÃ³knar": 3447,
      "ĠlÃ¶ggjafar": 3448,
      "rauk": 3449,
      "deil": 3450,
      "ĠsambÃ¦r": 3451,
      "Ã¾ingi": 3452,
      "blaÃ°": 3453,
      "ĠhÃ³f": 3454,
      "Ġvarnar": 3455,
      "ĠrÃŃkisvald": 3456,
      "Ġtengslum": 3457,
      "afrumvarp": 3458,
      "ĠkostnaÃ°ur": 3459,
      "ĠhagkvÃ¦m": 3460,
      "ĠsÃ©rstakt": 3461,
      "bein": 3462,
      "tun": 3463,
      "stÃ¶Ã°var": 3464,
      "ĠEinar": 3465,
      "Ġgerst": 3466,
      "mÃ¶rk": 3467,
      "Ã¡Ã¦tl": 3468,
      "Ġfundar": 3469,
      "Ġhvet": 3470,
      "bÃ¦tti": 3471,
      "ĠskoÃ°anir": 3472,
      "ĠlÃ¶ngu": 3473,
      "Ġtelji": 3474,
      "Ġeitthvert": 3475,
      "oÃ°ar": 3476,
      "ĠreiÃ°": 3477,
      "auÃ°": 3478,
      "Ġgefur": 3479,
      "Ġuppbyggingu": 3480,
      "Ġskulda": 3481,
      "Ġalmann": 3482,
      "ĠÃ¶rfÃ¡": 3483,
      "Ġvirk": 3484,
      "ĠhÃ¶fuÃ°borgar": 3485,
      "ĠbifreiÃ°": 3486,
      "Ġfela": 3487,
      "Ã¾ega": 3488,
      "Ġfyll": 3489,
      "iggja": 3490,
      "Ġtekist": 3491,
      "ĠgrÃŃÃ°arlega": 3492,
      "Ġkref": 3493,
      "Ġkafla": 3494,
      "ĠhugsaÃ°": 3495,
      "festa": 3496,
      "Ġkraf": 3497,
      "Ġrangt": 3498,
      "bands": 3499,
      "kvÃ¦Ã°i": 3500,
      "Ġflokka": 3501,
      "ĠstÃŃ": 3502,
      "Ġhundr": 3503,
      "ĠÃ¾jÃ³Ã°inni": 3504,
      "Ġkynnt": 3505,
      "Ġathugun": 3506,
      "ĠlÃ¦kkun": 3507,
      "ĠÃŃslenskum": 3508,
      "stÃ¶Ã°v": 3509,
      "ĠframtÃŃÃ°inni": 3510,
      "ĠtiltÃ¶lu": 3511,
      "Ġpeninga": 3512,
      "ĠAkureyri": 3513,
      "ĠhÃ©lt": 3514,
      "Ġkey": 3515,
      "hreyf": 3516,
      "ĠskrÃ¡": 3517,
      "ĠprÃ³f": 3518,
      "sÃŃ": 3519,
      "eldur": 3520,
      "ĠsÃ³tt": 3521,
      "Ġeiginlega": 3522,
      "ĠdregiÃ°": 3523,
      "Ġaugum": 3524,
      "50": 3525,
      "ĠlÃŃt": 3526,
      "ilegar": 3527,
      "astofnun": 3528,
      "Ġvaxandi": 3529,
      "Ġminnast": 3530,
      "hÃº": 3531,
      "ĠleitaÃ°": 3532,
      "Ã¾r": 3533,
      "ĠframkvÃ¦ma": 3534,
      "dÃ½r": 3535,
      "ĠdÃ¶gum": 3536,
      "bandalag": 3537,
      "haf": 3538,
      "ĠAlÃ¾Ã½Ã°u": 3539,
      "ĠsvaraÃ°": 3540,
      "ĠfÃ©lmrh": 3541,
      "ĠvelferÃ°ar": 3542,
      "Ġvara": 3543,
      "ĠBÃº": 3544,
      "os": 3545,
      "Ġviti": 3546,
      "Ġmorgun": 3547,
      "ĠsjÃ¡lft": 3548,
      "lÃ¦k": 3549,
      "Ġspurningar": 3550,
      "ĠKristjÃ¡n": 3551,
      "ĠrannsÃ³knir": 3552,
      "Ġbeitt": 3553,
      "eldis": 3554,
      "ĠkjÃ¶rtÃŃma": 3555,
      "ĠÃ¶ryggis": 3556,
      "Ġbyggt": 3557,
      "ĠviÃ°hald": 3558,
      "ĠviÃ°urkenna": 3559,
      "ĠlagÃ°ar": 3560,
      "ĠaÃ°stoÃ°": 3561,
      "Ġvantar": 3562,
      "rifa": 3563,
      "Ġfe": 3564,
      "ĠrÃ©tta": 3565,
      "ndi": 3566,
      "ĠklÃ¡": 3567,
      "lingar": 3568,
      "ĠkjÃ¶rdÃ¦m": 3569,
      "Ġvelta": 3570,
      "ĠnÃ¡gr": 3571,
      "Ġsamanbur": 3572,
      "Ġfleira": 3573,
      "Ã¶nnun": 3574,
      "ĠhÃ©rna": 3575,
      "Ġleigu": 3576,
      "ĠIcel": 3577,
      "ĠtiltÃ¶lulega": 3578,
      "zlu": 3579,
      "Ã¶nn": 3580,
      "ĠstuÃ°la": 3581,
      "ĠfÃ³t": 3582,
      "Ġalmenna": 3583,
      "gun": 3584,
      "Ġhafnar": 3585,
      "ĠstÃ¶Ã°": 3586,
      "ĠÃ¦tlum": 3587,
      "gÃ¡": 3588,
      "ĠstjÃ³rnin": 3589,
      "ĠnotaÃ°": 3590,
      "ĠStefÃ¡n": 3591,
      "Ġgengis": 3592,
      "strÃ¦ti": 3593,
      "Ġfsp": 3594,
      "Ã¶gur": 3595,
      "ĠliÃ°ur": 3596,
      "ĠvitaÃ°": 3597,
      "slÃ¶g": 3598,
      "ĠsjÃ³manna": 3599,
      "Ġhverjir": 3600,
      "ĠrÃ¦Ã°ur": 3601,
      "svÃ¦Ã°inu": 3602,
      "ĠendurskoÃ°a": 3603,
      "Ġtekjuskatt": 3604,
      "lenda": 3605,
      "Ġstofnana": 3606,
      "ĠFramsÃ³knarflokk": 3607,
      "verki": 3608,
      "Ġskyni": 3609,
      "Ã¡ttu": 3610,
      "stofnun": 3611,
      "urnar": 3612,
      "pÃŃtal": 3613,
      "ant": 3614,
      "jÃºk": 3615,
      "amma": 3616,
      "ĠÃºthlut": 3617,
      "ĠsjÃ¡um": 3618,
      "Ġatvinnugrein": 3619,
      "jÃ¡kvÃ¦m": 3620,
      "Ġkvenna": 3621,
      "ĠfjÃ¡rhÃ¦Ã°": 3622,
      "ĠÃºtlend": 3623,
      "ĠReykjavik": 3624,
      "ĠupplÃ½st": 3625,
      "Ġtilvik": 3626,
      "Ġbaka": 3627,
      "ĠsamiÃ°": 3628,
      "skjÃ¶r": 3629,
      "ĠfÃ³lkiÃ°": 3630,
      "ginn": 3631,
      "ĠveÃ°": 3632,
      "ssv": 3633,
      "sÃ³kn": 3634,
      "Ġmer": 3635,
      "mÃ¦ti": 3636,
      "dar": 3637,
      "afur": 3638,
      "ĠkjÃ³s": 3639,
      "ĠferÃ°inni": 3640,
      "ĠkrÃ³n": 3641,
      "ĠstÃ©tt": 3642,
      "sett": 3643,
      "ĠlÃŃfeyrissjÃ³Ã°": 3644,
      "Ġkostur": 3645,
      "ĠÃ¡rangri": 3646,
      "ĠbregÃ°ast": 3647,
      "dal": 3648,
      "eiki": 3649,
      "ĠstjÃ³rnarandstÃ¶Ã°": 3650,
      "Ġrann": 3651,
      "mer": 3652,
      "vernd": 3653,
      "ĠgrÃŃpa": 3654,
      "amik": 3655,
      "Ġles": 3656,
      "Ġref": 3657,
      "Ġskipt": 3658,
      "Ġkun": 3659,
      "ĠsjÃ¡lfum": 3660,
      "Ġreikning": 3661,
      "Ġallshn": 3662,
      "Ġinnlend": 3663,
      "ĠnÃ¦gilega": 3664,
      "Ġ60": 3665,
      "Ã¦Ã°ingar": 3666,
      "ĠSamkvÃ¦mt": 3667,
      "ĠÃ³hjÃ¡kvÃ¦m": 3668,
      "ĠurÃ°u": 3669,
      "Ġkjar": 3670,
      "Ġsamkomulagi": 3671,
      "Ġloft": 3672,
      "ĠsiÃ°": 3673,
      "ĠIceland": 3674,
      "ember": 3675,
      "ĠfÃ¡um": 3676,
      "svÃ¦Ã°i": 3677,
      "ĠsvolÃŃtiÃ°": 3678,
      "ĠMagn": 3679,
      "ĠPÃ©": 3680,
      "Ġloka": 3681,
      "virkjun": 3682,
      "ĠauÃ°veld": 3683,
      "ĠrÃ¦Ã°ir": 3684,
      "Ã©Ã°": 3685,
      "ĠnÃ³gu": 3686,
      "Ġliggi": 3687,
      "ĠMar": 3688,
      "lÃ¡n": 3689,
      "ĠÃ¾jÃ³Ã°ir": 3690,
      "Ġmin": 3691,
      "Ġ192": 3692,
      "irkjustrÃ¦ti": 3693,
      "ĠbÃ½st": 3694,
      "lof": 3695,
      "ĠkjÃ¶l": 3696,
      "ĠlÃ½sti": 3697,
      "Ġstunda": 3698,
      "fÃ¦ra": 3699,
      "ĠAt": 3700,
      "Ġvarla": 3701,
      "ĠbrÃ©": 3702,
      "ĠFrv": 3703,
      "tillÃ¶gu": 3704,
      "ĠniÃ°urstaÃ°a": 3705,
      "KirkjustrÃ¦ti": 3706,
      "Ġkjarasamning": 3707,
      "ĠfyrirtÃ¦kjum": 3708,
      "ĠgerÃ°u": 3709,
      "Ġfannst": 3710,
      "ĠtÃ¶kum": 3711,
      "ĠÃºtgerÃ°": 3712,
      "ĠsjÃ³nvarp": 3713,
      "Ġskuldbind": 3714,
      "ĠveiÃ°i": 3715,
      "ĠÃ³eÃ°lilegt": 3716,
      "ĠupplÃ½singa": 3717,
      "ĠsviÃ°um": 3718,
      "ĠsnÃºa": 3719,
      "ĠtÃŃmann": 3720,
      "Ġvettvangi": 3721,
      "bl": 3722,
      "ĠÃ³skaÃ°": 3723,
      "ĠalÃ¾jÃ³": 3724,
      "Ã°urinn": 3725,
      "ĠkvÃ¶ld": 3726,
      "ĠstÃ³rt": 3727,
      "ĠbiÃ°ja": 3728,
      "vinnslu": 3729,
      "Ġheils": 3730,
      "ĠÃ¦skilegt": 3731,
      "ĠatriÃ°um": 3732,
      "Ġkonur": 3733,
      "ĠrÃ¦k": 3734,
      "Ġhvern": 3735,
      "Ġpening": 3736,
      "Ġafur": 3737,
      "Ã³st": 3738,
      "sveit": 3739,
      "ĠVinstri": 3740,
      "ĠIn": 3741,
      "ĠframlÃ¶g": 3742,
      "ĠgrundvÃ¶ll": 3743,
      "unir": 3744,
      "Ġtilkyn": 3745,
      "ĠÃ¡v": 3746,
      "Ġneinn": 3747,
      "ĠaÃ°allega": 3748,
      "ĠaukiÃ°": 3749,
      "ĠhÃ¡ttar": 3750,
      "ĠkostnaÃ°i": 3751,
      "Ġfylgir": 3752,
      "Ġheimildir": 3753,
      "ĠAuk": 3754,
      "stÃ¦Ã°a": 3755,
      "Ġmennta": 3756,
      "gjar": 3757,
      "Ġerlendum": 3758,
      "bÃ½li": 3759,
      "Ġtr": 3760,
      "ĠaugljÃ³st": 3761,
      "Ġrit": 3762,
      "Ġlandsmanna": 3763,
      "ĠÃ¡ttu": 3764,
      "ĠgÃ³Ã°u": 3765,
      "Ġnefnilega": 3766,
      "Ġstefnt": 3767,
      "ĠnÃ½jum": 3768,
      "ĠVar": 3769,
      "Ġsumir": 3770,
      "ĠgÃ¶m": 3771,
      "ĠviÃ°hor": 3772,
      "ĠEy": 3773,
      "Ġvaldi": 3774,
      "Ġformi": 3775,
      "els": 3776,
      "ĠeinstÃ¶kum": 3777,
      "Ġflutti": 3778,
      "dreg": 3779,
      "Ġvafa": 3780,
      "ĠfjÃ¶lda": 3781,
      "ĠmÃ³tmÃ¦": 3782,
      "ÃŃu": 3783,
      "ĠstÃ³rum": 3784,
      "ĠmÃ¶guleik": 3785,
      "Ġhorf": 3786,
      "Ġmet": 3787,
      "ĠlandsbyggÃ°inni": 3788,
      "ĠumfjÃ¶llun": 3789,
      "Ġfylgjast": 3790,
      "ĠgetiÃ°": 3791,
      "ĠbrÃ¡Ã°abirgÃ°a": 3792,
      "Ã¦ttu": 3793,
      "unda": 3794,
      "ekt": 3795,
      "ĠgrÃ¦n": 3796,
      "ĠviÃ°skn": 3797,
      "ĠbjÃ³Ã°a": 3798,
      "ĠmarkaÃ°i": 3799,
      "tlega": 3800,
      "Ġnemur": 3801,
      "ÃŃfur": 3802,
      "ĠmannrÃ©tt": 3803,
      "Ġkosta": 3804,
      "ĠÃ¡stÃ¦Ã°ur": 3805,
      "ĠÃ¶flu": 3806,
      "Ġhand": 3807,
      "ĠsveitarfÃ©laganna": 3808,
      "starfsemi": 3809,
      "ĠgagnrÃ½ni": 3810,
      "Ã¶ldu": 3811,
      "rit": 3812,
      "ĠframkvÃ¦mdum": 3813,
      "ĠÃ½msir": 3814,
      "ĠorÃ°alag": 3815,
      "Ġminnst": 3816,
      "Ġskylda": 3817,
      "ĠauÃ°": 3818,
      "ddir": 3819,
      "Ġokt": 3820,
      "Ġdug": 3821,
      "Ġvildu": 3822,
      "spyr": 3823,
      "efla": 3824,
      "jÃ¶l": 3825,
      "Ġhefja": 3826,
      "Ã¦Ã°u": 3827,
      "ĠkrÃ³": 3828,
      "ĠÃ¡nÃ¦gju": 3829,
      "afram": 3830,
      "laun": 3831,
      "ĠhljÃ³ta": 3832,
      "vit": 3833,
      "hÃ¶f": 3834,
      "sal": 3835,
      "Ġjafna": 3836,
      "undar": 3837,
      "engja": 3838,
      "Ġlandbr": 3839,
      "sstofnun": 3840,
      "ĠsamgÃ¶ngu": 3841,
      "ĠmÃ¡lin": 3842,
      "ĠsÃ¦m": 3843,
      "ĠSlÃŃk": 3844,
      "ert": 3845,
      "aum": 3846,
      "ĠhjÃº": 3847,
      "Ġrannsa": 3848,
      "ĠJÃ³hann": 3849,
      "ĠslÃ¡": 3850,
      "ĠSuÃ°ur": 3851,
      "arfr": 3852,
      "ĠDan": 3853,
      "alld": 3854,
      "gjalda": 3855,
      "ĠÃ¦tli": 3856,
      "ĠtÃºl": 3857,
      "ĠembÃ¦tti": 3858,
      "ĠÃĨ": 3859,
      "Ġgerum": 3860,
      "berra": 3861,
      "Ġgaf": 3862,
      "kn": 3863,
      "Ġneina": 3864,
      "Ġsex": 3865,
      "Ġbenti": 3866,
      "rei": 3867,
      "ĠhÃ¡a": 3868,
      "ĠrÃŃkisstjÃ³rninni": 3869,
      "nÃ¡m": 3870,
      "Ġopinberra": 3871,
      "ĠspurÃ°i": 3872,
      "Ġmyndi": 3873,
      "ĠstÃ³ru": 3874,
      "Ġstofna": 3875,
      "Ġspurt": 3876,
      "ĠvarÃ°a": 3877,
      "Ġverz": 3878,
      "ĠhÃ¦rra": 3879,
      "ĠverÃ°bÃ³lgu": 3880,
      "ĠlÃ¡gmark": 3881,
      "Ġundanfarin": 3882,
      "Ġeldri": 3883,
      "Ġmargra": 3884,
      "rÃºm": 3885,
      "Ġflokks": 3886,
      "ĠÃ¡kveÃ°num": 3887,
      "Ã³Ã°a": 3888,
      "ĠaÃ°gerÃ°a": 3889,
      "alÃ¶gum": 3890,
      "Ġeinstakra": 3891,
      "ĠnÃ½jar": 3892,
      "ĠÃºtflutnings": 3893,
      "Ġar": 3894,
      "ĠÃ¡hug": 3895,
      "ĠmÃ¶rgu": 3896,
      "ĠtÃ¦kni": 3897,
      "eift": 3898,
      "ĠÃįsaf": 3899,
      "ĠÃ¾rjÃº": 3900,
      "Ġvitna": 3901,
      "ĠPÃ©tur": 3902,
      "ĠgÃŃfur": 3903,
      "ĠkÃ¦m": 3904,
      "Ã°al": 3905,
      "Ġfelur": 3906,
      "ĠfÃ¡tÃ¦k": 3907,
      "Ã¶mm": 3908,
      "Ġteknar": 3909,
      "stefnu": 3910,
      "Ġlandsh": 3911,
      "skÃ½r": 3912,
      "ĠmaÃŃ": 3913,
      "ĠfÃ¦kk": 3914,
      "ĠÃ¶ryggi": 3915,
      "ĠundanÃ¾Ã¡": 3916,
      "samlega": 3917,
      "ĠsamfÃ©laginu": 3918,
      "ĠmÃ¡nuÃ°um": 3919,
      "Ġeign": 3920,
      "Ġsettar": 3921,
      "Ġalmannatrygg": 3922,
      "ĠÃ¾remur": 3923,
      "ĠmilljÃ³nir": 3924,
      "ĠfÃ³ru": 3925,
      "ĠrÃ¦Ã°ustÃ³l": 3926,
      "ĠhÃ©raÃ°": 3927,
      "Ġlist": 3928,
      "felld": 3929,
      "ĠlÃ¦gri": 3930,
      "Ġfylgt": 3931,
      "agna": 3932,
      "lan": 3933,
      "stÃ¦tt": 3934,
      "Ġskuldir": 3935,
      "Ġtryggt": 3936,
      "ĠÃ¦tlast": 3937,
      "ĠmÃ¦lt": 3938,
      "ĠvÃ¶rur": 3939,
      "ĠblaÃ°": 3940,
      "ĠgÃ¡": 3941,
      "Ġneinu": 3942,
      "ĠlÃŃklega": 3943,
      "ĠÃ¡fengis": 3944,
      "Ġsennilega": 3945,
      "ĠnÃ³v": 3946,
      "ĠLandsbank": 3947,
      "Ġendilega": 3948,
      "atriÃ°um": 3949,
      "Ġumtals": 3950,
      "Ġsaf": 3951,
      "skiptum": 3952,
      "amÃ¡la": 3953,
      "smÃ¡la": 3954,
      "ĠBlÃ¶nd": 3955,
      "ema": 3956,
      "Ġsamband": 3957,
      "sauka": 3958,
      "deildar": 3959,
      "ĠnÃ¦rri": 3960,
      "Ġsterk": 3961,
      "einuÃ°u": 3962,
      "Ġbraut": 3963,
      "ĠÃ¾Ã½Ã°ingar": 3964,
      "ĠsjÃºtvrh": 3965,
      "Ãºst": 3966,
      "og": 3967,
      "Ġnafn": 3968,
      "ĠOr": 3969,
      "âĢľ.": 3970,
      "ĠskerÃ°": 3971,
      "ĠmiÃ°a": 3972,
      "ĠÃ¾ingmanns": 3973,
      "ĠumfjÃ¶llunar": 3974,
      "ĠÃŃslenzk": 3975,
      "Ġvexti": 3976,
      "ĠfjÃ¡": 3977,
      "Ġviku": 3978,
      "hvort": 3979,
      "vist": 3980,
      "orgar": 3981,
      "mikiÃ°": 3982,
      "ĠlÃ¶greglu": 3983,
      "Ġsparis": 3984,
      "eing": 3985,
      "drÃ¡ttar": 3986,
      "ĠÃ¾un": 3987,
      "ĠhÃ¡skÃ³la": 3988,
      "sÃ¡tt": 3989,
      "tekjur": 3990,
      "Ġskylt": 3991,
      "ĠGuÃ°mundsson": 3992,
      "Ġeinni": 3993,
      "Ġtog": 3994,
      "ÃŃma": 3995,
      "Ġtilfellum": 3996,
      "Ġframl": 3997,
      "ĠvÃ¦nta": 3998,
      "ĠsjÃ³Ã°sins": 3999,
      "Ġtvo": 4000,
      "hÃ¡": 4001,
      "Ã¾rÃ³un": 4002,
      "Ġneinum": 4003,
      "brot": 4004,
      "Ġandsvar": 4005,
      "Ġdeila": 4006,
      "vegar": 4007,
      "Ġfat": 4008,
      "ĠfjÃ¶gur": 4009,
      "Ġbla": 4010,
      "Ġeinstakling": 4011,
      "hÃ¦kkun": 4012,
      "sar": 4013,
      "ĠniÃ°urskur": 4014,
      "ĠflÃ³k": 4015,
      "Ġsamstarfi": 4016,
      "ĠiÃ°nrh": 4017,
      "ĠverÃ°trygg": 4018,
      "Ġleggjum": 4019,
      "Ġhaga": 4020,
      "ĠvÃŃÃ°tÃ¦k": 4021,
      "list": 4022,
      "ĠbeiÃ°": 4023,
      "ĠTrygg": 4024,
      "Ġundirstri": 4025,
      "Ġeinasta": 4026,
      "Ġstarfsh": 4027,
      "aÃ°ra": 4028,
      "ĠlÃŃkur": 4029,
      "Ġlokinni": 4030,
      "Ġvitni": 4031,
      "ĠhlutafÃ©lag": 4032,
      "ĠhefÃ°um": 4033,
      "ĠÃ¡form": 4034,
      "Ġbendir": 4035,
      "Ġmesta": 4036,
      "uleg": 4037,
      "Ġbezt": 4038,
      "Ġflestir": 4039,
      "ĠÃ¾jÃ³Ã°ina": 4040,
      "Ã¦Ã°agreiÃ°slu": 4041,
      "gildandi": 4042,
      "ĠalÃ¾m": 4043,
      "Ġtakast": 4044,
      "Ġeindreg": 4045,
      "ĠÃ¾riggja": 4046,
      "Ġvernd": 4047,
      "Ġlitlu": 4048,
      "Ġvetur": 4049,
      "Ġverkum": 4050,
      "rÃŃl": 4051,
      "Ġtap": 4052,
      "ĠÃ¾ekki": 4053,
      "ĠÃ¾rÃ³unar": 4054,
      "ĠVegna": 4055,
      "ĠrÃ¡Ã°ast": 4056,
      "ĠÃ³sam": 4057,
      "greiÃ°slur": 4058,
      "Ġforsendur": 4059,
      "erjar": 4060,
      "ĠorÃ°i": 4061,
      "Ġfebr": 4062,
      "Ġgjaldeyris": 4063,
      "Ġfyrrv": 4064,
      "Ġsept": 4065,
      "ĠVil": 4066,
      "ĠBret": 4067,
      "kjÃ¶r": 4068,
      "Ġfullkomlega": 4069,
      "ĠstÃ³ra": 4070,
      "tÃ¦kja": 4071,
      "Ġsly": 4072,
      "Ġminnsta": 4073,
      "ĠleiÃ°in": 4074,
      "Ġtilvikum": 4075,
      "ĠMÃ¡l": 4076,
      "Ġfresta": 4077,
      "alldÃ³r": 4078,
      "ÃºÃ°": 4079,
      "Ġkostar": 4080,
      "Ġflestum": 4081,
      "Ã³li": 4082,
      "Ġvorum": 4083,
      "nÃ¦Ã°i": 4084,
      "Ġteldi": 4085,
      "Ġallri": 4086,
      "Ġverkefnum": 4087,
      "Ġtilgangi": 4088,
      "eingrÃŃm": 4089,
      "tali": 4090,
      "ĠÃ¦tlaÃ°i": 4091,
      "ĠÃ¡stÃ¦Ã°": 4092,
      "stÃ¶Ã°ur": 4093,
      "ĠÃŀessar": 4094,
      "Ġatvinnuleys": 4095,
      "je": 4096,
      "Ã¶Ã°um": 4097,
      "Ġafkomu": 4098,
      "ĠalÃ¾ing": 4099,
      "ĠÃ¡kveÃ°nar": 4100,
      "Ġskilning": 4101,
      "Ġsumum": 4102,
      "ĠlandbÃºnaÃ°": 4103,
      "ĠslÃ¦m": 4104,
      "ĠafstaÃ°a": 4105,
      "ĠkjÃ¶lfar": 4106,
      "ĠÃ¶ld": 4107,
      "ĠJÃº": 4108,
      "ĠÃ¡greiningur": 4109,
      "sr": 4110,
      "atkv": 4111,
      "ĠÃ¡kveÃ°inn": 4112,
      "skr": 4113,
      "Ġfyrirhug": 4114,
      "Ġsenda": 4115,
      "virk": 4116,
      "marka": 4117,
      "eigandi": 4118,
      "ĠgreiÃ°slur": 4119,
      "Ġheimila": 4120,
      "ĠsÃ³k": 4121,
      "ĠvÃ¶x": 4122,
      "ĠerfiÃ°leik": 4123,
      "ĠNorÃ°": 4124,
      "ĠmikilvÃ¦": 4125,
      "Ã°uÃ°": 4126,
      "elag": 4127,
      "ĠfalliÃ°": 4128,
      "Ġgreinilega": 4129,
      "Ġvant": 4130,
      "Ġtalsvert": 4131,
      "ĠkvÃ³ta": 4132,
      "Ġstarfsf": 4133,
      "Ġhvergi": 4134,
      "ĠvirÃ°isauka": 4135,
      "ĠummÃ¦li": 4136,
      "ĠfullnÃ¦": 4137,
      "tÃŃÃ°ar": 4138,
      "Ã¡h": 4139,
      "ĠrÃ¡Ã°iÃ°": 4140,
      "Ġrekja": 4141,
      "ĠstjÃ³rnmÃ¡laflokk": 4142,
      "ĠjÃº": 4143,
      "TA": 4144,
      "Ġ21": 4145,
      "ĠsÃ¶luskatt": 4146,
      "Ã¾Ã¡tt": 4147,
      "Ãģ": 4148,
      "Ġtreysti": 4149,
      "Ġfylgi": 4150,
      "Ġforsendum": 4151,
      "sg": 4152,
      "ĠtjÃ¡": 4153,
      "ĠsveitarstjÃ³rnar": 4154,
      "Ġtreysta": 4155,
      "nin": 4156,
      "ĠsamrÃ¡Ã°i": 4157,
      "aÃ°gerÃ°": 4158,
      "ĠfjÃ¡rauk": 4159,
      "ĠleiÃ°andi": 4160,
      "ĠsjÃºkrahÃºs": 4161,
      "Ġhlutaf": 4162,
      "ĠumferÃ°": 4163,
      "rÃ¦n": 4164,
      "ĠsnÃ½st": 4165,
      "stÃ¶rf": 4166,
      "ĠnefndarÃ¡lit": 4167,
      "Ġkanna": 4168,
      "slunar": 4169,
      "Ġvalda": 4170,
      "Ġvegi": 4171,
      "ĠmjÃ³lkur": 4172,
      "Ġap": 4173,
      "ĠaÃ°gerÃ°um": 4174,
      "framleiÃ°slu": 4175,
      "Ġmarga": 4176,
      "ĠvaldiÃ°": 4177,
      "FTA": 4178,
      "amÃ¶nnum": 4179,
      "Ġhreyf": 4180,
      "ĠskilaÃ°": 4181,
      "ĠstÃ³rkost": 4182,
      "ĠaÃ°ili": 4183,
      "Ġgefin": 4184,
      "ĠlÃ¡num": 4185,
      "Ġ24": 4186,
      "Ġlangan": 4187,
      "ĠtÃ¶luvert": 4188,
      "Ġ300": 4189,
      "lÃ¦g": 4190,
      "Ġeinstaklingar": 4191,
      "Ġfarin": 4192,
      "ĠÃ¡byrgÃ°ar": 4193,
      "ĠlÃ¡nsfjÃ¡r": 4194,
      "Ġengum": 4195,
      "ĠdÃ³mi": 4196,
      "ĠfaliÃ°": 4197,
      "Ġheimili": 4198,
      "ĠÃ¾ekkingu": 4199,
      "ĠjÃ¶rÃ°": 4200,
      "ĠnÃºgildandi": 4201,
      "ĠlÃŃfeyris": 4202,
      "ep": 4203,
      "ĠmÃ³ts": 4204,
      "glega": 4205,
      "ĠGr": 4206,
      "Ġhagsmuni": 4207,
      "skaplega": 4208,
      "Ġtonn": 4209,
      "lug": 4210,
      "ĠSigurÃ°": 4211,
      "lÃ¡na": 4212,
      "ĠdÃ³msmrh": 4213,
      "ĠslÃŃkri": 4214,
      "ĠÃŃÃ¾rÃ³": 4215,
      "Ġsvari": 4216,
      "Ġgildir": 4217,
      "ĠÃ¡kveÃ°na": 4218,
      "setning": 4219,
      "jÃ¶f": 4220,
      "Ġjafnt": 4221,
      "ĠyfirlÃ½singu": 4222,
      "ĠEFTA": 4223,
      "Ġtalin": 4224,
      "Ġkunna": 4225,
      "ĠgerÃ°ur": 4226,
      "Ġhra": 4227,
      "ĠstÃ³riÃ°": 4228,
      "ddi": 4229,
      "ĠrÃŃkisfjÃ¡r": 4230,
      "Ġhlutans": 4231,
      "ĠeÃ°lis": 4232,
      "Ġallur": 4233,
      "Ġtilh": 4234,
      "ttast": 4235,
      "ĠnÃ½skÃ¶p": 4236,
      "Ġefast": 4237,
      "kenn": 4238,
      "ĠHvers": 4239,
      "hliÃ°a": 4240,
      "Ġ22": 4241,
      "ĠumrÃ¦Ã°una": 4242,
      "Ġskera": 4243,
      "sdÃ³ttur": 4244,
      "mat": 4245,
      "aÃ°an": 4246,
      "ĠstÃ¶ndum": 4247,
      "Ġsamningar": 4248,
      "Ġallsherjar": 4249,
      "Ġrif": 4250,
      "ĠÃ¡lyktun": 4251,
      "Ġlandss": 4252,
      "Ġaldur": 4253,
      "Ġeignir": 4254,
      "Ġspurningum": 4255,
      "ĠAllt": 4256,
      "ĠhjÃºkr": 4257,
      "Ġleyft": 4258,
      "ĠÃ¾ingsal": 4259,
      "ĠÃ¾vert": 4260,
      "slag": 4261,
      "ĠFramkvÃ¦md": 4262,
      "ĠrÃ¡Ã°herrann": 4263,
      "ĠJÃ¡": 4264,
      "ĠannaÃ°hvort": 4265,
      "esk": 4266,
      "fjarÃ°ar": 4267,
      "Ġsvig": 4268,
      "ĠsÃ¶kum": 4269,
      "Ġnefni": 4270,
      "ĠslÃŃkra": 4271,
      "skipta": 4272,
      "stir": 4273,
      "ĠleiÃ°rÃ©tt": 4274,
      "ĠkÃ¦r": 4275,
      "Ġvinnslu": 4276,
      "Ġskattlag": 4277,
      "ĠrÃŃkinu": 4278,
      "Ġnotkun": 4279,
      "Ã³ma": 4280,
      "yrkja": 4281,
      "ĠSÃ¡": 4282,
      "ĠJafnframt": 4283,
      "ĠlÃ¶nd": 4284,
      "ĠlÃº": 4285,
      "esi": 4286,
      "Ġskv": 4287,
      "ĠfrÃº": 4288,
      "ĠgÃ¶gn": 4289,
      "Ġneinar": 4290,
      "ĠbyggÃ°a": 4291,
      "ĠvirÃ°ast": 4292,
      "Ġsamnings": 4293,
      "stum": 4294,
      "Ġbyggingu": 4295,
      "ĠÃ¾urfti": 4296,
      "ĠeyÃ°a": 4297,
      "ĠlÃ½Ã°rÃ¦Ã°is": 4298,
      "Ġauki": 4299,
      "ĠgjÃ¶r": 4300,
      "Ġhaldi": 4301,
      "Ġ:": 4302,
      "ĠrÃ¡Ã°stÃ¶fun": 4303,
      "ĠjÃºn": 4304,
      "ĠskipuÃ°": 4305,
      "Ġtegund": 4306,
      "skipun": 4307,
      "ed": 4308,
      "janna": 4309,
      "ĠdagskrÃ¡r": 4310,
      "Ġumsagnar": 4311,
      "ĠafleiÃ°ingar": 4312,
      "nusta": 4313,
      "Ã¡na": 4314,
      "ĠHer": 4315,
      "allaÃ°i": 4316,
      "Ġtalar": 4317,
      "ĠlÃ¡nt": 4318,
      "run": 4319,
      "aley": 4320,
      "ĠhljÃ³ti": 4321,
      "ĠfrÃ¦Ã°slu": 4322,
      "Ġstigi": 4323,
      "heimildir": 4324,
      "Ġafh": 4325,
      "Ġkenna": 4326,
      "Ġvaf": 4327,
      "Ġhinir": 4328,
      "Ġbaki": 4329,
      "ali": 4330,
      "Ġalmennum": 4331,
      "arfÃ©lÃ¶g": 4332,
      "ĠStjÃ³rnar": 4333,
      "ĠdÃ¦mis": 4334,
      "stÃ¦Ã°um": 4335,
      "ĠrÃ¡Ã°i": 4336,
      "ĠniÃ°urstaÃ°an": 4337,
      "ĠstjÃ³rnsÃ½slu": 4338,
      "ilegum": 4339,
      "fÃ©": 4340,
      "kostnaÃ°ur": 4341,
      "stÃ¦Ã°an": 4342,
      "mannaey": 4343,
      "mÃ¦l": 4344,
      "ĠsamgÃ¶ngum": 4345,
      "ĠviÃ°miÃ°": 4346,
      "Ã¦tur": 4347,
      "jaf": 4348,
      "ĠfrÃ³Ã°": 4349,
      "ĠÃŃtrek": 4350,
      "ĠVestmannaey": 4351,
      "Ġtekna": 4352,
      "ĠÃ¾Ã©tt": 4353,
      "vin": 4354,
      "Ġrafmagn": 4355,
      "Ġdaginn": 4356,
      "stein": 4357,
      "ĠEvrÃ³pusambandiÃ°": 4358,
      "ĠÃ³vart": 4359,
      "ĠaÃ°ildar": 4360,
      "Ġspor": 4361,
      "Ġ70": 4362,
      "ĠbÃºnir": 4363,
      "ĠÃ¾ekkja": 4364,
      "efniÃ°": 4365,
      "ĠfullyrÃ°a": 4366,
      "eign": 4367,
      "ĠalÃ¾jÃ³Ã°a": 4368,
      "ĠgerÃ°ist": 4369,
      "ĠvikiÃ°": 4370,
      "uneytiÃ°": 4371,
      "ĠfrestaÃ°": 4372,
      "ĠSameinuÃ°u": 4373,
      "ĠbÃ½r": 4374,
      "ĠaprÃŃl": 4375,
      "Ġkem": 4376,
      "mÃ¡": 4377,
      "unefnd": 4378,
      "ugÃ¦": 4379,
      "Ã¶kk": 4380,
      "Ġ23": 4381,
      "huga": 4382,
      "Ġ0": 4383,
      "Ġhelstu": 4384,
      "Ġkennslu": 4385,
      "Ġmist": 4386,
      "ĠskeiÃ°": 4387,
      "Ã¦ttir": 4388,
      "Ġaths": 4389,
      "Ã¾Ã¶rf": 4390,
      "Ã¡Ã°herra": 4391,
      "ĠÃºtil": 4392,
      "ĠÃ¾Ã¡ttur": 4393,
      "Ġhlutverki": 4394,
      "vÃ¶rum": 4395,
      "nes": 4396,
      "Ã¶fnun": 4397,
      "ĠÃºtt": 4398,
      "Ġhinar": 4399,
      "ennd": 4400,
      "ĠbÃ³t": 4401,
      "farandi": 4402,
      "ĠsamgÃ¶ngur": 4403,
      "Ġspara": 4404,
      "eyriss": 4405,
      "Ġeinhverjir": 4406,
      "sverÃ°": 4407,
      "ĠsjÃ¡i": 4408,
      "ĠveiÃ°a": 4409,
      "ĠUnd": 4410,
      "Ġ500": 4411,
      "ĠÃ³g": 4412,
      "ĠframboÃ°": 4413,
      "Ã¶flun": 4414,
      "shaf": 4415,
      "Ã¡byrgÃ°": 4416,
      "Ã°ust": 4417,
      "ĠathugaÃ°": 4418,
      "ĠjanÃºar": 4419,
      "Ġdeildar": 4420,
      "ĠÃ¡Ã¦tlanir": 4421,
      "Ġframhaldi": 4422,
      "ĠtÃŃmabund": 4423,
      "Ġreikna": 4424,
      "Ġlandbrh": 4425,
      "verÃ°i": 4426,
      "Ġverka": 4427,
      "ĠskoÃ°aÃ°": 4428,
      "ĠmilljÃ¶rÃ°um": 4429,
      "Ġseint": 4430,
      "Ġlyk": 4431,
      "engd": 4432,
      "kostnaÃ°i": 4433,
      "ĠvÃ¶rum": 4434,
      "ĠreiknaÃ°": 4435,
      "ĠHalldÃ³r": 4436,
      "ĠorÃ°inn": 4437,
      "kerfisins": 4438,
      "Ġatvinnuleysi": 4439,
      "gaÃ°": 4440,
      "ĠkjÃ³sa": 4441,
      "Ġaukin": 4442,
      "ĠskÃ¶mm": 4443,
      "Ġskipan": 4444,
      "helgis": 4445,
      "ilegra": 4446,
      "ĠfrumvÃ¶rp": 4447,
      "ĠÃ³skÃ¶p": 4448,
      "ĠmÃ¶rk": 4449,
      "ĠÃŃtarlega": 4450,
      "valdiÃ°": 4451,
      "bar": 4452,
      "ĠfjÃ¡rlagafrumvarp": 4453,
      "ĠBjÃ¶rn": 4454,
      "ĠgarÃ°": 4455,
      "Ġneit": 4456,
      "Ġafgreitt": 4457,
      "ĠbrÃº": 4458,
      "jÃ¶rÃ°": 4459,
      "oka": 4460,
      "Ġla": 4461,
      "ĠbeÃ°iÃ°": 4462,
      "Ġvinstri": 4463,
      "fara": 4464,
      "ĠSem": 4465,
      "Ġbyrjun": 4466,
      "ĠsamstaÃ°a": 4467,
      "veiÃ°ar": 4468,
      "Ġbrug": 4469,
      "ĠheiÃ°": 4470,
      "ĠÃ¡reiÃ°": 4471,
      "amaÃ°ur": 4472,
      "ĠfrÃŃ": 4473,
      "Ġskulu": 4474,
      "ĠsjÃ¡lfs": 4475,
      "ĠjÃºnÃŃ": 4476,
      "ĠfjÃ¡rmuni": 4477,
      "Ġbreytinga": 4478,
      "ĠhÃ¡Ã°": 4479,
      "Ġramma": 4480,
      "ĠeÃ°lilega": 4481,
      "ĠHefur": 4482,
      "ĠÃ¾jÃ³Ã°anna": 4483,
      "ĠRÃŃkisendurskoÃ°": 4484,
      "ĠrÃ¶kst": 4485,
      "Ã¶rygg": 4486,
      "Ġskilyr": 4487,
      "ĠhljÃ³Ã°": 4488,
      "ĠLÃ¶g": 4489,
      "Ã¶Ã°u": 4490,
      "Ġ80": 4491,
      "Ġvonandi": 4492,
      "Ġlitla": 4493,
      "ĠSteingrÃŃm": 4494,
      "unandi": 4495,
      "ĠlagÃ°ur": 4496,
      "ĠÃ¾jÃ³Ã°aratkv": 4497,
      "Ġfal": 4498,
      "Ġaukist": 4499,
      "ĠeyÃ°": 4500,
      "ĠsjÃ¶": 4501,
      "ĠhefÃ°": 4502,
      "Ġnokkurt": 4503,
      "ĠaÃ°stoÃ°ar": 4504,
      "ĠutanrÃŃkisrÃ¡Ã°herra": 4505,
      "ĠlÃ©t": 4506,
      "ĠÃ¦ttum": 4507,
      "Ġafnema": 4508,
      "Ġkunni": 4509,
      "ĠlegiÃ°": 4510,
      "ĠSuÃ°url": 4511,
      "ĠSvÃŃ": 4512,
      "ĠfrjÃ¡ls": 4513,
      "eppa": 4514,
      "Ġfengi": 4515,
      "skatti": 4516,
      "Ġskilst": 4517,
      "Ġkosninga": 4518,
      "ĠsjÃºtvn": 4519,
      "alaga": 4520,
      "ĠbÃ¦tur": 4521,
      "ĠtÃŃmabil": 4522,
      "Ġspil": 4523,
      "ĠmÃ¦l": 4524,
      "ĠFlm": 4525,
      "Ġsamgr": 4526,
      "ĠbÃ¶n": 4527,
      "ĠgerÃ°ir": 4528,
      "kka": 4529,
      "lÃŃf": 4530,
      "ĠtÃŃmum": 4531,
      "ĠveiÃ°ar": 4532,
      "ĠtÃ³ku": 4533,
      "bak": 4534,
      "Ġopinberum": 4535,
      "ĠvÃŃsind": 4536,
      "ĠrÃ©ttur": 4537,
      "ĠtÃ³": 4538,
      "200": 4539,
      "ĠÃ¡runum": 4540,
      "Ġumhverfi": 4541,
      "ĠMÃ¡": 4542,
      "ĠMiÃ°": 4543,
      "leit": 4544,
      "ĠhÃ¦f": 4545,
      "ĠÃ¡standiÃ°": 4546,
      "gan": 4547,
      "ĠEvrÃ³pusambandsins": 4548,
      "Ġannast": 4549,
      "Ġsitur": 4550,
      "ĠrÃ¦kt": 4551,
      "eigu": 4552,
      "ĠsjÃ³menn": 4553,
      "ĠnÃ¡nari": 4554,
      "ĠKefla": 4555,
      "hugs": 4556,
      "eÃ°ferÃ°": 4557,
      "Ġsinnum": 4558,
      "Ġstrand": 4559,
      "ĠlÃŃÃ°ur": 4560,
      "Ġvest": 4561,
      "Ġsend": 4562,
      "ĠvÃŃsitÃ¶lu": 4563,
      "ĠC": 4564,
      "ĠheilsugÃ¦": 4565,
      "ĠhraÃ°": 4566,
      "nuÃ°i": 4567,
      "Ã³Ã°ir": 4568,
      "sley": 4569,
      "Ġstofnunum": 4570,
      "ĠnÃ½tingu": 4571,
      "Ġjafnan": 4572,
      "atriÃ°iÃ°": 4573,
      "Ġveldur": 4574,
      "ĠbÃºast": 4575,
      "ĠÃ³viss": 4576,
      "jÃ³Ã°i": 4577,
      "ĠÃ³dÃ½r": 4578,
      "mÃ¶rku": 4579,
      "gast": 4580,
      "Ġeinstaka": 4581,
      "ĠnÃ½lega": 4582,
      "sember": 4583,
      "ĠhÃ¡mark": 4584,
      "ĠHvaÃ°a": 4585,
      "ĠsÃŃzt": 4586,
      "ĠbrÃ½nt": 4587,
      "ĠstjÃ³rnarinnar": 4588,
      "ĠhÃ¡ttaÃ°": 4589,
      "ĠleiÃ°r": 4590,
      "ĠstjÃ³rnarandstÃ¶Ã°u": 4591,
      "vÃŃsit": 4592,
      "hÃ³p": 4593,
      "ĠEitt": 4594,
      "ĠauglÃ½s": 4595,
      "ĠundanfÃ¶rnu": 4596,
      "Ġ28": 4597,
      "Ġ26": 4598,
      "ski": 4599,
      "lÃ¶gin": 4600,
      "Ġeinkav": 4601,
      "sÃ½n": 4602,
      "ĠhÃ¶fuÃ°borgarsvÃ¦Ã°inu": 4603,
      "Ġhinni": 4604,
      "ĠfatlaÃ°": 4605,
      "Ġauknum": 4606,
      "Ġmikils": 4607,
      "rÃ©ttis": 4608,
      "fellt": 4609,
      "ĠstjÃ³rnarliÃ°": 4610,
      "Ġveig": 4611,
      "ĠrÃ½": 4612,
      "skost": 4613,
      "ĠlÃŃkt": 4614,
      "Ġgamla": 4615,
      "ĠrÃŃkisb": 4616,
      "Ġvissu": 4617,
      "ĠframfÃ¦ri": 4618,
      "ĠfÃ©laga": 4619,
      "ĠumferÃ°ar": 4620,
      "leiÃ°a": 4621,
      "ĠHag": 4622,
      "Ġvextir": 4623,
      "Ġster": 4624,
      "Ġmikilli": 4625,
      "Ġdesember": 4626,
      "ĠaÃ°hald": 4627,
      "ĠlÃ¶gfrÃ¦Ã°": 4628,
      "Ġeinkenn": 4629,
      "Ġsendi": 4630,
      "Ġhrun": 4631,
      "ĠnÃ½rra": 4632,
      "ĠtÃŃmabili": 4633,
      "ĠÃ¾ingskÃ¶p": 4634,
      "âĢľ,": 4635,
      "skor": 4636,
      "Ġumhv": 4637,
      "ĠundirbÃºa": 4638,
      "Ġtillag": 4639,
      "full": 4640,
      "ager": 4641,
      "Ġbrott": 4642,
      "va": 4643,
      "Ġsamningi": 4644,
      "ĠverÃ°lags": 4645,
      "ĠsÃŃm": 4646,
      "ÃŃÃ°a": 4647,
      "ĠgÃ¦tt": 4648,
      "Ġupphaf": 4649,
      "ĠMagnÃºs": 4650,
      "legir": 4651,
      "ĠverkalÃ½Ã°shreyf": 4652,
      "arÃ©tt": 4653,
      "ĠalÃ¾": 4654,
      "ĠtÃŃu": 4655,
      "reglur": 4656,
      "Ġvelja": 4657,
      "Ġhlusta": 4658,
      "ĠmÃ¶gulegt": 4659,
      "ĠAnnaÃ°": 4660,
      "bn": 4661,
      "ĠÃ¡stÃ¦Ã°an": 4662,
      "rÃ¡tt": 4663,
      "ĠbÃ¦j": 4664,
      "eyta": 4665,
      "lukk": 4666,
      "ĠÃ¦tlunin": 4667,
      "Ġfundum": 4668,
      "ferÃ°i": 4669,
      "Ġnemendur": 4670,
      "ningin": 4671,
      "ĠÃ¡Ã¦tlaÃ°": 4672,
      "ĠHÃ¡skÃ³la": 4673,
      "ĠlandbÃºnaÃ°arins": 4674,
      "ĠÃ¾jÃ³Ã°arbÃº": 4675,
      "ĠÃ¾ekkjum": 4676,
      "sÃ¶k": 4677,
      "Ġendurtaka": 4678,
      "ĠnÃ¡ms": 4679,
      "Ġkennara": 4680,
      "ĠsÃ¶muleiÃ°is": 4681,
      "ĠauÃ°velt": 4682,
      "ĠgeÃ°": 4683,
      "ĠvirÃ°isaukaskatt": 4684,
      "ĠmatvÃ¦": 4685,
      "Ġgjalda": 4686,
      "ĠsnÃ½r": 4687,
      "Ġskyldur": 4688,
      "breytingu": 4689,
      "ĠÃŀessu": 4690,
      "Ġmenntun": 4691,
      "Ġmars": 4692,
      "ĠsjÃ¡varÃºtvegi": 4693,
      "Ġfjmrn": 4694,
      "ofnanir": 4695,
      "ĠstjÃ³rnarskrÃ¡nni": 4696,
      "aÃ°arins": 4697,
      "ĠSjÃ¡lfstÃ¦Ã°isflokksins": 4698,
      "Ġmeng": 4699,
      "gildi": 4700,
      "ĠsvokÃ¶llu": 4701,
      "ĠrÃŃkja": 4702,
      "Ġheilsu": 4703,
      "Ġfullt": 4704,
      "Ġalmanna": 4705,
      "Ġminntist": 4706,
      "vÃŃkjandi": 4707,
      "vÃ¦gi": 4708,
      "tlant": 4709,
      "ĠtvÃ¶f": 4710,
      "ĠmÃ¡lefn": 4711,
      "ĠhÃ¡r": 4712,
      "ĠarÃ°": 4713,
      "ĠflÃ½": 4714,
      "Ġsent": 4715,
      "ĠÃ¾jÃ³nust": 4716,
      "ĠMorgun": 4717,
      "ĠSum": 4718,
      "ĠyfirlÃ½singar": 4719,
      "Ġkynni": 4720,
      "smann": 4721,
      "ddu": 4722,
      "ĠHafnar": 4723,
      "Ġalvarlega": 4724,
      "ĠMik": 4725,
      "agnar": 4726,
      "astofnunar": 4727,
      "astjÃ³ra": 4728,
      "sbandalag": 4729,
      "bÃ¦rt": 4730,
      "Ġfallist": 4731,
      "ĠnotuÃ°": 4732,
      "ĠgreiÃ°i": 4733,
      "Ġfly": 4734,
      "Ġ27": 4735,
      "Ġheiminum": 4736,
      "gengi": 4737,
      "ĠFj": 4738,
      "Ġannarri": 4739,
      "ĠfÃ¦Ã°ingar": 4740,
      "ĠbÃºum": 4741,
      "Ġathyglisvert": 4742,
      "ĠÃ¾yrf": 4743,
      "amann": 4744,
      "ĠÃ¾Ã¡gu": 4745,
      "Ġprest": 4746,
      "ĠBlÃ¶ndal": 4747,
      "Ġrifja": 4748,
      "ĠstofnaÃ°": 4749,
      "ĠÃ¡rlega": 4750,
      "Ġafgreidd": 4751,
      "ĠverÃ°mÃ¦ti": 4752,
      "ĠsveitarfÃ©lÃ¶gum": 4753,
      "hÃ¡tt": 4754,
      "ĠsÃŃns": 4755,
      "Ã¡hrif": 4756,
      "ĠÃ¾jÃ³Ã°a": 4757,
      "Ġvafi": 4758,
      "ĠGÃŃ": 4759,
      "Ġfjhn": 4760,
      "ĠhrÃ¦": 4761,
      "Ġfengju": 4762,
      "St": 4763,
      "ĠÃ½msa": 4764,
      "ĠviÃ°skrh": 4765,
      "Ġundar": 4766,
      "Ġfry": 4767,
      "Ġkomnir": 4768,
      "Ġefnislega": 4769,
      "ĠÃ³viÃ°": 4770,
      "fangs": 4771,
      "Ġverkefna": 4772,
      "ĠmikilvÃ¦gi": 4773,
      "Ġnm": 4774,
      "reglu": 4775,
      "Ġtef": 4776,
      "ĠMorgunblaÃ°": 4777,
      "ĠNorÃ°ur": 4778,
      "Ġrenna": 4779,
      "ĠfjÃ¡rlaganefnd": 4780,
      "Ġvert": 4781,
      "ĠhliÃ°ar": 4782,
      "ĠgrÃ¦": 4783,
      "Ġforustu": 4784,
      "Ġafskaplega": 4785,
      "Ġundirstrika": 4786,
      "ĠlÃ¡t": 4787,
      "ĠviÃ°horf": 4788,
      "ĠGÃŃsla": 4789,
      "ĠNoregi": 4790,
      "undum": 4791,
      "ĠsÃ©rstÃ¶kum": 4792,
      "Ġfje": 4793,
      "aldur": 4794,
      "ĠÃ¾Ã¡tttÃ¶ku": 4795,
      "kar": 4796,
      "ĠfjÃ¡rveitingar": 4797,
      "Ġfinn": 4798,
      "ĠlÃŃtur": 4799,
      "Ġeftirfarandi": 4800,
      "ĠsetiÃ°": 4801,
      "Ġtug": 4802,
      "bÃ³tum": 4803,
      "Ġkaf": 4804,
      "ĠSamfylkingarinnar": 4805,
      "ĠrÃºmlega": 4806,
      "brÃ©fa": 4807,
      "ĠEru": 4808,
      "tÃ¦kjum": 4809,
      "ĠreiÃ°u": 4810,
      "Ġteljast": 4811,
      "ĠskÃ½ringar": 4812,
      "ĠHelga": 4813,
      "Ġendurtek": 4814,
      "Ġgekk": 4815,
      "ĠhliÃ°sjÃ³n": 4816,
      "ĠkjÃ¶rdÃ¦mi": 4817,
      "Ġbankanna": 4818,
      "Ġspurningin": 4819,
      "fell": 4820,
      "Ġflokki": 4821,
      "10": 4822,
      "ĠdÃ³mstÃ³l": 4823,
      "ĠÃŃbÃºÃ°ar": 4824,
      "Ã³lki": 4825,
      "Ġhreinlega": 4826,
      "Ġsanngjar": 4827,
      "Ã¶gnum": 4828,
      "gangi": 4829,
      "uleika": 4830,
      "Ġvonir": 4831,
      "jarÃ°a": 4832,
      "ĠgÃ³Ã°um": 4833,
      "semdir": 4834,
      "ĠniÃ°urstÃ¶Ã°ur": 4835,
      "not": 4836,
      "ĠÃ¡fengi": 4837,
      "ĠÃºtsvar": 4838,
      "Ġseinna": 4839,
      "Ġverkamanna": 4840,
      "Ġkeypt": 4841,
      "ĠÃ¾ver": 4842,
      "ĠstrÃŃ": 4843,
      "ĠÃ¾Ã½Ã°ingu": 4844,
      "ekjur": 4845,
      "ĠÃ¶f": 4846,
      "ĠNorÃ°urland": 4847,
      "ĠloÃ°": 4848,
      "ĠÃ¡greining": 4849,
      "Ġski": 4850,
      "otiÃ°": 4851,
      "ĠsÃ½slum": 4852,
      "Ġsamtals": 4853,
      "ĠsannfÃ¦rÃ°ur": 4854,
      "Ġundantek": 4855,
      "ndur": 4856,
      "ĠRÃŃkisÃºtvarpiÃ°": 4857,
      "ĠÃ¡lver": 4858,
      "Ġrannsaka": 4859,
      "boÃ°i": 4860,
      "gin": 4861,
      "sstjÃ³rnin": 4862,
      "vÃ¶ll": 4863,
      "ĠÃºrrÃ¦Ã°i": 4864,
      "ĠÃ¡hersla": 4865,
      "Ġskynsamlegt": 4866,
      "Ġtogara": 4867,
      "rÃ¦Ã°u": 4868,
      "tingar": 4869,
      "ĠbeiÃ°ni": 4870,
      "Ġsjeu": 4871,
      "ustum": 4872,
      "Ġgegna": 4873,
      "Ã¦Ã°in": 4874,
      "Ġklukk": 4875,
      "ĠviÃ°rÃ¦Ã°ur": 4876,
      "ĠBen": 4877,
      "val": 4878,
      "Ġfjarri": 4879,
      "Ġstofnunarinnar": 4880,
      "Ã³ber": 4881,
      "ĠbÃ¡Ã°um": 4882,
      "ĠgÃ³Ã°ar": 4883,
      "ĠsÃ©rstÃ¶ku": 4884,
      "etur": 4885,
      "ĠnÃ½jan": 4886,
      "ĠhÃ³pi": 4887,
      "ĠJa": 4888,
      "ĠfrÃ³Ã°legt": 4889,
      "ĠrÃ¶kum": 4890,
      "Ġbirtist": 4891,
      "ĠfjÃ¶ldi": 4892,
      "ĠÃŃbÃºa": 4893,
      "ĠbrjÃ³ta": 4894,
      "ĠlÃ¦r": 4895,
      "ĠÃ³ttast": 4896,
      "Ġefnahagsl": 4897,
      "afjÃ¡r": 4898,
      "Ġskipum": 4899,
      "ĠgripiÃ°": 4900,
      "ĠES": 4901,
      "ĠleiÃ°rÃ©tta": 4902,
      "sjÃ¡": 4903,
      "aÃ°ilar": 4904,
      "ĠÃ³t": 4905,
      "gleika": 4906,
      "ĠalÃ¾ingis": 4907,
      "Ġtekinn": 4908,
      "jÃ¶fnunar": 4909,
      "Ġham": 4910,
      "Ġflokkur": 4911,
      "ĠutanrÃŃkismÃ¡l": 4912,
      "Ġmisskilningur": 4913,
      "ĠÃ½missa": 4914,
      "ĠhÃ¶fÃ°": 4915,
      "Ġtogar": 4916,
      "ĠnefndarÃ¡liti": 4917,
      "ĠlÃ½tur": 4918,
      "Ġris": 4919,
      "ĠstuÃ°ningi": 4920,
      "ĠSkag": 4921,
      "ĠÃĵlafur": 4922,
      "ĠLandspÃŃtal": 4923,
      "ĠtjÃ³n": 4924,
      "amiÃ°": 4925,
      "ĠendurskoÃ°unar": 4926,
      "Ġverki": 4927,
      "ĠgÃ¦tum": 4928,
      "arfram": 4929,
      "ĠOrku": 4930,
      "Ġseinni": 4931,
      "ĠsvigrÃºm": 4932,
      "Ġopna": 4933,
      "lla": 4934,
      "Ġlandbn": 4935,
      "ĠÃ³trÃº": 4936,
      "Ġ35": 4937,
      "ikt": 4938,
      "ĠFÃ©lag": 4939,
      "Ġfengu": 4940,
      "ĠviÃ°skipti": 4941,
      "ĠskjÃ³ta": 4942,
      "ĠfÃ¶rum": 4943,
      "rÃ¦Ã°a": 4944,
      "ĠheilbrigÃ°isker": 4945,
      "ĠkÃ¦mu": 4946,
      "umvarp": 4947,
      "ĠsjÃ³narmiÃ°i": 4948,
      "Ġfyllilega": 4949,
      "breyting": 4950,
      "ĠnauÃ°synleg": 4951,
      "Ġleggi": 4952,
      "gÃ¶ngu": 4953,
      "ĠjÃ¡ta": 4954,
      "ĠNiÃ°ur": 4955,
      "snefndar": 4956,
      "Ġhelming": 4957,
      "lita": 4958,
      "ĠjÃ¶f": 4959,
      "ĠframfÃ¦rslu": 4960,
      "Ġheitir": 4961,
      "ilegu": 4962,
      "ĠnorÃ°ur": 4963,
      "ĠkrÃ³na": 4964,
      "Ġminnka": 4965,
      "hagsm": 4966,
      "Ġfiskiskip": 4967,
      "Ã³pa": 4968,
      "ĠÃ³hjÃ¡kvÃ¦milegt": 4969,
      "ĠmÃ¡lefnum": 4970,
      "bandi": 4971,
      "ĠeindregiÃ°": 4972,
      "grund": 4973,
      "sak": 4974,
      "ĠvÃ¶ldum": 4975,
      "framkvÃ¦md": 4976,
      "ĠLÃ¡": 4977,
      "ĠbÃºset": 4978,
      "Ġvelti": 4979,
      "ĠstjÃ³rnskip": 4980,
      "Ġlaunum": 4981,
      "Ġbesta": 4982,
      "verkefni": 4983,
      "ĠfjÃ¡rlaganefndar": 4984,
      "ĠkosiÃ°": 4985,
      "ĠlÃ¦kkaÃ°": 4986,
      "ĠstarfaÃ°": 4987,
      "otn": 4988,
      "ĠÃ¾o": 4989,
      "jal": 4990,
      "lagi": 4991,
      "Ġleyf": 4992,
      "Ġella": 4993,
      "ĠsvipaÃ°": 4994,
      "Ġfyrirh": 4995,
      "rÃ©ttar": 4996,
      "ilt": 4997,
      "ilegur": 4998,
      "ĠÃ¡hÃ¦ttu": 4999,
      "Ġskrifa": 5000,
      "Ġbyggist": 5001,
      "Ġefnahagssv": 5002,
      "Ġheimilis": 5003,
      "Ġseld": 5004,
      "ĠÃ¡tak": 5005,
      "Ġtryggingar": 5006,
      "ĠendurnÃ½": 5007,
      "koma": 5008,
      "ĠhÃ¶r": 5009,
      "ĠfÃ¡st": 5010,
      "Ġstarfandi": 5011,
      "ĠsvÃ¦Ã°um": 5012,
      "ĠsjÃ¡varÃºtvegsins": 5013,
      "aÃ°ist": 5014,
      "ĠfrumkvÃ¦Ã°i": 5015,
      "jafn": 5016,
      "aut": 5017,
      "ÃŃl": 5018,
      "ĠKristjÃ¡nsson": 5019,
      "ĠfjÃ¡rmÃ¡last": 5020,
      "ĠbrÃ©fi": 5021,
      "Ġfrelsi": 5022,
      "Ġverulegu": 5023,
      "gef": 5024,
      "Ġkjarn": 5025,
      "sambands": 5026,
      "Ġhlutir": 5027,
      "ĠupplÃ½sa": 5028,
      "Ġtilfelli": 5029,
      "ĠVestfjÃ¶rÃ°um": 5030,
      "Ġeigna": 5031,
      "starÃ©ttar": 5032,
      "mÃº": 5033,
      "Ġspari": 5034,
      "ĠatvinnumÃ¡l": 5035,
      "Ġburt": 5036,
      "ĠrÃ©ttlÃ¦ti": 5037,
      "ĠÃŀÃ³tt": 5038,
      "Ġfellur": 5039,
      "ĠrÃ¦kilega": 5040,
      "Ġhorft": 5041,
      "ĠVerÃ°": 5042,
      "byrÃ°i": 5043,
      "Ġ191": 5044,
      "ĠbÃ½sna": 5045,
      "uneytinu": 5046,
      "ofnana": 5047,
      "Ġhalla": 5048,
      "edikt": 5049,
      "andinn": 5050,
      "insson": 5051,
      "ĠfundiÃ°": 5052,
      "eÃ°i": 5053,
      "199": 5054,
      "ĠglÃ¶g": 5055,
      "30": 5056,
      "ĠMeiri": 5057,
      "Ġupphaflega": 5058,
      "Ġvinnur": 5059,
      "skÃ³lans": 5060,
      "ĠsÃ½n": 5061,
      "Ġinnanlands": 5062,
      "ĠlÃ©tt": 5063,
      "ĠskÃ½rsla": 5064,
      "Ġalmenningur": 5065,
      "Ġsamningur": 5066,
      "prÃ³": 5067,
      "ettur": 5068,
      "ĠreiÃ°ubÃº": 5069,
      "Ġnaf": 5070,
      "orlof": 5071,
      "du": 5072,
      "sfyrir": 5073,
      "ĠKv": 5074,
      "gunar": 5075,
      "ĠEvrÃ³pusambandinu": 5076,
      "Ġfellt": 5077,
      "ĠRÃŃkisÃºtvarpsins": 5078,
      "sÃ¶l": 5079,
      "ĠNÃ½": 5080,
      "Ġsamgrh": 5081,
      "Ã°arinnar": 5082,
      "ĠÃ¾orsk": 5083,
      "ĠfljÃ³tt": 5084,
      "Ã¡mi": 5085,
      "ĠsÃ¡r": 5086,
      "ĠkveÃ°a": 5087,
      "ĠrÃ¦ddi": 5088,
      "Ġgildist": 5089,
      "Ãºd": 5090,
      "Ġbls": 5091,
      "ĠÃºtgÃ¡": 5092,
      "ĠframhaldsskÃ³l": 5093,
      "ĠrÃ©tti": 5094,
      "ĠviÃ°urkenn": 5095,
      "pn": 5096,
      "ĠkerfiÃ°": 5097,
      "Ġtekjustof": 5098,
      "ĠharÃ°": 5099,
      "mÃ¡tt": 5100,
      "ĠefnahagsmÃ¡lum": 5101,
      "ĠvÃŃÃ°ar": 5102,
      "Ġfasteign": 5103,
      "skyldu": 5104,
      "Ġsameiginlega": 5105,
      "bÃ³k": 5106,
      "legrar": 5107,
      "ĠviÃ°sta": 5108,
      "Ġhind": 5109,
      "smÃ¡larÃ¡Ã°herra": 5110,
      "ĠbÃ¡t": 5111,
      "arÃ¡Ã°s": 5112,
      "Ġfulla": 5113,
      "Ã½ri": 5114,
      "ĠlÃŃklegt": 5115,
      "Ġmuna": 5116,
      "ĠFyrst": 5117,
      "Ġerindi": 5118,
      "ĠsÃ©rstakar": 5119,
      "ĠSigurÃ°sson": 5120,
      "ĠSiglu": 5121,
      "uleik": 5122,
      "vax": 5123,
      "ĠtakmÃ¶rk": 5124,
      "ĠlesiÃ°": 5125,
      "ĠFriÃ°": 5126,
      "gert": 5127,
      "Ġeinfalt": 5128,
      "Ġprent": 5129,
      "Ġvandi": 5130,
      "fors": 5131,
      "Ġlanda": 5132,
      "Ġhugsun": 5133,
      "ĠskÃ½rslur": 5134,
      "Ġalmennu": 5135,
      "Ġkol": 5136,
      "Ġmunur": 5137,
      "ĠÃ¡reiÃ°anlega": 5138,
      "ĠtrÃºi": 5139,
      "ĠskaÃ°a": 5140,
      "ĠfulltrÃºi": 5141,
      "Ġframan": 5142,
      "Ġforgangsr": 5143,
      "tlantshaf": 5144,
      "),": 5145,
      "ĠstÃ³riÃ°ju": 5146,
      "ĠBjarnason": 5147,
      "ĠÃºtl": 5148,
      "ĠmÃ¡naÃ°": 5149,
      "ĠkjÃ¶rtÃŃmabili": 5150,
      "ĠseÃ°la": 5151,
      "hÃ¦kkanir": 5152,
      "ĠheyrÃ°i": 5153,
      "staklega": 5154,
      "uneytisins": 5155,
      "Ġ31": 5156,
      "Ġborin": 5157,
      "ĠÃ¡gÃ¦ta": 5158,
      "ĠsjÃ¡lfstÃ¦Ã°ismenn": 5159,
      "Ġtakmarka": 5160,
      "ĠlÃºta": 5161,
      "ugjald": 5162,
      "ĠlÃ¦kna": 5163,
      "gangur": 5164,
      "ningum": 5165,
      "nanna": 5166,
      "ĠnotiÃ°": 5167,
      "katt": 5168,
      "skipt": 5169,
      "ĠReykj": 5170,
      "Ġaukna": 5171,
      "Ġlos": 5172,
      "ĠboÃ°iÃ°": 5173,
      "ĠfjÃ¶lga": 5174,
      "ĠfulltrÃºum": 5175,
      "ĠÃºttekt": 5176,
      "Ġleidd": 5177,
      "Ġlengja": 5178,
      "Ġnokkurra": 5179,
      "ĠkrÃ³nu": 5180,
      "svÃ¶r": 5181,
      "Ġgreinum": 5182,
      "Ġumfang": 5183,
      "Ġlandsmenn": 5184,
      "ĠverÃ°mÃ¦": 5185,
      "Ġhverja": 5186,
      "sÃ¡": 5187,
      "girni": 5188,
      "estu": 5189,
      "ĠstaÃ°an": 5190,
      "Ġstaf": 5191,
      "ĠviÃ°fangs": 5192,
      "ĠtÃ¶lum": 5193,
      "Ã°un": 5194,
      "kostnaÃ°ar": 5195,
      "jÃ³ti": 5196,
      "ĠBenedikt": 5197,
      "Ġvikum": 5198,
      "Ġofb": 5199,
      "ĠÃ¦tlu": 5200,
      "ĠvÃ©l": 5201,
      "pi": 5202,
      "ĠÃºtgjalda": 5203,
      "Ġminnir": 5204,
      "Ġkomst": 5205,
      "Ġbinda": 5206,
      "Ġtilfinn": 5207,
      "Ġreynslan": 5208,
      ".?": 5209,
      "arÃ°ar": 5210,
      "AT": 5211,
      "flug": 5212,
      "Ġsettur": 5213,
      "ĠbÃ¶rnum": 5214,
      "Ġsinnt": 5215,
      "ĠjafnaÃ°ar": 5216,
      "Ġneyslu": 5217,
      "ĠstarfsfÃ³lk": 5218,
      "ĠTrygging": 5219,
      "slÃ¡tt": 5220,
      "Ġumsagnir": 5221,
      "ĠtÃ¦plega": 5222,
      "ĠskaÃ°": 5223,
      "ĠmikilvÃ¦ga": 5224,
      "ĠstÃ¦Ã°i": 5225,
      "Ġ400": 5226,
      "ĠundirbÃºningi": 5227,
      "ĠsÃ³": 5228,
      "Ġsetti": 5229,
      "ĠDanmÃ¶rku": 5230,
      "istrygg": 5231,
      "enta": 5232,
      "ĠhljÃ³Ã°ar": 5233,
      "oÃ°uÃ°": 5234,
      "ĠmikilvÃ¦gu": 5235,
      "ĠvÃ¶ld": 5236,
      "undir": 5237,
      "fisk": 5238,
      "ĠAÃ°al": 5239,
      "ĠUndir": 5240,
      "janda": 5241,
      "Ġkapp": 5242,
      "ĠbrÃ¡Ã°": 5243,
      "hafa": 5244,
      "ĠfjÃ¶lmiÃ°lum": 5245,
      "stra": 5246,
      "Ġfullv": 5247,
      "Ġbyggir": 5248,
      "Ġuppfyl": 5249,
      "junum": 5250,
      "steinn": 5251,
      "ĠsparisjÃ³Ã°": 5252,
      "Ã¦kt": 5253,
      "ĠfjÃ¶lskyldu": 5254,
      "ĠÃ¶rugglega": 5255,
      "ĠLandsvirkjun": 5256,
      "ĠÃ³mÃ¶g": 5257,
      "ĠvÃ¦rum": 5258,
      "ĠatvinnulÃŃfsins": 5259,
      "ĠhjÃºkrunar": 5260,
      "eignar": 5261,
      "ĠÃ³sann": 5262,
      "Ã°in": 5263,
      "Ġneita": 5264,
      "smark": 5265,
      "ĠmargvÃŃs": 5266,
      "fyrirtÃ¦ki": 5267,
      "ĠoktÃ³ber": 5268,
      "ĠframsÃ³knarmenn": 5269,
      "ĠgÃ¶mlu": 5270,
      "ĠÃ¾iÃ°": 5271,
      "Ġhlutur": 5272,
      "ĠÃ¡lits": 5273,
      "Ġhlaup": 5274,
      "ĠfÃ¶stu": 5275,
      "ĠÃ¾ingheim": 5276,
      "ĠfjÃ¡rmagni": 5277,
      "ĠâĢĵ": 5278,
      "Ġfyrrverandi": 5279,
      "ĠrannsÃ³kna": 5280,
      "staf": 5281,
      "ĠkrÃ¶fum": 5282,
      "Ġforeldra": 5283,
      "ĠÃ¾rÃŃr": 5284,
      "Ġberjast": 5285,
      "ĠstuÃ°nings": 5286,
      "jist": 5287,
      "ĠhÃ³pur": 5288,
      "Ġleyst": 5289,
      "ĠheilbrigÃ°isst": 5290,
      "ĠÃ¾Ã¡ttum": 5291,
      "ĠsamstÃ¶Ã°u": 5292,
      "Ġathugasemdum": 5293,
      "Ġvafalaust": 5294,
      "Ġsvokall": 5295,
      "ĠskerÃ°a": 5296,
      "ĠstjÃ³rnarflokkanna": 5297,
      "Ġforustum": 5298,
      "Ġmarka": 5299,
      "ĠvirÃ°ulegur": 5300,
      "ĠÃºtgjÃ¶ldum": 5301,
      "Ġhverfa": 5302,
      "ĠaldraÃ°ra": 5303,
      "Ġlif": 5304,
      "Ġkomandi": 5305,
      "ĠEvrÃ³pubandalag": 5306,
      "ĠlÃŃÃ°a": 5307,
      "Ġdes": 5308,
      "Ġerlendra": 5309,
      "ĠbÃ¡ta": 5310,
      "falli": 5311,
      "ĠnÃ¦gja": 5312,
      "ĠsveitarstjÃ³r": 5313,
      "Ġkrafa": 5314,
      "alaus": 5315,
      "Ġkomnar": 5316,
      "sjÃºk": 5317,
      "ĠlÃ¦tur": 5318,
      "ĠhljÃ³tum": 5319,
      "Ġalmenningi": 5320,
      "ĠMjer": 5321,
      "ĠvinnumarkaÃ°i": 5322,
      "ĠandvÃŃ": 5323,
      "Ã¶ndunum": 5324,
      "ĠÃ¡gÃ¦tt": 5325,
      "Ġbind": 5326,
      "ĠsÃ©rfrÃ¦Ã°inga": 5327,
      "Ġskattur": 5328,
      "ninga": 5329,
      "ĠjÃºlÃŃ": 5330,
      "ĠviÃ°urkennt": 5331,
      "ilegri": 5332,
      "Ġmarki": 5333,
      "ĠsjÃºkdÃ³m": 5334,
      "Ãºsson": 5335,
      "standandi": 5336,
      "bÃºÃ°ar": 5337,
      "safn": 5338,
      "Ġkleift": 5339,
      "ĠlÃ¦gra": 5340,
      "Ġsetur": 5341,
      "ĠmÃŃnar": 5342,
      "ĠbundiÃ°": 5343,
      "ĠspÃ¡": 5344,
      "ĠÃ¶Ã°": 5345,
      "Ġ90": 5346,
      "alda": 5347,
      "ĠÃ¡framhald": 5348,
      "yrÃ°a": 5349,
      "Ã¡lum": 5350,
      "ĠpÃ³st": 5351,
      "Ã³f": 5352,
      "........": 5353,
      "ĠvirÃ°ingu": 5354,
      "vÃ¶x": 5355,
      "Ġflokkar": 5356,
      "Ġskilningi": 5357,
      "ĠhefÃ°bund": 5358,
      "ĠloforÃ°": 5359,
      "Ġvirkjun": 5360,
      "ĠgÃ³Ã°ur": 5361,
      "Ġeigu": 5362,
      "ĠhÃºsnÃ¦Ã°ismÃ¡l": 5363,
      "Ġbendi": 5364,
      "ĠsamfÃ©lagi": 5365,
      "Ġferli": 5366,
      "Ġ\"": 5367,
      "stÃ¦Ã°u": 5368,
      "ĠmarkmiÃ°i": 5369,
      "ĠmÃ¦lir": 5370,
      "ĠSeÃ°labankans": 5371,
      "Ã°ing": 5372,
      "Ġgleym": 5373,
      "ĠRÃ¡Ã°": 5374,
      "ĠframhaldsskÃ³la": 5375,
      "Ġaugu": 5376,
      "ĠstÃ¦rÃ°": 5377,
      "ĠÃ¾yn": 5378,
      "Ġblasir": 5379,
      "ĠstÃ¦rstu": 5380,
      "Ġveitir": 5381,
      "Ġyfirstandandi": 5382,
      "ĠMaÃ°ur": 5383,
      "ĠmÃ¡lsm": 5384,
      "Ġdegi": 5385,
      "Ġhlutum": 5386,
      "ĠfÃ©lmn": 5387,
      "oti": 5388,
      "ĠrÃŃkir": 5389,
      "ĠÃ¾ingmaÃ°urinn": 5390,
      "Ġunnin": 5391,
      "Ġspr": 5392,
      "nasjÃ³Ã°": 5393,
      "ĠvitnaÃ°": 5394,
      "heil": 5395,
      "ĠTel": 5396,
      "ĠÃ³hÃ¡Ã°": 5397,
      "syn": 5398,
      "oft": 5399,
      "lÃ¦ti": 5400,
      "ĠfyrirtÃ¦kiÃ°": 5401,
      "Ġaukast": 5402,
      "Ġdre": 5403,
      "ĠÃ³vissu": 5404,
      "ugt": 5405,
      "ĠskrifaÃ°": 5406,
      "Ġlista": 5407,
      "ĠstjÃ³rnarskrÃ¡rinnar": 5408,
      "alist": 5409,
      "skeiÃ°": 5410,
      "gjaldiÃ°": 5411,
      "jÃ³st": 5412,
      "Ġneytenda": 5413,
      "ĠSuÃ°urnes": 5414,
      "ĠmÃ¡tti": 5415,
      "ĠlÃ¡ti": 5416,
      "Ġ29": 5417,
      "Ġdrei": 5418,
      "ĠneÃ°": 5419,
      "inst": 5420,
      "ĠsÃ³knar": 5421,
      "ĠstÃºd": 5422,
      "ĠReykjan": 5423,
      "sÃ¶gu": 5424,
      "da": 5425,
      "Ġlagasetningu": 5426,
      "Ġkomizt": 5427,
      "ĠfjÃ¡rmunum": 5428,
      "ĠnauÃ°synlegar": 5429,
      "Ġkallar": 5430,
      "skum": 5431,
      "ĠskÃ½rslunni": 5432,
      "ĠhÃºsal": 5433,
      "Ġsettir": 5434,
      "ĠrÃ¶kstu": 5435,
      "ĠmarkmiÃ°um": 5436,
      "ĠÃŀrÃ¡tt": 5437,
      "Ġlifa": 5438,
      "ĠrÃ¡Ã°uneytiÃ°": 5439,
      "Ġdags": 5440,
      "ĠhjÃ¡lpa": 5441,
      "leyfi": 5442,
      "ĠstÃ¦kk": 5443,
      "ĠdÃ½rtÃŃÃ°ar": 5444,
      "brÃ¶gÃ°um": 5445,
      "ĠÃ¡bur": 5446,
      "Ġreisa": 5447,
      "ĠÃŃtrekaÃ°": 5448,
      "Ġtvennt": 5449,
      "virkjunar": 5450,
      "Ġtun": 5451,
      "Ã³a": 5452,
      "Ġsakir": 5453,
      "ĠByggÃ°ast": 5454,
      "ĠbÃ¡Ã°ir": 5455,
      "Ġvirtist": 5456,
      "rik": 5457,
      "ĠfrÃ¦Ã°": 5458,
      "tryggingar": 5459,
      "Ġskapast": 5460,
      "ĠstÃ¶Ã°va": 5461,
      "Ġsek": 5462,
      "ĠVerk": 5463,
      "ĠjafnrÃ©ttis": 5464,
      "ĠfjÃ¶lmÃ¶r": 5465,
      "estir": 5466,
      "ĠbÃ¦tist": 5467,
      "mur": 5468,
      "Ġlyfja": 5469,
      "Ġskemmt": 5470,
      "rÃŃkj": 5471,
      "vex": 5472,
      "Ġfang": 5473,
      "Ġtengjast": 5474,
      "mÃ¡li": 5475,
      "ĠrÃ¡Ã°uneytisins": 5476,
      "ĠGunnarsson": 5477,
      "Ġumtalsefni": 5478,
      "Ġhverjar": 5479,
      "ĠBorgar": 5480,
      "ĠbÃ¦ri": 5481,
      "ĠlÃ¶gfest": 5482,
      "ĠdrÃ¡tt": 5483,
      "Ġmissir": 5484,
      "ĠstÃ¦rsta": 5485,
      "ĠgjaldÃ¾r": 5486,
      "ĠSkip": 5487,
      "Ġkvik": 5488,
      "Ġalvarlegt": 5489,
      "afÃ³lks": 5490,
      "egin": 5491,
      "agt": 5492,
      "ĠtÃ³m": 5493,
      "dum": 5494,
      "skÃ³lann": 5495,
      "Ġveruleg": 5496,
      "ĠnÃ¡grann": 5497,
      "fÃ©laga": 5498,
      "Ġendanlega": 5499,
      "astjÃ³ri": 5500,
      "Ġnefndir": 5501,
      "ĠtÃ¶ldu": 5502,
      "ĠhÃ¦kki": 5503,
      "agnÃ½": 5504,
      "ĠbrÃ½n": 5505,
      "Ġlanga": 5506,
      "Ġkeyr": 5507,
      "Ġvekur": 5508,
      "ĠlaunÃ¾ega": 5509,
      "ĠfjÃ¡rmÃ¡larÃ¡Ã°": 5510,
      "Ġinnheimtu": 5511,
      "ĠKeflavÃŃkur": 5512,
      "mÃ¡lin": 5513,
      "Ġneikv": 5514,
      "Ġskuldbindingar": 5515,
      "Ġdeilt": 5516,
      "Ġhreint": 5517,
      "ĠfullnÃ¦gjandi": 5518,
      "ĠglÃŃ": 5519,
      "Ġfyrirkomulagi": 5520,
      "ĠmÃ³tmÃ¦la": 5521,
      "Ġfelast": 5522,
      "ĠalvÃ¶ru": 5523,
      "ĠlÃŃtill": 5524,
      "pÃ³litÃŃ": 5525,
      "Ġnokkurs": 5526,
      "Ġgrun": 5527,
      "Ġbreyst": 5528,
      "Ã³Ã°um": 5529,
      "ĠstarfshÃ³p": 5530,
      "ĠÃºtilok": 5531,
      "ĠstjÃ³rnarandstÃ¶Ã°unnar": 5532,
      "ĠHÃºs": 5533,
      "Ġvei": 5534,
      "ĠJÃ³na": 5535,
      "Ã¶gg": 5536,
      "sstofnunar": 5537,
      "ĠlÃ¦kni": 5538,
      "vatn": 5539,
      "Ã¶ttum": 5540,
      "hÃºsa": 5541,
      "leif": 5542,
      "ĠtÃ³n": 5543,
      "ĠÃģriÃ°": 5544,
      "Ã¡Ã¦tlunar": 5545,
      "ĠtÃ³kst": 5546,
      "II": 5547,
      "essor": 5548,
      "alÃ¦k": 5549,
      "ĠlÃ½Ã°rÃ¦Ã°i": 5550,
      "Ġsami": 5551,
      "ĠĠĠĠ": 5552,
      "Ġrekstr": 5553,
      "ĠÃ¾aÃ°an": 5554,
      "ĠstÃ¶Ã°ugt": 5555,
      "Ġtex": 5556,
      "Ġtolla": 5557,
      "Ġseptember": 5558,
      "Ġskora": 5559,
      "ĠfÃ³lksins": 5560,
      "skt": 5561,
      "ĠFrÃ¡": 5562,
      "Ġkomum": 5563,
      "ĠbÃ¦ndum": 5564,
      "ĠviÃ°kvÃ¦m": 5565,
      "Ġrafor": 5566,
      "dm": 5567,
      "ĠÃįslen": 5568,
      "ĠstÃŃga": 5569,
      "Ġselt": 5570,
      "ĠhraÃ°a": 5571,
      "unk": 5572,
      "ĠÃ¡rsl": 5573,
      "Ġformann": 5574,
      "ĠstÃ³Ã°u": 5575,
      "Ġhvetja": 5576,
      "ĠÃ¶ryrkja": 5577,
      "ĠOkk": 5578,
      "ĠStjÃ³rn": 5579,
      "Ġsinnar": 5580,
      "ĠvÃ¶xtum": 5581,
      "Ġrn": 5582,
      "ĠÃ¡gÃºst": 5583,
      "ĠfjÃ³rum": 5584,
      "ĠÃ¡hrifum": 5585,
      "Ġheimilanna": 5586,
      "ĠrÃŃkisvaldiÃ°": 5587,
      "ĠtÃ¦kifÃ¦r": 5588,
      "Ġkemst": 5589,
      "enju": 5590,
      "ĠEig": 5591,
      "Ġhita": 5592,
      "ĠÃ³fr": 5593,
      "rÃ¦Ã°is": 5594,
      "gjafar": 5595,
      "Ã¶gnun": 5596,
      "Ġtiln": 5597,
      "Ġerlenda": 5598,
      "ĠÃ¡ratugum": 5599,
      "ĠiÃ°naÃ°": 5600,
      "ĠAllir": 5601,
      "Ġgleyma": 5602,
      "ĠvÃ¡": 5603,
      "mikil": 5604,
      "nan": 5605,
      "legg": 5606,
      "tanefnd": 5607,
      "ĠsauÃ°": 5608,
      "tillÃ¶gur": 5609,
      "ĠjÃ³l": 5610,
      "ĠstjÃ³rna": 5611,
      "ĠbÃºnaÃ°ar": 5612,
      "ve": 5613,
      "ĠhlÃŃ": 5614,
      "ĠÃ³hag": 5615,
      "Ġheit": 5616,
      "Ã¦rri": 5617,
      "Ġhagsmunum": 5618,
      "vegi": 5619,
      "ĠSigf": 5620,
      "Ġfasteigna": 5621,
      "Ã¡s": 5622,
      "mÃ¡liÃ°": 5623,
      "Ġsu": 5624,
      "ĠmistÃ¶k": 5625,
      "ĠstarfsmÃ¶nnum": 5626,
      "Ġkerfinu": 5627,
      "Ġfyrirmynd": 5628,
      "Ġsamstarfs": 5629,
      "asjÃ³Ã°": 5630,
      "Ġfyrirvar": 5631,
      "ĠHermann": 5632,
      "ĠÃ³Ã¡n": 5633,
      "ĠerfiÃ°leikum": 5634,
      "Ġslit": 5635,
      "ph": 5636,
      "ennara": 5637,
      "ĠhjÃ³": 5638,
      "Ġvist": 5639,
      "stefn": 5640,
      "byggingar": 5641,
      "ĠfebrÃºar": 5642,
      "ĠhrÃ¡": 5643,
      "janlegt": 5644,
      "ĠframkvÃ¦mdarvald": 5645,
      "ĠEÃ°a": 5646,
      "hverfi": 5647,
      "Ġfyrirspyr": 5648,
      "ĠsjÃ³narmiÃ°um": 5649,
      "tekjum": 5650,
      "jÃ¶": 5651,
      "alegt": 5652,
      "alÃ¶gin": 5653,
      "ĠlÃŃfskjÃ¶r": 5654,
      "Ã¦Ã°ingu": 5655,
      "ĠtÃ³bak": 5656,
      "ĠÃįslendingum": 5657,
      "ĠknÃ½": 5658,
      "ĠnÃ¡Ã°st": 5659,
      "ĠsÃ¶gÃ°u": 5660,
      "vÃ¶rur": 5661,
      "eigendur": 5662,
      "emma": 5663,
      "ĠrakiÃ°": 5664,
      "Ġtengist": 5665,
      "ĠÃ¾ung": 5666,
      "Ġbyrj": 5667,
      "ĠStefÃ¡nsson": 5668,
      "ĠSÃ©r": 5669,
      "ĠÃ³skir": 5670,
      "veitu": 5671,
      "setningar": 5672,
      "Ġvott": 5673,
      "ĠvÃ©k": 5674,
      "Ġkirkj": 5675,
      "Ġmenntmn": 5676,
      "Ġreynsla": 5677,
      "ĠnÃ½rri": 5678,
      "12": 5679,
      "hjÃ¡l": 5680,
      "ĠviÃ°skiptum": 5681,
      "ĠÃ¡herzlu": 5682,
      "ĠÃģrn": 5683,
      "ĠhjÃ¡lp": 5684,
      "ĠviÃ°brÃ¶gÃ°": 5685,
      "Ġflytur": 5686,
      "Ġborist": 5687,
      "ĠvinnumarkaÃ°arins": 5688,
      "ĠY": 5689,
      "ĠSo": 5690,
      "Ġgjaldeyri": 5691,
      "ĠSigurÃ°ar": 5692,
      "isku": 5693,
      "ĠkommÃº": 5694,
      "ĠnÃ³vember": 5695,
      "ĠgÃ³Ã°s": 5696,
      "ĠÃ³k": 5697,
      "ĠBandarÃŃkjunum": 5698,
      "ĠÃ¡Ã¦t": 5699,
      "Ġbotn": 5700,
      "Ġfjh": 5701,
      "ĠKaup": 5702,
      "ĠkjÃ¶t": 5703,
      "ĠfÃ¦Ã°ingarorlof": 5704,
      "ĠEnda": 5705,
      "Ġeignarhald": 5706,
      "Ġheimildar": 5707,
      "ĠdÃ¦ma": 5708,
      "ĠaflaÃ°": 5709,
      "ĠsÃŃfellt": 5710,
      "helgi": 5711,
      "bÃ¡ta": 5712,
      "Ġhelzt": 5713,
      "eyp": 5714,
      "ĠHvar": 5715,
      "ĠAtlantshaf": 5716,
      "ĠmÃ¶guleikar": 5717,
      "arinnar": 5718,
      "ĠkjÃ¶rtÃŃmabil": 5719,
      "ĠhÃ©ld": 5720,
      "Ġfengist": 5721,
      "arÃ°a": 5722,
      "ĠfjÃ¡rln": 5723,
      "annsÃ³knast": 5724,
      "ĠĠĠ": 5725,
      "Ġtvenn": 5726,
      "ĠbÃŃl": 5727,
      "ĠMÃ¡liÃ°": 5728,
      "Ã¡stand": 5729,
      "stan": 5730,
      "byr": 5731,
      "Ġsamskipti": 5732,
      "junnar": 5733,
      "Ġatvik": 5734,
      "ĠhagrÃ¦Ã°": 5735,
      "Ġheg": 5736,
      "Ġvikur": 5737,
      "Ġmarkv": 5738,
      "Ġskilningur": 5739,
      "ĠÃĵlafsson": 5740,
      "ĠAtvinnu": 5741,
      "ĠÃ³ljÃ³": 5742,
      "Ġfrumvarps": 5743,
      "ekju": 5744,
      "ĠjafnvÃ¦gi": 5745,
      "Ġverkfall": 5746,
      "bb": 5747,
      "ĠviÃ°skiptanefnd": 5748,
      "kunum": 5749,
      "yggju": 5750,
      "ĠatvinnulÃŃfinu": 5751,
      "ĠkjÃ¶rum": 5752,
      "ĠÃŃhald": 5753,
      "fariÃ°": 5754,
      "lÃ¶gur": 5755,
      "aÃ°st": 5756,
      "Ġvirkilega": 5757,
      "ĠÃ¡gÃ¦tu": 5758,
      "ĠGuÃ°mundur": 5759,
      "Ġvaraf": 5760,
      "ĠÃ¾rÃ³ast": 5761,
      "ĠfurÃ°u": 5762,
      "Ġformanns": 5763,
      "fÃ³lk": 5764,
      "ĠÃ³n": 5765,
      "Ġne": 5766,
      "ĠÃ¶rorku": 5767,
      "Ġsundur": 5768,
      "ĠÃįbÃº": 5769,
      "Ġatbur": 5770,
      "aleiÃ°": 5771,
      "Ġork": 5772,
      "Ġveigamik": 5773,
      "ĠhagnÃ½": 5774,
      "ĠatvinnulÃŃfiÃ°": 5775,
      "ĠstefnumÃ³t": 5776,
      "jÃ³Ã°ur": 5777,
      "ĠlÃ¶ggjaf": 5778,
      "Ġbanna": 5779,
      "ĠheilbrigÃ°isÃ¾jÃ³nustu": 5780,
      "Ġstein": 5781,
      "ĠBorg": 5782,
      "Ġsat": 5783,
      "ĠFramsÃ³knarflokksins": 5784,
      "Ġ45": 5785,
      "Ã³lar": 5786,
      "ĠsvaraÃ°i": 5787,
      "Ġvonast": 5788,
      "Ġ2009": 5789,
      "tegund": 5790,
      "ĠÃ¦tlazt": 5791,
      "ĠstrÃŃÃ°": 5792,
      "Ġ75": 5793,
      "ĠNorÃ°menn": 5794,
      "Ġbrbl": 5795,
      "Ġtilvi": 5796,
      "virki": 5797,
      "stigi": 5798,
      "jendur": 5799,
      "kjum": 5800,
      "arÃ°i": 5801,
      "ĠÃ¡bend": 5802,
      "ĠbÃºsetu": 5803,
      "Ġalmennar": 5804,
      "for": 5805,
      "Ġhratt": 5806,
      "ĠumrÃ¦Ã°an": 5807,
      "ĠmÃ¡lflutningi": 5808,
      "Ġreynst": 5809,
      "ÃŃnu": 5810,
      "Ġvissum": 5811,
      "Ġstuttu": 5812,
      "hrepp": 5813,
      "Ġnokkrir": 5814,
      "ĠÃ¾jÃ³Ã°fÃ©lagi": 5815,
      "stofnunar": 5816,
      "allt": 5817,
      "smik": 5818,
      "ĠnÃ¡lÃ¦gt": 5819,
      "ĠÃģstÃ¦Ã°an": 5820,
      "ĠhÃ¡l": 5821,
      "brau": 5822,
      "ĠfÃ³": 5823,
      "ĠIÃ°": 5824,
      "Ġvirkjunar": 5825,
      "ĠsÃ½slu": 5826,
      "ĠÃ³hÃ¦tt": 5827,
      "strar": 5828,
      "ĠlÃ½si": 5829,
      "ĠESB": 5830,
      "anlegar": 5831,
      "ĠkaupmÃ¡tt": 5832,
      "ĠÃ¾ykist": 5833,
      "Ġlax": 5834,
      "ĠfjÃ³rÃ°a": 5835,
      "Ã°iÃ°": 5836,
      "ĠsjÃ³Ã°i": 5837,
      "Ġfinst": 5838,
      "ĠandstÃ¶Ã°u": 5839,
      "Ġly": 5840,
      "ĠBer": 5841,
      "anki": 5842,
      "Ã¾ekk": 5843,
      "frsm": 5844,
      "Ġsameiningu": 5845,
      "ĠrÃ¡Ã°stÃ¶funar": 5846,
      "ĠNÃ¡ttÃº": 5847,
      "rÃ¦na": 5848,
      "ĠÃ³hepp": 5849,
      "veru": 5850,
      "Ġnefndina": 5851,
      "geir": 5852,
      "ĠbarÃ¡ttu": 5853,
      "Ġsanngirni": 5854,
      "Ã¶nnunar": 5855,
      "samninga": 5856,
      "ĠframleiÃ°a": 5857,
      "gra": 5858,
      "verÃ°iÃ°": 5859,
      "ĠsÃ©rstakan": 5860,
      "Ġgaman": 5861,
      "ĠstjÃ³rninni": 5862,
      "ĠneyÃ°ar": 5863,
      "Ġbankans": 5864,
      "ĠsvariÃ°": 5865,
      "Ã¡Ã°i": 5866,
      "stÃ¦Ã°ar": 5867,
      "ĠgerÃ°um": 5868,
      "Ġaukinn": 5869,
      "Ġkrefjast": 5870,
      "Ġ2000": 5871,
      "ĠBÃºnaÃ°ar": 5872,
      "Ġvakti": 5873,
      "Ġgengisl": 5874,
      "Ġbit": 5875,
      "ĠsjÃ¡lfa": 5876,
      "ĠleiÃ°ar": 5877,
      "ormaÃ°ur": 5878,
      "ĠfjÃ¶lmar": 5879,
      "ĠtÃ¶lv": 5880,
      "Ġmargf": 5881,
      "Ġeinstaklingum": 5882,
      "ĠÃŃslenskt": 5883,
      "ĠfiskveiÃ°a": 5884,
      "Ġloftslag": 5885,
      "ĠviÃ°unandi": 5886,
      "Ġforsvar": 5887,
      "ĠupphÃ¦Ã°ir": 5888,
      "Ġheita": 5889,
      "opp": 5890,
      "ĠviÃ°rÃ¦Ã°um": 5891,
      "Ġregla": 5892,
      "Ġundarlegt": 5893,
      "braut": 5894,
      "drag": 5895,
      "ĠfyrirtÃ¦kisins": 5896,
      "ĠsamhliÃ°a": 5897,
      "Ġ150": 5898,
      "ĠÃ¡bendingar": 5899,
      "ĠhundruÃ°": 5900,
      "orn": 5901,
      "ĠÃ¾jÃ³Ã°hag": 5902,
      "eggja": 5903,
      "rÃ©ttindi": 5904,
      "ĠfyrirtÃ¦kin": 5905,
      "Ġskrifstof": 5906,
      "arfsemi": 5907,
      "ĠÃ¾rjÃ¡r": 5908,
      "ĠfjÃ¶lyrÃ°a": 5909,
      "ell": 5910,
      "ĠgrundvÃ¶llur": 5911,
      "ch": 5912,
      "ĠliÃ°i": 5913,
      "heiÃ°": 5914,
      "ĠBir": 5915,
      "Ġlas": 5916,
      "Ġhagsmunir": 5917,
      "fÃ¶ll": 5918,
      "ĠÃºtreikning": 5919,
      "ĠHÃ¡tt": 5920,
      "Ġsameina": 5921,
      "ĠsÃ©rkenn": 5922,
      "ĠlandlÃ¦k": 5923,
      "Ġkrepp": 5924,
      "ĠÃ¡gÃ¦ti": 5925,
      "fundi": 5926,
      "ilegast": 5927,
      "ĠRagnar": 5928,
      "ĠlÃ¡nveit": 5929,
      "ĠstÃ³rfelld": 5930,
      "Ġformanni": 5931,
      "Ġ[": 5932,
      "uÃ°syn": 5933,
      "elsis": 5934,
      "verÃ°u": 5935,
      "ĠMun": 5936,
      "skipulag": 5937,
      "Ġmerkilegt": 5938,
      "ĠÃºthlutun": 5939,
      "esave": 5940,
      "Ã³lf": 5941,
      "ĠÃ³tvÃŃ": 5942,
      "ĠKr": 5943,
      "ĠnÃ¡lgast": 5944,
      "Ġaur": 5945,
      "ĠfÃ¦rÃ°": 5946,
      "ĠfiskveiÃ°ist": 5947,
      "Ġframfyl": 5948,
      "ĠIcesave": 5949,
      "ĠtÃŃmabÃ¦rt": 5950,
      "hÃ¶fn": 5951,
      "ĠviÃ°vÃŃkjandi": 5952,
      "ĠverÃ°iÃ°": 5953,
      "Ġhagsmun": 5954,
      "40": 5955,
      "Ġhent": 5956,
      "ĠleiÃ°bein": 5957,
      "jÃºp": 5958,
      "ĠHin": 5959,
      "flm": 5960,
      "Ġstofnunar": 5961,
      "ĠÃŃbÃºÃ°ir": 5962,
      "Ġtilgrein": 5963,
      "Ġefn": 5964,
      "Ġlandhelgis": 5965,
      "15": 5966,
      "astjÃ³rn": 5967,
      "Ġgefist": 5968,
      "ĠÃ¾yrftu": 5969,
      "Ġvernda": 5970,
      "ĠfjÃ¡rfestingu": 5971,
      "Ġmegum": 5972,
      "Ġrekin": 5973,
      "Ġinnheimta": 5974,
      "Ã¶ryggi": 5975,
      "Ġfur": 5976,
      "Ġfallizt": 5977,
      "Ġsamningnum": 5978,
      "ĠÃ¡gÃ¦tlega": 5979,
      "ĠjarÃ°ir": 5980,
      "ĠjafnrÃ©tti": 5981,
      "Ġgeym": 5982,
      "Ġnafni": 5983,
      "Ġlandshluta": 5984,
      "meiri": 5985,
      "Ġofur": 5986,
      "ĠveiÃ°ig": 5987,
      "afÃ©lÃ¶g": 5988,
      "raÃ°": 5989,
      "Ġtreyst": 5990,
      "ĠumrÃ¦dd": 5991,
      "ĠskjÃ³": 5992,
      "Ġbestu": 5993,
      "ĠstjÃ³rnsÃ½": 5994,
      "ĠÃ¾ingsÃ¡lyktunartillÃ¶gu": 5995,
      "ĠÃ¶rfÃ¡um": 5996,
      "ĠalÃ¾Ã½Ã°u": 5997,
      "ĠstjÃ³rnarandstaÃ°an": 5998,
      "Ġflokksins": 5999,
      "Ġkerfis": 6000,
      "ĠÃ¦Ã°": 6001,
      "Ã¦ktar": 6002,
      "ĠfrÃ¡l": 6003,
      "Ġskipun": 6004,
      "daginn": 6005,
      "ĠhafiÃ°": 6006,
      "ĠfatlaÃ°ra": 6007,
      "Ã¦f": 6008,
      "ĠlÃ¡gt": 6009,
      "ĠfjÃ¶lmiÃ°la": 6010,
      "yfirlÃ½s": 6011,
      "ĠskilaÃ°i": 6012,
      "Ġfiskvinnslu": 6013,
      "Ġheilbrig": 6014,
      "ĠferÃ°amanna": 6015,
      "ĠbjÃ¶r": 6016,
      "ĠnÃ½mÃ¦li": 6017,
      "ĠÃŀÃ³rÃ°ar": 6018,
      "Ġkjarasamninga": 6019,
      "agrein": 6020,
      "ĠmÃ¡naÃ°a": 6021,
      "flyt": 6022,
      "Ġbez": 6023,
      "siÃ°": 6024,
      "ĠrÃ¶Ã°": 6025,
      "ĠmÃ¡lsmeÃ°ferÃ°": 6026,
      "Ġtefja": 6027,
      "afyrirtÃ¦ki": 6028,
      "Sk": 6029,
      "ĠframsÃ¶gur": 6030,
      "ĠÃ¾Ã©ttbÃ½li": 6031,
      "Ġaukinni": 6032,
      "Ġ600": 6033,
      "Ġleggjast": 6034,
      "ĠliÃ°num": 6035,
      "Ġ2008": 6036,
      "marki": 6037,
      "linu": 6038,
      "Ġgefi": 6039,
      "ĠÃ¡lyk": 6040,
      "ĠsvokallaÃ°": 6041,
      "ĠrÃ¡Ã°uneytinu": 6042,
      "Ġsalt": 6043,
      "hring": 6044,
      "ĠÃŀessir": 6045,
      "ĠÃ¾eg": 6046,
      "rak": 6047,
      "Ġeignarskatt": 6048,
      "ĠundanfariÃ°": 6049,
      "ĠÃ¾Ã¡v": 6050,
      "Ġkeyp": 6051,
      "ĠbÃ³ginn": 6052,
      "ĠÃ¦tt": 6053,
      "slna": 6054,
      "verÃ°s": 6055,
      "vegis": 6056,
      "Ġheilbrrh": 6057,
      "ĠeÃ°lilegum": 6058,
      "ĠEvrÃ³pska": 6059,
      "samstarf": 6060,
      "ĠRÃº": 6061,
      "ĠklÃ¡ra": 6062,
      "ĠFÃ¦r": 6063,
      "Ġtali": 6064,
      "ĠÃ³mÃ¶gulegt": 6065,
      "ĠgÃ³Ã°an": 6066,
      "Ġpeningar": 6067,
      "ĠnÃ¡mi": 6068,
      "Ġuppfylla": 6069,
      "afrÃ¦Ã°i": 6070,
      "Ġheims": 6071,
      "luti": 6072,
      "ĠslÃŃkan": 6073,
      "ĠstoÃ°": 6074,
      "Ġminnist": 6075,
      "Ġtilviki": 6076,
      "ĠfjÃ¡rlÃ¶gin": 6077,
      "ĠsÃ¶k": 6078,
      "Ġskapi": 6079,
      "ĠVal": 6080,
      "ĠfÃ©lÃ¶g": 6081,
      "Ġstafar": 6082,
      "ĠfordÃ¦mi": 6083,
      "Ġraunveru": 6084,
      "ĠfjallaÃ°i": 6085,
      "Ġkaupgjald": 6086,
      "Ġsta": 6087,
      "leggja": 6088,
      "ĠsuÃ°ur": 6089,
      "Ġfullum": 6090,
      "Ġbreytir": 6091,
      "Ġc": 6092,
      "Ġhorfum": 6093,
      "Ġtengd": 6094,
      "ting": 6095,
      "Ġnum": 6096,
      "ĠfjÃ¡rfram": 6097,
      "Ġatkvgr": 6098,
      "Ġdeilur": 6099,
      "Ġvenjulega": 6100,
      "ĠsjÃºklinga": 6101,
      "ldar": 6102,
      "Ġsetningu": 6103,
      "Ġell": 6104,
      "ĠÃ¾rjÃ¡": 6105,
      "Ġandsvari": 6106,
      "ĠsÃŃma": 6107,
      "Ġkvikmynd": 6108,
      "ĠsjÃ¡varÃºtvegs": 6109,
      "ĠHeil": 6110,
      "Ġskattar": 6111,
      "Ġgaum": 6112,
      "Ã¶rÃ°un": 6113,
      "ĠgÃ¶gnum": 6114,
      "Ġeyk": 6115,
      "ĠrÃ©ttilega": 6116,
      "ĠsvokallaÃ°a": 6117,
      "ĠverÃ°bÃ³lg": 6118,
      "Ġstyrkur": 6119,
      "ĠfÃ¦st": 6120,
      "ĠvaxiÃ°": 6121,
      "rÃ¦tt": 6122,
      "hÃºss": 6123,
      "Ã½s": 6124,
      "ĠhÃ¶fn": 6125,
      "Ġeinhverri": 6126,
      "ĠSama": 6127,
      "Ġkn": 6128,
      "ts": 6129,
      "Ġsbr": 6130,
      "staÃ°ar": 6131,
      "ĠnÃ¦stunni": 6132,
      "Ġtilteknum": 6133,
      "ĠkÃ¶nnun": 6134,
      "ĠprÃ³fessor": 6135,
      "Ġtekst": 6136,
      "ĠÃģÃ°ur": 6137,
      "ĠummÃ¦lum": 6138,
      "ĠrÃ¶ksemd": 6139,
      "ĠhÃ¦kkar": 6140,
      "ĠatkvÃ¦Ã°agreiÃ°slu": 6141,
      "slaust": 6142,
      "ĠfjÃ¡rveiting": 6143,
      "ĠÃ¡skor": 6144,
      "ĠfÃ¦ru": 6145,
      "ĠfrÃ©ttir": 6146,
      "Ã¶tt": 6147,
      "Ġauknar": 6148,
      "ĠSeÃ°labankinn": 6149,
      "Ġhafna": 6150,
      "ĠÃ³lÃ¶g": 6151,
      "Ġsnerta": 6152,
      "Ġhugar": 6153,
      "Ġhart": 6154,
      "Ġundirrit": 6155,
      "ĠbyrjaÃ°": 6156,
      "ĠnÃ¡msmanna": 6157,
      "Ġmenntmrn": 6158,
      "ĠskipaÃ°": 6159,
      "Ġvef": 6160,
      "nahag": 6161,
      "ĠvÃŃÃ°s": 6162,
      "Ġdeildinni": 6163,
      "Ġaustur": 6164,
      "Ġ33": 6165,
      "ĠbreytingartillÃ¶gu": 6166,
      "ĠhorfiÃ°": 6167,
      "ĠÃŀjÃ³Ã°hag": 6168,
      "ĠfÃ¦kka": 6169,
      "ĠheilsugÃ¦slu": 6170,
      "gjÃ¶ldum": 6171,
      "heimili": 6172,
      "Ãĵ": 6173,
      "ĠlÃ©tta": 6174,
      "breytt": 6175,
      "leitni": 6176,
      "veiÃ°i": 6177,
      "ĠrÃ¡Ã°ist": 6178,
      "om": 6179,
      "ĠskilyrÃ°um": 6180,
      "listar": 6181,
      "Ġbjarga": 6182,
      "Ġumhugs": 6183,
      "ĠÃºtfÃ¦r": 6184,
      "sfÃ©": 6185,
      "ĠÂ": 6186,
      "Ġsanngjarnt": 6187,
      "vinna": 6188,
      "Ġdau": 6189,
      "Ġsveitum": 6190,
      "ĠfjÃ¡rveitingu": 6191,
      "ĠSigurÃ°ur": 6192,
      "tunar": 6193,
      "ĠaÃ°drag": 6194,
      "aflokki": 6195,
      "eyrar": 6196,
      "ĠUpp": 6197,
      "ĠnÃ³tt": 6198,
      "Ġnet": 6199,
      "Ġsvarar": 6200,
      "ĠsparnaÃ°": 6201,
      "Ġvandlega": 6202,
      "ĠfjÃ¶gurra": 6203,
      "ĠgrundvallaratriÃ°i": 6204,
      "60": 6205,
      "ĠsÃ½ni": 6206,
      "ĠÃŃbÃºÃ°": 6207,
      "Ġhorfir": 6208,
      "ĠÃ¾Ã¦ttir": 6209,
      "ĠÃŀeim": 6210,
      "ĠHÃ¡ttv": 6211,
      "ĠEfnahag": 6212,
      "ĠslÃŃkur": 6213,
      "lausn": 6214,
      "ĠsamÃ¾ykt": 6215,
      "ÃŃna": 6216,
      "Ġdettur": 6217,
      "esti": 6218,
      "ĠrekiÃ°": 6219,
      "198": 6220,
      "ĠverkalÃ½Ã°": 6221,
      "JÃ³": 6222,
      "ĠjÃ¡kvÃ¦Ã°": 6223,
      "afirÃ°i": 6224,
      "ĠjÃ¡kvÃ¦tt": 6225,
      "ĠFrumvarp": 6226,
      "ĠÃĸll": 6227,
      "hall": 6228,
      "tÃ¶l": 6229,
      "ĠRang": 6230,
      "ĠundanÃ¾Ã¡gu": 6231,
      "brag": 6232,
      "lna": 6233,
      "ĠKar": 6234,
      "ĠÃ¡framhaldandi": 6235,
      "ĠandstÃ¦Ã°": 6236,
      "alÃ¶ggjÃ¶f": 6237,
      "ulltrÃº": 6238,
      "Ġfullri": 6239,
      "ĠStr": 6240,
      "ĠhÃ³t": 6241,
      "Ġeftirliti": 6242,
      "ĠÃ¾ykja": 6243,
      "ĠfjÃ¡rmÃ¶gnun": 6244,
      "ĠstjÃ³rnarandstÃ¦Ã°": 6245,
      "sstj": 6246,
      "ĠGÃŃslason": 6247,
      "ĠÃ¾jÃ³nusta": 6248,
      "ĠSpur": 6249,
      "Ġfallast": 6250,
      "ĠpÃ³litÃŃska": 6251,
      "Ã¶rÃ°um": 6252,
      "ĠjÃ¶fnunar": 6253,
      "ĠMark": 6254,
      "Ġfrei": 6255,
      "ĠnÃ¡grannal": 6256,
      "lÃŃu": 6257,
      "ĠBÃ¦": 6258,
      "ĠViss": 6259,
      "ĠprÃ³sen": 6260,
      "ĠsveitarfÃ©lÃ¶gunum": 6261,
      "ĠrÃ¡Ã°um": 6262,
      "hÃºsnÃ¦Ã°i": 6263,
      "ĠkveÃ°": 6264,
      "ĠhÃºsa": 6265,
      "ĠÃ½miss": 6266,
      "Ġflokkum": 6267,
      "ĠbreiÃ°": 6268,
      "ĠÃįbÃºÃ°al": 6269,
      "aÃ°urinn": 6270,
      "ĠmenntamÃ¡larÃ¡Ã°herra": 6271,
      "Ġframgang": 6272,
      "ĠefnahagsmÃ¡l": 6273,
      "ĠÃ³bein": 6274,
      "ĠskÃ³lum": 6275,
      "ĠRaf": 6276,
      "Ġefh": 6277,
      "ĠrÃ¶": 6278,
      "Ġsams": 6279,
      "ĠgildistÃ¶ku": 6280,
      "alÃ¶gunum": 6281,
      "ĠÃ³venju": 6282,
      "ĠOkkur": 6283,
      "ĠÃĿ": 6284,
      "ĠAusturlandi": 6285,
      "atni": 6286,
      "Ġhjar": 6287,
      "ĠaÃ°stÃ¦Ã°um": 6288,
      "ssa": 6289,
      "Ġmissa": 6290,
      "smanns": 6291,
      "svirkj": 6292,
      "ĠsparnaÃ°ar": 6293,
      "Ġhf": 6294,
      "ĠSvÃŃÃ¾jÃ³Ã°": 6295,
      "ĠÃ¾en": 6296,
      "ĠlÃ¡gu": 6297,
      "ĠÃģrnason": 6298,
      "Ġhall": 6299,
      "angur": 6300,
      "Ã¦Ã°ur": 6301,
      "ĠsÃ©st": 6302,
      "ĠNorÃ°urlÃ¶ndum": 6303,
      "ĠSp": 6304,
      "ĠskrÃ¡Ã°": 6305,
      "ĠâĢ¦": 6306,
      "ĠsÃ³ma": 6307,
      "Ġhugmyndum": 6308,
      "ĠFjÃ¡rmÃ¡la": 6309,
      "Ġnefndum": 6310,
      "ĠÃ¡standi": 6311,
      "ĠvÃ¦g": 6312,
      "ĠtillÃ¶gunni": 6313,
      "ĠnÃ½skÃ¶pun": 6314,
      "herr": 6315,
      "sÃ½ni": 6316,
      "ĠRÃŃkisstjÃ³rnin": 6317,
      "aframkvÃ¦md": 6318,
      "Ġutanrmn": 6319,
      "ĠhrÃ³": 6320,
      "aÃ°gerÃ°ir": 6321,
      "bÃºÃ°": 6322,
      "bÃºnaÃ°": 6323,
      "angrein": 6324,
      "ĠrÃ©ttlÃ¦": 6325,
      "aÃ°ferÃ°": 6326,
      "ĠfÃ¦rri": 6327,
      "ĠFÃ¦rey": 6328,
      "ĠÃ¾Ã¡verandi": 6329,
      "ĠrÃ½r": 6330,
      "ĠÃ³skaÃ°i": 6331,
      "Ġsendir": 6332,
      "hneig": 6333,
      "Ġtengsl": 6334,
      "Ġtilraunir": 6335,
      "Ġbag": 6336,
      "ĠstarfrÃ¦k": 6337,
      "ĠlÃ¡tin": 6338,
      "ĠÃºtgÃ¡fu": 6339,
      "ĠskilaboÃ°": 6340,
      "Ġsanna": 6341,
      "Ġoftar": 6342,
      "ĠiÃ°nn": 6343,
      "varna": 6344,
      "Ġbeggja": 6345,
      "ĠstaÃ°reyndir": 6346,
      "ĠvinnumarkaÃ°": 6347,
      "spar": 6348,
      "varnir": 6349,
      "Ġeftirspur": 6350,
      "ĠgagnrÃ½na": 6351,
      "ĠhlÃ½t": 6352,
      "Ġlenda": 6353,
      "samningar": 6354,
      "Ġkjarnorku": 6355,
      "fyll": 6356,
      "ĠGrÃ¦n": 6357,
      "ĠsÃ½nd": 6358,
      "Ġanda": 6359,
      "sheim": 6360,
      "Ġhlutina": 6361,
      "amarkaÃ°i": 6362,
      "eftirlitiÃ°": 6363,
      "ĠgrÃ³Ã°ur": 6364,
      "Ġatvinnuleysis": 6365,
      "skrÃ¡r": 6366,
      "hliÃ°": 6367,
      "Ġsamskiptum": 6368,
      "ĠtilboÃ°": 6369,
      "Ġfulln": 6370,
      "Ġfluttar": 6371,
      "ĠforstÃ¶Ã°um": 6372,
      "Ġgrunni": 6373,
      "ĠFinn": 6374,
      "ĠHvort": 6375,
      "ĠÃĿm": 6376,
      "Ġheyri": 6377,
      "Ġsafna": 6378,
      "styrk": 6379,
      "Ġtilheyr": 6380,
      "ĠeÃ°lilegra": 6381,
      "ĠÃŃbÃºÃ°a": 6382,
      "ĠlÃ½sir": 6383,
      "ĠFlug": 6384,
      "Ġfyrirheit": 6385,
      "Ġdyr": 6386,
      "form": 6387,
      "ĠtÃ¦kn": 6388,
      "Ġvins": 6389,
      "ĠgÃŃfurlega": 6390,
      "Ġyn": 6391,
      "ĠhlutaÃ°": 6392,
      "virÃ°i": 6393,
      "Ã³g": 6394,
      "ĠlÃ½kur": 6395,
      "Ġbankarnir": 6396,
      "ĠfjÃ¡rhagslega": 6397,
      "firÃ°": 6398,
      "Ġfinni": 6399,
      "Ġva": 6400,
      "ĠrÃ½m": 6401,
      "Ġbreytast": 6402,
      "ĠVestfjarÃ°a": 6403,
      "stihÃºs": 6404,
      "ĠÃ¡vallt": 6405,
      "ĠbÃ¦r": 6406,
      "ĠEvrÃ³pur": 6407,
      "Ġtakist": 6408,
      "Ġalmannatrygginga": 6409,
      "ĠheimilaÃ°": 6410,
      "ĠfÃ¡ist": 6411,
      "Ġlofti": 6412,
      "Ġdreifa": 6413,
      "Ġgreininni": 6414,
      "ĠatriÃ°iÃ°": 6415,
      "ĠgrunnskÃ³l": 6416,
      "skrifstof": 6417,
      "ĠtÃŃÃ°um": 6418,
      "Ġslys": 6419,
      "amÃ¡lin": 6420,
      "Ġmargs": 6421,
      "ĠÃĨt": 6422,
      "ATO": 6423,
      "ĠrannsÃ³knum": 6424,
      "ĠvitnaÃ°i": 6425,
      "Ġskuldum": 6426,
      "ĠlÃ¡ni": 6427,
      "ĠreglugerÃ°ar": 6428,
      "utt": 6429,
      "Ġskrifstofu": 6430,
      "ĠNATO": 6431,
      "Ġtekjurnar": 6432,
      "ĠÃ³sammÃ¡la": 6433,
      "ĠsamfÃ©lags": 6434,
      "ĠmÃ³ta": 6435,
      "ĠÃ¾jÃ³Ã°aratkvÃ¦Ã°agreiÃ°slu": 6436,
      "ĠÃ¾unga": 6437,
      "Ġrefs": 6438,
      "ĠÃŃÃ¾rÃ³tt": 6439,
      "ĠliÃ°iÃ°": 6440,
      "ĠÃŃslenzku": 6441,
      "11": 6442,
      "ilÃŃf": 6443,
      "ĠfÃŃk": 6444,
      "supp": 6445,
      "jÃ³Ã°andi": 6446,
      "skot": 6447,
      "ĠhrÃ¦ddur": 6448,
      "Ġhverri": 6449,
      "ÃºtgerÃ°": 6450,
      "Ġblanda": 6451,
      "ĠskÃ¶ttum": 6452,
      "Ġ1980": 6453,
      "sskil": 6454,
      "Ġeyr": 6455,
      "kizt": 6456,
      "Ġumhugsunar": 6457,
      "SÃį": 6458,
      "ĠAtlantshafsbandalag": 6459,
      "ĠGert": 6460,
      "ĠframsÃ¶gurÃ¦Ã°u": 6461,
      "Ġ1990": 6462,
      "ĠembÃ¦ttismenn": 6463,
      "ĠnjÃ³ti": 6464,
      "ĠFiski": 6465,
      "Ġstytt": 6466,
      "ĠVissulega": 6467,
      "akka": 6468,
      "ĠmÃ³tmÃ¦li": 6469,
      "ĠStjÃ³rnarrÃ¡Ã°": 6470,
      "ĠlÃŃfi": 6471,
      "Ã¡st": 6472,
      "Ġskel": 6473,
      "Ġpeningum": 6474,
      "ĠKjar": 6475,
      "ĠÃŃmynd": 6476,
      "ĠskÃ½": 6477,
      "asti": 6478,
      "ĠfjÃ¡rmagna": 6479,
      "ĠBÃºnaÃ°": 6480,
      "ĠSteingrÃŃmur": 6481,
      "Ġskild": 6482,
      "snar": 6483,
      "Ãºtur": 6484,
      "Ġkaupt": 6485,
      "ĠsjÃ³Ã°num": 6486,
      "ĠhjÃ¡lpar": 6487,
      "ĠfljÃ³tlega": 6488,
      "ĠÃºrs": 6489,
      "Ġfundur": 6490,
      "ĠtrÃºa": 6491,
      "Ġverra": 6492,
      "ĠÃ¾jÃ³Ã°um": 6493,
      "ĠeinfÃ¶ld": 6494,
      "aÃ°ilum": 6495,
      "taki": 6496,
      "Ġsannleik": 6497,
      "ĠSnÃ¦": 6498,
      "ĠnÃ¦Ã°i": 6499,
      "ĠAlÃ¾Ã½Ã°usamband": 6500,
      "Ġbygging": 6501,
      "Ġaukningu": 6502,
      "amat": 6503,
      "Ġbirt": 6504,
      "ĠRÃ©tt": 6505,
      "ĠviÃ°staddur": 6506,
      "ĠÃ¡kvÃ¦Ã°iÃ°": 6507,
      "tÃ¶kum": 6508,
      "asjÃ³Ã°s": 6509,
      "ĠvirÃ°a": 6510,
      "ĠgreiÃ°slum": 6511,
      "Ġkynsl": 6512,
      "skar": 6513,
      "Ġkirkju": 6514,
      "fÃ¶rum": 6515,
      "ĠverksmiÃ°ju": 6516,
      "tra": 6517,
      "ĠmÃ¦tt": 6518,
      "ĠfarsÃ¦": 6519,
      "Ġkosningum": 6520,
      "ĠbrugÃ°ist": 6521,
      "ĠByggingar": 6522,
      "Ġbjart": 6523,
      "ĠhÃ¦kkunar": 6524,
      "repp": 6525,
      "Ġ190": 6526,
      "Ġundirtek": 6527,
      "ĠboÃ°a": 6528,
      "Ġverndar": 6529,
      "ĠAustf": 6530,
      "auÃ°l": 6531,
      "Ġ32": 6532,
      "skÃ³li": 6533,
      "takanna": 6534,
      "Ġ1991": 6535,
      "ĠdÃ½rtÃŃÃ°": 6536,
      "iÃ°naÃ°": 6537,
      "ĠatvinnulÃŃfi": 6538,
      "ĠÃģg": 6539,
      "lÃ¶gunum": 6540,
      "Ġsalnum": 6541,
      "Ġvaxt": 6542,
      "ĠÃŃslenzka": 6543,
      "flokki": 6544,
      "Ġgagni": 6545,
      "ĠÃ¡vinn": 6546,
      "ĠBarÃ°": 6547,
      "Ġblekk": 6548,
      "ĠÃ¡nÃ¦gjulegt": 6549,
      "ĠstjÃ³rnvÃ¶ldum": 6550,
      "Ġbreytingartil": 6551,
      "ĠPÃ¡ll": 6552,
      "ĠBjÃ¶r": 6553,
      "Ġskattlagningu": 6554,
      "ĠtrÃºnaÃ°ar": 6555,
      "grÃŃm": 6556,
      "ĠlÃ¦ra": 6557,
      "Ġykk": 6558,
      "ĠstaÃ°i": 6559,
      "Ġgir": 6560,
      "rat": 6561,
      "ĠVesturl": 6562,
      "ofnunum": 6563,
      "ĠRÃŃkisendurskoÃ°un": 6564,
      "Ġverslunar": 6565,
      "raum": 6566,
      "Ġ*": 6567,
      "ĠyfirlÃ½sing": 6568,
      "kunar": 6569,
      "ĠÃ¾Ã½Ã°a": 6570,
      "Ã¾egar": 6571,
      "ĠsniÃ°": 6572,
      "ĠÃ¡rslok": 6573,
      "Ã¡la": 6574,
      "trygging": 6575,
      "imp": 6576,
      "legs": 6577,
      "ĠdÃ³mst": 6578,
      "Ġtann": 6579,
      "ĠfjÃ¶lgun": 6580,
      "ĠmeÃ°altali": 6581,
      "Ġvatns": 6582,
      "ĠupplÃ½sing": 6583,
      "ĠerfiÃ°leika": 6584,
      "ĠgrunnskÃ³la": 6585,
      "ĠknÃ½ja": 6586,
      "Ġvissi": 6587,
      "mÃ¦la": 6588,
      "Ġbandalag": 6589,
      "ĠorÃ°aÃ°": 6590,
      "ĠsauÃ°fjÃ¡r": 6591,
      "ĠbrÃ½na": 6592,
      "ĠSamfylkingin": 6593,
      "avÃŃ": 6594,
      "ĠsjÃ¡lfstÃ¦Ã°": 6595,
      "kall": 6596,
      "Ġvin": 6597,
      "Ġskattal": 6598,
      "ĠsÃ¦tta": 6599,
      "Ġeignast": 6600,
      "Ġfylgjandi": 6601,
      "Ġsamkeppnis": 6602,
      "Ġfesta": 6603,
      "ĠstigiÃ°": 6604,
      "ĠaÃ°gengi": 6605,
      "Ġtengja": 6606,
      "Ġskiptingu": 6607,
      "sjÃ³narmiÃ°": 6608,
      "ĠvaliÃ°": 6609,
      "ĠbyggÃ°ir": 6610,
      "angt": 6611,
      "ĠhundraÃ°": 6612,
      "ĠskoÃ°ana": 6613,
      "ĠinnviÃ°": 6614,
      "ĠlÃŃnu": 6615,
      "ĠskapaÃ°": 6616,
      "ĠsjÃ¡lfstÃ¦Ã°ismanna": 6617,
      "jÃ¡rn": 6618,
      "Ġnemenda": 6619,
      "Ġlykil": 6620,
      "Ġeigendur": 6621,
      "Ġerlendu": 6622,
      "ĠHÃºsnÃ¦Ã°i": 6623,
      "juna": 6624,
      "ĠÃ¡hugi": 6625,
      "tandi": 6626,
      "ĠsmÃ¦rri": 6627,
      "frjÃ¡l": 6628,
      "ĠatkvÃ¦Ã°a": 6629,
      "agr": 6630,
      "ĠneitaÃ°": 6631,
      "sÃ¦k": 6632,
      "ĠAlÃ¾jÃ³Ã°a": 6633,
      "Ġverzlunar": 6634,
      "ĠtÃ¦kifÃ¦riÃ°": 6635,
      "ansi": 6636,
      "ĠgÃ¡tu": 6637,
      "Ġverst": 6638,
      "ĠeigiÃ°": 6639,
      "ĠIng": 6640,
      "ĠvÃŃn": 6641,
      "skattur": 6642,
      "ĠferÃ°aÃ¾jÃ³nustu": 6643,
      "Ġsamningsins": 6644,
      "ĠfÃ©lagslega": 6645,
      "Ġvegur": 6646,
      "Ġplag": 6647,
      "ĠveÃ°ur": 6648,
      "Ġdregur": 6649,
      "Ġafnum": 6650,
      "ĠheilbrigÃ°isrÃ¡Ã°herra": 6651,
      "Ġannara": 6652,
      "Ġ38": 6653,
      "ĠferÃ°aÃ¾jÃ³nust": 6654,
      "ĠhÃ³pa": 6655,
      "Ã¶nnu": 6656,
      "Ġmiklir": 6657,
      "ĠefnahagslÃŃ": 6658,
      "ĠHug": 6659,
      "Ġsjald": 6660,
      "ĠLandsvirkjunar": 6661,
      "Ġverri": 6662,
      "ĠLandssam": 6663,
      "ĠlÃ¦knis": 6664,
      "ĠmjÃ³lk": 6665,
      "emi": 6666,
      "Ġ1960": 6667,
      "ilegan": 6668,
      "Ġstarfar": 6669,
      "ĠkjÃ¶rdÃ¦ma": 6670,
      "Ġeinkar": 6671,
      "ĠsÃ©rstakri": 6672,
      "urum": 6673,
      "ĠkÃº": 6674,
      "ĠHjÃ¶r": 6675,
      "ĠgreiÃ°ir": 6676,
      "eigenda": 6677,
      "ĠmÃŃns": 6678,
      "ĠkjÃ³sendur": 6679,
      "ĠrÃŃkisstjÃ³rnina": 6680,
      "Ġfleir": 6681,
      "Ġkm": 6682,
      "taÃ°": 6683,
      "Ã¶tu": 6684,
      "ĠÃŀÃ½": 6685,
      "yfirvÃ¶ld": 6686,
      "Ġstraum": 6687,
      "ĠframsÃ¶gu": 6688,
      "ĠÃ¡lita": 6689,
      "Ġstil": 6690,
      "Ġefasemdir": 6691,
      "Ġgersamlega": 6692,
      "ĠslÃŃks": 6693,
      "andast": 6694,
      "ĠÃ¾Ãº": 6695,
      "shlut": 6696,
      "Ġskipulags": 6697,
      "ĠÃ¾ro": 6698,
      "Ġskattheim": 6699,
      "ĠraunhÃ¦": 6700,
      "rannsÃ³k": 6701,
      "ĠlÃ½Ã°v": 6702,
      "500": 6703,
      "nesk": 6704,
      "ĠnÃ¦gilegt": 6705,
      "Ġheppilegt": 6706,
      "ĠrÃ¦Ã°umaÃ°ur": 6707,
      "Ġbat": 6708,
      "ĠauglÃ½": 6709,
      "Ġhaldinn": 6710,
      "ĠfjÃ¶lgaÃ°": 6711,
      "ĠviÃ°leitni": 6712,
      "Ġskili": 6713,
      "ĠtÃŃÃ°kast": 6714,
      "ĠÃĸnnur": 6715,
      "Ġmerki": 6716,
      "drÃ¦tti": 6717,
      "nari": 6718,
      "Ġverulegar": 6719,
      "ĠsjÃ¡varafur": 6720,
      "ĠaÃ°lÃ¶g": 6721,
      "ĠmÃ¶rkum": 6722,
      "ĠstefnumÃ¶r": 6723,
      "ĠFisk": 6724,
      "itunar": 6725,
      "Ġ36": 6726,
      "ĠrÃŃkisÃ¡byrgÃ°": 6727,
      "ĠBandarÃŃkjanna": 6728,
      "eyrissjÃ³Ã°": 6729,
      "tinn": 6730,
      "Ġgeyma": 6731,
      "Ġstefnir": 6732,
      "ĠglÃŃma": 6733,
      "uÃ°ning": 6734,
      "ĠviÃ°skiptar": 6735,
      "ĠsÃ©rfrÃ¦Ã°ingar": 6736,
      "ĠrÃŃkisvaldsins": 6737,
      "ĠvarÃ°v": 6738,
      "Ġskipi": 6739,
      "ĠÃ¶rÃ°u": 6740,
      "agerÃ°ar": 6741,
      "Ġtort": 6742,
      "Ġsamninginn": 6743,
      "ĠsamrÃ¦mis": 6744,
      "byggingu": 6745,
      "ĠfrÃ©tta": 6746,
      "jÃ³ni": 6747,
      "vistar": 6748,
      "ĠfÃºs": 6749,
      "kos": 6750,
      "ng": 6751,
      "Ġvann": 6752,
      "ĠrÃŃkjum": 6753,
      "gÃ¦slu": 6754,
      "ĠÃŃslenskri": 6755,
      "ingarnar": 6756,
      "Ġauknu": 6757,
      "ĠÃ½ta": 6758,
      "Ġafborg": 6759,
      "ĠnumiÃ°": 6760,
      "Ġskildi": 6761,
      "flutt": 6762,
      "stÃŃma": 6763,
      "ĠsjÃ¡lfan": 6764,
      "ĠsÃ½ndi": 6765,
      "ĠstjÃ³rnmÃ¡la": 6766,
      "Ġhyggst": 6767,
      "Ġskipulagi": 6768,
      "Ġvart": 6769,
      "grunn": 6770,
      "ĠauÃ°s": 6771,
      "Ġleitast": 6772,
      "ĠbandarÃŃ": 6773,
      "ĠumsÃ³k": 6774,
      "ĠnÃ½skÃ¶punar": 6775,
      "vÃ¦n": 6776,
      "ĠNÃ¡ttÃºru": 6777,
      "bÃºa": 6778,
      "stjÃ³rar": 6779,
      "mundur": 6780,
      "unarf": 6781,
      "atvinnu": 6782,
      "Ã¡rust": 6783,
      "ĠsamfÃ©lagiÃ°": 6784,
      "ĠfjÃ¡rmunir": 6785,
      "ĠmÃ¶gulega": 6786,
      "ĠVestmannaeyjum": 6787,
      "ĠÃ¡kvaÃ°": 6788,
      "ĠNoreg": 6789,
      "Ġverslun": 6790,
      "Ġheyrir": 6791,
      "Ġfylgst": 6792,
      "aflot": 6793,
      "dÃ³ma": 6794,
      "Ġuppli": 6795,
      "isins": 6796,
      "ĠsamÃ¾ykkti": 6797,
      "Ġki": 6798,
      "ĠklÃ¡r": 6799,
      "ĠvinnubrÃ¶gÃ°um": 6800,
      "ĠSamkv": 6801,
      "ÃŃku": 6802,
      "ĠÃ¡byr": 6803,
      "samtaka": 6804,
      "ĠgjaldmiÃ°": 6805,
      "lok": 6806,
      "ĠÃ³Ã¾arfi": 6807,
      "ĠLok": 6808,
      "sliÃ°": 6809,
      "ĠrÃŃkj": 6810,
      "aÃ°ri": 6811,
      "Ġhreins": 6812,
      "Ġumhvrh": 6813,
      "ĠBar": 6814,
      "ĠÃºrskurÃ°": 6815,
      "Ġ1983": 6816,
      "ĠflÃ³kiÃ°": 6817,
      "ĠmÃ¡naÃ°ar": 6818,
      "skiptingu": 6819,
      "Ġdan": 6820,
      "Ġverkefn": 6821,
      "fÃ©lÃ¶gin": 6822,
      "afjÃ¶ld": 6823,
      "Ġsleg": 6824,
      "Ġtalsver": 6825,
      "ĠHo": 6826,
      "Ġhausti": 6827,
      "agjÃ¶ld": 6828,
      "frelsi": 6829,
      "ĠAlÃ¾jÃ³Ã°": 6830,
      "ĠbÃ¡rust": 6831,
      "ĠkrÃ³nunnar": 6832,
      "entar": 6833,
      "Ġleiddi": 6834,
      "ĠorÃ°nir": 6835,
      "ĠÃ¡ratugi": 6836,
      "ĠStaÃ°": 6837,
      "Ġstofnunin": 6838,
      "ĠyfirstjÃ³rn": 6839,
      "Ġeignum": 6840,
      "ĠviÃ°halda": 6841,
      "ĠafsÃ¶k": 6842,
      "sÃ¡r": 6843,
      "ĠstÃ¶Ã°ugleika": 6844,
      "ĠÃ³Ã¡nÃ¦g": 6845,
      "sfor": 6846,
      "Ġansi": 6847,
      "ĠÃºtilokaÃ°": 6848,
      "Ġslepp": 6849,
      "ĠsvÃŃ": 6850,
      "min": 6851,
      "Ġaldri": 6852,
      "Ġeinhverra": 6853,
      "ĠsamÃ¾ykktar": 6854,
      "ĠforgangsrÃ¶Ã°": 6855,
      "Ġatvikum": 6856,
      "vand": 6857,
      "Al": 6858,
      "ĠtilbÃºinn": 6859,
      "ĠniÃ°": 6860,
      "ĠnorÃ°an": 6861,
      "Ġmisjafn": 6862,
      "ĠstefnumÃ³tun": 6863,
      "Ġuppfyll": 6864,
      "ĠmÃ¦lti": 6865,
      "25": 6866,
      "ĠStein": 6867,
      "ĠrÃ¡Ã°uneyta": 6868,
      "ĠÃģrna": 6869,
      "Ġ37": 6870,
      "ĠrÃ¡Ã°stafa": 6871,
      "ĠmÃ¶guleiki": 6872,
      "tÃ¦kin": 6873,
      "ĠÃ¡lagningu": 6874,
      "ĠstjÃ³rnarskrÃ¡na": 6875,
      "ĠhernaÃ°ar": 6876,
      "ĠlÃ¦t": 6877,
      "ĠstjÃ³rnarandstÃ¶Ã°unni": 6878,
      "ĠlÃ¶gÃ°u": 6879,
      "ĠsÃ¶l": 6880,
      "ĠaÃ°staÃ°a": 6881,
      "ĠgagnrÃ½nt": 6882,
      "ĠÃŃÃ¾rÃ³tta": 6883,
      "ĠspÃŃtal": 6884,
      "Ġill": 6885,
      "hÃŃ": 6886,
      "Ġdrag": 6887,
      "ĠbarÃ¡tt": 6888,
      "etta": 6889,
      "ĠsamfÃ©lagsins": 6890,
      "Ġvantraust": 6891,
      "isvar": 6892,
      "ĠviÃ°fangsefni": 6893,
      "ĠnÃ¡ttÃºruverndar": 6894,
      "ĠArn": 6895,
      "ati": 6896,
      "ĠsjÃ³Ã°urinn": 6897,
      "ĠstaÃ°festa": 6898,
      "Ġforsenda": 6899,
      "ĠrÃŃkisstjÃ³r": 6900,
      "ĠÃįsafirÃ°i": 6901,
      "launa": 6902,
      "Ġbrag": 6903,
      "Ġtillagan": 6904,
      "reglum": 6905,
      "rÃ¦mi": 6906,
      "anlegum": 6907,
      "Ġ1978": 6908,
      "ĠsÃŃÃ°astliÃ°": 6909,
      "ĠlÃ½s": 6910,
      "ĠReyndar": 6911,
      "Ġmagn": 6912,
      "Ġhlutfallslega": 6913,
      "Ã¶nnunum": 6914,
      "ĠHall": 6915,
      "Ã¡lag": 6916,
      "markmiÃ°": 6917,
      "ĠsvÃ¦Ã°inu": 6918,
      "ĠfÃ©lagsins": 6919,
      "ĠLandss": 6920,
      "Ġsafn": 6921,
      "ĠÃ³skum": 6922,
      "ĠÃºtlendinga": 6923,
      "Ġborgara": 6924,
      "ĠhÃ¡rrÃ©tt": 6925,
      "arar": 6926,
      "ĠlandbÃºnaÃ°i": 6927,
      "ĠbreytingartillÃ¶gur": 6928,
      "ĠmannrÃ©ttinda": 6929,
      "ĠsÃ³lar": 6930,
      "Ã¶flunar": 6931,
      "Ġgreint": 6932,
      "ĠtvÃŃmÃ¦li": 6933,
      "Ġsamningurinn": 6934,
      "Ġeinstakir": 6935,
      "ĠÃ¡herslur": 6936,
      "ĠÃģrni": 6937,
      "ĠsamhljÃ³": 6938,
      "ĠgÃ³Ã°ri": 6939,
      "Ġfrumv": 6940,
      "ĠerfiÃ°ara": 6941,
      "ÃŃÃ°i": 6942,
      "ĠmÃ¡nuÃ°": 6943,
      "ĠtilbÃºin": 6944,
      "ĠboÃ°aÃ°": 6945,
      "ĠjÃ³": 6946,
      "ĠJÃ³s": 6947,
      "mÃ¡nuÃ°i": 6948,
      "amÃ¶r": 6949,
      "ĠmÃŃnÃºtur": 6950,
      "ĠÃģgÃºst": 6951,
      "ĠviÃ°skipt": 6952,
      "ĠhÃºsaleigu": 6953,
      "ĠfÃ³lgin": 6954,
      "ings": 6955,
      "ĠNorÃ°urlandi": 6956,
      "ĠÃ¡Ã¦tlunar": 6957,
      "ĠafnÃ¡m": 6958,
      "nuÃ°u": 6959,
      "EvrÃ³p": 6960,
      "pr": 6961,
      "Ġhinsvegar": 6962,
      "Ġ2010": 6963,
      "haldi": 6964,
      "ĠÃ¡fanga": 6965,
      "ĠhÃ¦kkanir": 6966,
      "ĠReyk": 6967,
      "ĠfyrirsjÃ¡": 6968,
      "ĠSÃ¶mu": 6969,
      "ĠsamrÃ¦ma": 6970,
      "Ġlak": 6971,
      "Ġgefinn": 6972,
      "ĠSvein": 6973,
      "Ġduga": 6974,
      "ĠaÃ°draganda": 6975,
      "ĠSlÃŃkt": 6976,
      "ĠVald": 6977,
      "stÃ¶rfum": 6978,
      "vÃ©t": 6979,
      "Ġ65": 6980,
      "ĠstuÃ°ningur": 6981,
      "ĠÃ¾ingnefnd": 6982,
      "ĠGeir": 6983,
      "ĠsÃ¦tt": 6984,
      "brigÃ°um": 6985,
      "ĠÃºtfÃ¦rslu": 6986,
      "ĠTh": 6987,
      "afrÃ¦Ã°": 6988,
      "ĠLÃŃ": 6989,
      "ĠÃ¡hugavert": 6990,
      "ĠvegÃ¡Ã¦tlun": 6991,
      "afÃ©": 6992,
      "ĠPÃ¡lma": 6993,
      "Ġaukning": 6994,
      "jenda": 6995,
      "sala": 6996,
      "valar": 6997,
      "ĠSamband": 6998,
      "iÃ°naÃ°ar": 6999,
      "ĠThor": 7000,
      "Ġallrar": 7001,
      "slunefnd": 7002,
      "Ã°ung": 7003,
      "Ġeinna": 7004,
      "ĠfÃ³lkinu": 7005,
      "ĠmiÃ°ar": 7006,
      "ĠstÃŃl": 7007,
      "Ġtilra": 7008,
      "ĠAr": 7009,
      "Ġmikilla": 7010,
      "ĠuppbÃ³t": 7011,
      "ĠfÃŃkni": 7012,
      "ĠKÃ³pa": 7013,
      "ĠMegin": 7014,
      "tri": 7015,
      "ĠÃ¾reng": 7016,
      "Ġ1974": 7017,
      "ĠtvÃŃmÃ¦l": 7018,
      "ĠkringumstÃ¦Ã°um": 7019,
      "fÃ©lagi": 7020,
      "ĠlagfÃ¦r": 7021,
      "Ġalgeng": 7022,
      "ĠinnleiÃ°a": 7023,
      "Ġfullan": 7024,
      "Ġak": 7025,
      "Ġlitlar": 7026,
      "Ġfjelag": 7027,
      "ĠslÃ¦mt": 7028,
      "unina": 7029,
      "sbÃ³ta": 7030,
      "ĠSeÃ°labanka": 7031,
      "Ġundirtektir": 7032,
      "Ġminnk": 7033,
      "kuld": 7034,
      "ĠKannski": 7035,
      "ĠReykn": 7036,
      "ĠgrÃ¦nna": 7037,
      "sÃ¡ttmÃ¡l": 7038,
      "Ġstyrki": 7039,
      "Ġtekizt": 7040,
      "Ġskort": 7041,
      "ĠÃºtrÃ½": 7042,
      "ĠbÃ¶nkunum": 7043,
      "ĠÃ¾jÃ³Ã°fÃ©lagiÃ°": 7044,
      "ĠDavÃŃ": 7045,
      "Ġeftirlits": 7046,
      "ĠfrÃ¦Ã°i": 7047,
      "ĠlofaÃ°": 7048,
      "Ã¦ka": 7049,
      "Ġhval": 7050,
      "Ġtvisvar": 7051,
      "ĠaÃ°alatriÃ°iÃ°": 7052,
      "ĠfjÃ¡rmÃ¡laÃ¡Ã¦tlun": 7053,
      "ĠorÃ°rÃ©tt": 7054,
      "ĠskipaÃ°i": 7055,
      "Ġmillil": 7056,
      "Ġhlunn": 7057,
      "Ġskynsamlega": 7058,
      "atthÃŃ": 7059,
      "Ġbeinum": 7060,
      "ĠÃºtgerÃ°armenn": 7061,
      "ĠhÃ³fst": 7062,
      "ĠSÃ¾": 7063,
      "ĠhagfrÃ¦Ã°": 7064,
      "sska": 7065,
      "ĠfjÃ¡rfesta": 7066,
      "Ġ1979": 7067,
      "Ġrekstrarf": 7068,
      "Ġneytendur": 7069,
      "Ġfarveg": 7070,
      "ĠÃºrskurÃ°ar": 7071,
      "JÃ³n": 7072,
      "ĠskÃ¶p": 7073,
      "Ġpar": 7074,
      "Ġnefndarmenn": 7075,
      "ĠÃ¶Ã°last": 7076,
      "ekstur": 7077,
      "ĠsÃ¦milega": 7078,
      "staÃ°i": 7079,
      "ennur": 7080,
      "ĠhlutaÃ°eigandi": 7081,
      "Ġeflaust": 7082,
      "ĠSvar": 7083,
      "ĠsvokÃ¶lluÃ°u": 7084,
      "hljÃ³Ã°andi": 7085,
      "stÃ©tt": 7086,
      "Ġ2007": 7087,
      "ĠHafr": 7088,
      "Ġtiltekna": 7089,
      "gÃ¶ng": 7090,
      "ĠHÃº": 7091,
      "ĠsmÃ¡tt": 7092,
      "speg": 7093,
      "Ġsveita": 7094,
      "ĠsjÃ¡lfri": 7095,
      "Ġvestur": 7096,
      "Ã¾yn": 7097,
      "Ġ1958": 7098,
      "ĠliÃ°inn": 7099,
      "Ġveruleika": 7100,
      "ĠvegamÃ¡l": 7101,
      ".),": 7102,
      "lÃ¦": 7103,
      "bÃŃ": 7104,
      "verksmiÃ°ju": 7105,
      "ĠÃ¡sta": 7106,
      "Ġnotum": 7107,
      "ĠhaustiÃ°": 7108,
      "sstaÃ°ar": 7109,
      "Ġloks": 7110,
      "ĠpÃ³litÃŃk": 7111,
      "Ġberum": 7112,
      "Ã¾Ã¦tt": 7113,
      "ĠÃ¾v": 7114,
      "Ġkasta": 7115,
      "Ġhugtak": 7116,
      "Ġskilar": 7117,
      "ĠsvohljÃ³Ã°andi": 7118,
      "ĠÃ³full": 7119,
      "Ã¶kul": 7120,
      "ĠRvÃŃk": 7121,
      "spil": 7122,
      "reisnar": 7123,
      "ĠsjeÃ°": 7124,
      "Ġ1992": 7125,
      "ĠSkar": 7126,
      "ĠÃ¶ku": 7127,
      "daga": 7128,
      "Ġkon": 7129,
      "ĠdÃ¦miÃ°": 7130,
      "skÃ³linn": 7131,
      "lags": 7132,
      "skerfi": 7133,
      "stÃ¶Ã°vum": 7134,
      "ĠRÃŃkisstj": 7135,
      "Ġmundir": 7136,
      "Ġsveig": 7137,
      "ĠatriÃ°": 7138,
      "yÃ°ja": 7139,
      "ĠÃ¡hyggju": 7140,
      "Ġverr": 7141,
      "ĠÃļr": 7142,
      "ĠÃ¡statt": 7143,
      "Ġveittar": 7144,
      "ĠafurÃ°a": 7145,
      "ĠTryggingastofnun": 7146,
      "ĠblÃ¡": 7147,
      "Ġvarhuga": 7148,
      "Ġeinstakar": 7149,
      "ĠAÃ°eins": 7150,
      "sÃ¶gnum": 7151,
      "aflutning": 7152,
      "ĠfÃ¡ir": 7153,
      "Ġkepp": 7154,
      "eglur": 7155,
      "ĠpersÃ³nulega": 7156,
      "ĠvakiÃ°": 7157,
      "ĠtjÃ¡Ã°": 7158,
      "Ġorkum": 7159,
      "ĠMat": 7160,
      "ĠalfariÃ°": 7161,
      "sskyld": 7162,
      "junni": 7163,
      "samninginn": 7164,
      "Ġfengum": 7165,
      "ĠBreyt": 7166,
      "Ġlandshlut": 7167,
      "Ġtrausti": 7168,
      "slÃ¡n": 7169,
      "ĠBreiÃ°": 7170,
      "kran": 7171,
      "Ġhefjast": 7172,
      "ĠskÃ½rar": 7173,
      "ĠskoriÃ°": 7174,
      "ĠbÃ¶rnin": 7175,
      "Ġstimp": 7176,
      "ĠSÃ©": 7177,
      "ĠstefnumÃ¶rkun": 7178,
      "ĠbÃ¦num": 7179,
      "ĠstÃ³rar": 7180,
      "Ġverulegum": 7181,
      "ĠsamgÃ¶nguÃ¡Ã¦tlun": 7182,
      "ĠAusturl": 7183,
      "ĠÃ¡litamÃ¡l": 7184,
      "ĠÃ½mist": 7185,
      "veld": 7186,
      "Ġvelt": 7187,
      "rÃºn": 7188,
      "samningnum": 7189,
      "ĠsvÃ¶rin": 7190,
      "Ġofbeldi": 7191,
      "ĠkostnaÃ°urinn": 7192,
      "skerÃ°": 7193,
      "drÃ¡ttur": 7194,
      "ĠrÃ©ttara": 7195,
      "heimildum": 7196,
      "ĠinnleiÃ°": 7197,
      "Ġvirkja": 7198,
      "ĠborgaÃ°": 7199,
      "ĠtilmÃ¦lum": 7200,
      "ĠÃºtboÃ°": 7201,
      "ĠframboÃ°s": 7202,
      "Ġhley": 7203,
      "ĠSjÃ¡lfstÃ¦Ã°isflokkurinn": 7204,
      "ĠfriÃ°ar": 7205,
      "ĠLandsbankans": 7206,
      "ĠsÃŃÃ°asti": 7207,
      "ĠsjÃ¡lfra": 7208,
      "greidd": 7209,
      "ĠhlustaÃ°": 7210,
      "Ġendurspeg": 7211,
      "ĠLÃŃf": 7212,
      "ĠskrifaÃ°i": 7213,
      "Ġorlof": 7214,
      "Ã©ttur": 7215,
      "ĠkveÃ°ur": 7216,
      "Ġkarla": 7217,
      "ĠÃ¾Ã¶rfum": 7218,
      "ĠgjaldiÃ°": 7219,
      "Ġ1988": 7220,
      "ĠtÃ¶lul": 7221,
      "ĠHafrannsÃ³knast": 7222,
      "ĠÃŀorstein": 7223,
      "ĠdÃ½ra": 7224,
      "toll": 7225,
      "ĠgrÃ³": 7226,
      "olt": 7227,
      "Ġkarl": 7228,
      "ĠLagt": 7229,
      "ĠÃ¶rlÃŃtiÃ°": 7230,
      "ĠumhverfisrÃ¡Ã°herra": 7231,
      "skonar": 7232,
      "ĠÃŃslenzkum": 7233,
      "Ã¾ykk": 7234,
      "Ġverzlun": 7235,
      "Ġgefst": 7236,
      "dÃ¶gum": 7237,
      "teng": 7238,
      "Ã³tum": 7239,
      "Ġtortrygg": 7240,
      "ĠleiÃ°i": 7241,
      "ĠaÃ°komu": 7242,
      "samvinnu": 7243,
      "ĠSovÃ©t": 7244,
      "ĠsÃ©rstakur": 7245,
      "ĠHar": 7246,
      "nirnar": 7247,
      "ĠfyrirtÃ¦kis": 7248,
      "ĠÃ³rÃ©tt": 7249,
      "skapar": 7250,
      "rÃŃkjanna": 7251,
      "Ġmunn": 7252,
      "ĠfjÃ¡rhÃ¦Ã°ir": 7253,
      "ĠJÃ³nasson": 7254,
      "Ġhlyn": 7255,
      "ĠbaÃ°": 7256,
      "ĠÃ¾ingflokka": 7257,
      "Ġskilgreina": 7258,
      "ĠskÃ³lans": 7259,
      "ĠlÃ¡ntÃ¶ku": 7260,
      "Ã¶gun": 7261,
      "Ġmargoft": 7262,
      "lingum": 7263,
      "Ġ1984": 7264,
      "ĠjÃ¡rn": 7265,
      "ney": 7266,
      "ĠrÃ©ttu": 7267,
      "menna": 7268,
      "tina": 7269,
      "ĠÃ¾ingmÃ¡l": 7270,
      "Ġtilskip": 7271,
      ".\"": 7272,
      "ĠatkvÃ¦Ã°agreiÃ°": 7273,
      "ĠleiÃ°inni": 7274,
      "ĠEinarsson": 7275,
      "Ġburtu": 7276,
      "amun": 7277,
      "Ġoftast": 7278,
      "ĠvandrÃ¦Ã°um": 7279,
      "ĠFÃ³lk": 7280,
      "Ġreyni": 7281,
      "Ġkg": 7282,
      "Ġhugsanlegt": 7283,
      "ĠrÃŃkisrek": 7284,
      "ĠRÃŃkisendurskoÃ°unar": 7285,
      "ĠstjÃ³rnarrÃ¡Ã°": 7286,
      "ĠsamtÃ¶kum": 7287,
      "Ġakk": 7288,
      "stofnanir": 7289,
      "stÃŃm": 7290,
      "197": 7291,
      "lÃ¡tur": 7292,
      "ĠSel": 7293,
      "ĠInn": 7294,
      "ĠbÃ³ka": 7295,
      "Ġvitaskuld": 7296,
      "ĠtvÃŃmÃ¦lalaust": 7297,
      "ĠstjÃ³rnskipunar": 7298,
      "ĠÃ¾Ã¡tta": 7299,
      "ĠmÃ¡laflokki": 7300,
      "srÃ©tt": 7301,
      "Ġformlega": 7302,
      "ĠAkran": 7303,
      "ĠÃºtsk": 7304,
      "sgeir": 7305,
      "ĠstÃ³rkostlega": 7306,
      "Ġsamtaka": 7307,
      "Ġteknir": 7308,
      "anlegur": 7309,
      "ĠsamgÃ¶ng": 7310,
      "Ġ2013": 7311,
      "Ġveiti": 7312,
      "Ġvetrar": 7313,
      "lunum": 7314,
      "lingu": 7315,
      "Ġbundin": 7316,
      "ĠsÃ©rstÃ¶Ã°u": 7317,
      "ĠSamkepp": 7318,
      "zk": 7319,
      "Ã©tti": 7320,
      "ĠGrÃŃm": 7321,
      "Ġsumri": 7322,
      "Ġatvinnurekstur": 7323,
      "ĠHval": 7324,
      "imar": 7325,
      "ĠnauÃ°synlega": 7326,
      "ĠglÃ¦": 7327,
      "ĠsÃŃÃ°": 7328,
      "ĠBreta": 7329,
      "ĠnorrÃ¦": 7330,
      "Ġunglinga": 7331,
      "ĠlÃŃtum": 7332,
      "Ġkipp": 7333,
      "ĠÃ¡stÃ¦Ã°ulaust": 7334,
      "Ġmeiningin": 7335,
      "ĠÃ¡kvÃ¶rÃ°unum": 7336,
      "ĠbÃºi": 7337,
      "alandi": 7338,
      "80": 7339,
      "Ġbre": 7340,
      "brÃ©fum": 7341,
      "ĠboÃ°i": 7342,
      "vÃŃsitÃ¶lu": 7343,
      "ĠBenediktsson": 7344,
      "fÃ©lagiÃ°": 7345,
      "Ã³ll": 7346,
      "ĠlÃ¶gfesta": 7347,
      "ĠÃ¡lÃ¶gur": 7348,
      "ĠsjÃ¡lfbÃ¦r": 7349,
      "Ġlaunin": 7350,
      "Ġsleppa": 7351,
      "ĠÃ¾riÃ°ju": 7352,
      "Ġpapp": 7353,
      "alan": 7354,
      "Ġ34": 7355,
      "ĠÃ¾jÃ³Ã°veg": 7356,
      "breytni": 7357,
      "ĠhÃ©Ã°an": 7358,
      "ĠdÃ½": 7359,
      "ĠendurgreiÃ°": 7360,
      "ĠniÃ°urskurÃ°": 7361,
      "ĠrÃŃkisfjÃ¡rmÃ¡lum": 7362,
      "runar": 7363,
      "ĠverkefniÃ°": 7364,
      "Ġlitlum": 7365,
      "ĠSkarph": 7366,
      "aÃ°s": 7367,
      "ĠmÃ¡lefna": 7368,
      "ĠrÃ©ttindum": 7369,
      "gerÃ°ir": 7370,
      "get": 7371,
      "lli": 7372,
      "Ġheimi": 7373,
      "ĠSkarphÃ©Ã°": 7374,
      "Ġallmik": 7375,
      "ĠbÃ¦k": 7376,
      "ĠHafa": 7377,
      "Ġvenja": 7378,
      "ĠsÃ³sÃŃ": 7379,
      "Ġhinnar": 7380,
      "Ġtoga": 7381,
      "ĠverÃ°lagi": 7382,
      "krÃ¶f": 7383,
      "ĠBorgf": 7384,
      "ĠrÃ³": 7385,
      "ĠauÃ°velda": 7386,
      "Ġkjarasamningum": 7387,
      "ĠarÃ°s": 7388,
      "Ã¦Ã°ra": 7389,
      "Ġeinang": 7390,
      "ĠmÃ¦likv": 7391,
      "ĠhlutafÃ©lÃ¶g": 7392,
      "HÃºn": 7393,
      "ĠlÃŃtils": 7394,
      "ssur": 7395,
      "ĠTelur": 7396,
      "Ġdrepa": 7397,
      "Ġfarinn": 7398,
      "ĠhÃ¦fi": 7399,
      "ĠslÃŃkrar": 7400,
      "Ġbrau": 7401,
      "tÃŃmi": 7402,
      "stÃ¦Ã°na": 7403,
      "Ġsjerstaklega": 7404,
      "ĠNorÃ°urlanda": 7405,
      "Ġnyt": 7406,
      "-,": 7407,
      "Ġdoll": 7408,
      "Ġkonum": 7409,
      "Ġsvart": 7410,
      "ĠeinstÃ¶ku": 7411,
      "ĠLoks": 7412,
      "ĠfÃ¡ein": 7413,
      "ĠÃ³Ã¾arft": 7414,
      "Ġdeilu": 7415,
      "ĠframtÃŃÃ°ina": 7416,
      "ĠSambands": 7417,
      "Ġeftirspurn": 7418,
      "ĠnÃ¡Ã°i": 7419,
      "Ġyfirlit": 7420,
      "ĠhljÃ³Ã°s": 7421,
      "Ġdagana": 7422,
      "samtÃ¶kin": 7423,
      "Ġtilskipun": 7424,
      "ĠASÃį": 7425,
      "Ã¦kni": 7426,
      "ĠnÃ¦gj": 7427,
      "ĠtÃŃminn": 7428,
      "Ġatvinnuveganna": 7429,
      "ĠmÃ¦ttu": 7430,
      "ĠrÃ¡Ã°stÃ¶funum": 7431,
      "ĠmilljÃ³na": 7432,
      "Ġkeyra": 7433,
      "ĠgarÃ°i": 7434,
      "Ã¡Ã°s": 7435,
      "ĠafleiÃ°ing": 7436,
      "ĠIngi": 7437,
      "ĠkrÃ³nur": 7438,
      "ĠÃ¶ryrk": 7439,
      "ĠEgil": 7440,
      "ĠDÃ³m": 7441,
      "Ġ2011": 7442,
      "ĠsambÃ¦rileg": 7443,
      "Ġforeldrar": 7444,
      "Ġhey": 7445,
      "ĠtÃ¶k": 7446,
      "Ġformenn": 7447,
      "ĠslÃŃkir": 7448,
      "ĠReykjane": 7449,
      "ĠframbÃºÃ°ar": 7450,
      "stÃ¶Ã°va": 7451,
      "ĠfÃ©ll": 7452,
      "reisn": 7453,
      "lig": 7454,
      "ĠtÃŃmabundiÃ°": 7455,
      "ĠinnanrÃŃki": 7456,
      "ĠrÃ¡Ã°herrans": 7457,
      "ĠÃºtvega": 7458,
      "ttist": 7459,
      "ĠSey": 7460,
      "ĠrÃ¡Ã°herrum": 7461,
      "Ġveittur": 7462,
      "Ġsnemma": 7463,
      "Ġbless": 7464,
      "ĠflÃ½ta": 7465,
      "Ġatvinnurekendur": 7466,
      "Ġhj": 7467,
      "Ġsvik": 7468,
      "ĠaÃ°geng": 7469,
      "ferÃ°a": 7470,
      "uleggja": 7471,
      "Ġmatar": 7472,
      "ĠnÃ¦stum": 7473,
      "jÃºkra": 7474,
      "meirihlut": 7475,
      "ĠSvona": 7476,
      "ĠÃ¡ramÃ³tin": 7477,
      "ĠtÃºlkun": 7478,
      "Ġkvart": 7479,
      "ĠfullnÃ¦gja": 7480,
      "Ġ1995": 7481,
      "ĠsnjÃ³": 7482,
      "ĠfrÃ¡leitt": 7483,
      "Ġuppbyggingar": 7484,
      "Ã¾jÃ³nusta": 7485,
      "ĠskoÃ°unum": 7486,
      "ĠsjÃ¡lfstÃ¦tt": 7487,
      "Ġlangur": 7488,
      "ĠOdd": 7489,
      "ĠEnginn": 7490,
      "ĠauÃ°lindir": 7491,
      "Ġhlutdeild": 7492,
      "Ġskortir": 7493,
      "skÃ³lanum": 7494,
      "HÃºnv": 7495,
      "ĠmÃ¡lefnaleg": 7496,
      "turinn": 7497,
      "ĠÃ¡nÃ¦gÃ°ur": 7498,
      "ĠsnÃºast": 7499,
      "lausu": 7500,
      "valla": 7501,
      "istrygginga": 7502,
      "ĠflugvÃ©": 7503,
      "Ġeinir": 7504,
      "Ġeinok": 7505,
      "ĠsjÃ¡varÃºtveginn": 7506,
      "Ãļ": 7507,
      "erfiÃ°": 7508,
      "Ġumfangsmik": 7509,
      "Ġfarnir": 7510,
      "breytingum": 7511,
      "ĠsamanburÃ°": 7512,
      "ĠÃ¡kvÃ¶rÃ°unar": 7513,
      "ĠiÃ°naÃ°arrÃ¡Ã°herra": 7514,
      "Ã¾ings": 7515,
      "Ġbeit": 7516,
      "Ġvarlega": 7517,
      "ĠÃ¡rabil": 7518,
      "ĠAkureyrar": 7519,
      "ĠÃ³skil": 7520,
      "Ġalll": 7521,
      "dÃ³mur": 7522,
      "Ġkynn": 7523,
      "ĠfjÃ¡rmagns": 7524,
      "Ġaustan": 7525,
      "samningsins": 7526,
      "ĠmaÃ°urinn": 7527,
      "ĠnÃ¡ist": 7528,
      "halds": 7529,
      "ĠsjÃ¡varÃºtveginum": 7530,
      "ĠtÃºlka": 7531,
      "Ġflestar": 7532,
      "Ġgreinir": 7533,
      "Ġunga": 7534,
      "ĠrÃŃkisstjÃ³rnarflokk": 7535,
      "aÃ°stÃ¶Ã°u": 7536,
      "ĠÃ³um": 7537,
      "ĠleiÃ°um": 7538,
      "ĠAftur": 7539,
      "Ġ800": 7540,
      "Ġ55": 7541,
      "ĠÃ¡ttum": 7542,
      ").": 7543,
      "amÃ¡liÃ°": 7544,
      "ĠKÃ³pavo": 7545,
      "ĠhÃ¶fÃ°um": 7546,
      "eifl": 7547,
      "ĠdrÃ³": 7548,
      "ĠBjarni": 7549,
      "Ġsvonefnd": 7550,
      "sÃ¶m": 7551,
      "lÃ¶ggjÃ¶f": 7552,
      "Ġframlagi": 7553,
      "ĠÃĵlafs": 7554,
      "sstÃ¶Ã°u": 7555,
      "ĠbÃŃla": 7556,
      "manns": 7557,
      "leiki": 7558,
      "ĠkÃ¶llu": 7559,
      "ĠgjaldtÃ¶ku": 7560,
      "Ġ..": 7561,
      "bundiÃ°": 7562,
      "astÃ©tt": 7563,
      "ĠloÃ°nu": 7564,
      "Ġengir": 7565,
      "ĠSva": 7566,
      "ĠBandarÃŃkin": 7567,
      "nasjÃ³Ã°s": 7568,
      "ĠtÃŃmar": 7569,
      "ĠsamtÃŃm": 7570,
      "hÃ¶nd": 7571,
      "Ġfylgdi": 7572,
      "ottiÃ°": 7573,
      "ĠÃ¡burÃ°ar": 7574,
      "ĠkaupstaÃ°": 7575,
      "stÃ½r": 7576,
      "ĠsamgÃ¶ngunefnd": 7577,
      "Ġkannast": 7578,
      "ĠmetiÃ°": 7579,
      "ĠÃ¾ekkir": 7580,
      "ĠjarÃ°h": 7581,
      "tein": 7582,
      "banki": 7583,
      "gÃ¶ngum": 7584,
      "ĠhagkvÃ¦mni": 7585,
      "Ġhorfast": 7586,
      "Ġ250": 7587,
      "ĠAlÃ¾jÃ³Ã°agjald": 7588,
      "slaus": 7589,
      "Ġleyfis": 7590,
      "greinar": 7591,
      "atil": 7592,
      "Ġhlutfalli": 7593,
      "ĠlÃ¦gi": 7594,
      "ĠMarkmiÃ°": 7595,
      "ĠEyjaf": 7596,
      "ĠverkfrÃ¦Ã°": 7597,
      "ĠkaupstÃ¶Ã°um": 7598,
      "Ġskammt": 7599,
      "aft": 7600,
      "Ġinnflutningi": 7601,
      "ĠSumir": 7602,
      "ĠmilljarÃ°": 7603,
      "EvrÃ³pu": 7604,
      "Ġgegnir": 7605,
      "Ġdrykk": 7606,
      "ĠbrÃ¡Ã°abirgÃ°": 7607,
      "ĠskattgreiÃ°": 7608,
      "Ġrug": 7609,
      "Ġ1989": 7610,
      "ĠbannaÃ°": 7611,
      "hÃºsiÃ°": 7612,
      "ĠstÃ¦rra": 7613,
      "Ġforset": 7614,
      "ĠundirbÃºiÃ°": 7615,
      "ĠembÃ¦ttismanna": 7616,
      "ÃŃbÃº": 7617,
      "ĠtÃ¶f": 7618,
      "Ġka": 7619,
      "Ġframvegis": 7620,
      "Ġbra": 7621,
      "ĠsnÃºiÃ°": 7622,
      "ÃŃsli": 7623,
      "ĠRafmagn": 7624,
      "ĠGer": 7625,
      "ĠrÃ©ttlÃ¡": 7626,
      "ĠhagvÃ¶x": 7627,
      "Ġkafli": 7628,
      "urÃ°": 7629,
      "ĠÃ¾ingflokks": 7630,
      "ĠÃ¾jÃ³Ã°fÃ©lagsins": 7631,
      "ĠsamanburÃ°i": 7632,
      "ĠSigfÃºsson": 7633,
      "ĠVinnu": 7634,
      "eki": 7635,
      "ĠfordÃ¦m": 7636,
      "Ġskiptar": 7637,
      "Ġumsv": 7638,
      "Ã¡lit": 7639,
      "ĠÃ³Ã¾Ã¦g": 7640,
      "met": 7641,
      "ĠlÃ¶ngum": 7642,
      "ĠliÃ°um": 7643,
      "ĠstjÃ³rnmÃ¡lamenn": 7644,
      "Ġhelmingur": 7645,
      "Ġafskipti": 7646,
      "rÃŃkin": 7647,
      "stafanir": 7648,
      "Ġflutninga": 7649,
      "Ġrefsi": 7650,
      "ĠÃ¡kveÃ°ur": 7651,
      "ĠVerÃ°ur": 7652,
      "ĠblÃ¶Ã°um": 7653,
      "ĠSamt": 7654,
      "Ġhelmingi": 7655,
      "ĠbifreiÃ°a": 7656,
      "ĠniÃ°urstÃ¶Ã°um": 7657,
      "ĠstÃ³rlega": 7658,
      "ÃŃsil": 7659,
      "ĠMorgunblaÃ°inu": 7660,
      "Ãºrat": 7661,
      "slynd": 7662,
      "ĠefnahagssvÃ¦Ã°i": 7663,
      "unniÃ°": 7664,
      "ĠauÃ°veldara": 7665,
      "bjar": 7666,
      "Ã¦Ã°ar": 7667,
      "jÃ³narmiÃ°": 7668,
      "ĠHafnarfirÃ°i": 7669,
      "leysis": 7670,
      "Ġ1985": 7671,
      "Ġ--": 7672,
      "kerfis": 7673,
      "ĠbrjÃ³": 7674,
      "ĠÃ³heimil": 7675,
      "ĠellilÃŃf": 7676,
      "ĠhÃ¦starÃ©ttar": 7677,
      "ĠMikil": 7678,
      "Ġtekjustofna": 7679,
      "ĠfÃ©lagiÃ°": 7680,
      "liggjandi": 7681,
      "sambandi": 7682,
      "ĠVerÃ°i": 7683,
      "Ã¡Ã¦tlanir": 7684,
      "gjaldi": 7685,
      "ĠHeim": 7686,
      "Ġstundu": 7687,
      "ĠTill": 7688,
      "skjara": 7689,
      "aÃ°ild": 7690,
      "umhverfi": 7691,
      "gjÃ¶ldin": 7692,
      "ĠÃ¾arfir": 7693,
      "ĠÃ¡hÃ¦tt": 7694,
      "ĠGetur": 7695,
      "stefna": 7696,
      "Ġnokkurri": 7697,
      "ĠHr": 7698,
      "ĠhrÃ¡efni": 7699,
      "ĠeinhliÃ°a": 7700,
      "Ġmunar": 7701,
      "ĠniÃ°ri": 7702,
      "stil": 7703,
      "ĠYfir": 7704,
      "ĠbjÃ¶rgunar": 7705,
      "ĠviÃ°amik": 7706,
      "ĠtryggÃ°": 7707,
      "ĠlÃ¶gregl": 7708,
      "ĠlÃ¡nin": 7709,
      "Ġskyldum": 7710,
      "Ġsyn": 7711,
      "arfar": 7712,
      "Ġinna": 7713,
      "ĠKÃ¡": 7714,
      "ĠundanÃ¾eg": 7715,
      "ĠaugljÃ³slega": 7716,
      "dir": 7717,
      "ĠGest": 7718,
      "ĠÃºtvarps": 7719,
      "hluti": 7720,
      "flugv": 7721,
      "gari": 7722,
      "ĠtekjuÃ¶flun": 7723,
      "Ġfinnist": 7724,
      "Ġbankinn": 7725,
      "ĠSkal": 7726,
      "ĠhlÃ©": 7727,
      "vilj": 7728,
      "ĠlangtÃŃma": 7729,
      "Ġ1981": 7730,
      "skilyrÃ°i": 7731,
      "ĠSiglufirÃ°i": 7732,
      "eyjar": 7733,
      "ĠfiskveiÃ°i": 7734,
      "lista": 7735,
      "lagan": 7736,
      "ĠpÃ³litÃŃsku": 7737,
      "ĠbrotiÃ°": 7738,
      "alÃŃ": 7739,
      "Ġverkamenn": 7740,
      "lendis": 7741,
      "ĠskÃ³lag": 7742,
      "Ġhlutanum": 7743,
      "Ġreynir": 7744,
      "Ã©l": 7745,
      "forsrh": 7746,
      "kkert": 7747,
      "ĠGarÃ°ar": 7748,
      "Ġmundum": 7749,
      "ĠlÃ¶ng": 7750,
      "gÃ¦f": 7751,
      "ĠByggÃ°astofnun": 7752,
      "Ġlaunak": 7753,
      "stjÃ³rnin": 7754,
      "ĠFriÃ°rik": 7755,
      "endurskoÃ°un": 7756,
      "rÃ¦kt": 7757,
      "Ġgla": 7758,
      "ĠStarf": 7759,
      "rÃ©ttinda": 7760,
      "esen": 7761,
      "Ġtilgangur": 7762,
      "ĠEng": 7763,
      "ĠauÃ°linda": 7764,
      "Ã¡tta": 7765,
      "Ġdvalar": 7766,
      "endingu": 7767,
      "Ġstarfsem": 7768,
      "arframkvÃ¦md": 7769,
      "ĠhlutabrÃ©f": 7770,
      "Ġskatti": 7771,
      "sly": 7772,
      "fremur": 7773,
      "enti": 7774,
      "ĠframsÃ¶gum": 7775,
      "Ġreist": 7776,
      "ĠskipaÃ°ur": 7777,
      "ĠstÃ¦kkun": 7778,
      "ĠframsÃ³knarmanna": 7779,
      "ĠTÃŃm": 7780,
      "ĠkjÃ¶": 7781,
      "ĠviÃ°urkenni": 7782,
      "Ġstytta": 7783,
      "Ġmyn": 7784,
      "kunn": 7785,
      "sleiÃ°": 7786,
      "Ġerlendar": 7787,
      "ĠviÃ°urkennd": 7788,
      "ĠÃŀÃ³rÃ°arson": 7789,
      "ĠbÃ¡ga": 7790,
      "Ġvinni": 7791,
      "Ġbyggjast": 7792,
      "Ġhafin": 7793,
      "ĠlÃ¡ntÃ¶k": 7794,
      "grundvÃ¶ll": 7795,
      "ĠÃĸr": 7796,
      "bÃºnaÃ°ar": 7797,
      "ĠFyrirspyr": 7798,
      "Ġ42": 7799,
      "ĠhlotiÃ°": 7800,
      "Ġlokin": 7801,
      "ĠkjÃ³senda": 7802,
      "ĠÃŃslenskir": 7803,
      "Ġverulegur": 7804,
      "ĠgleÃ°": 7805,
      "Ġopinberlega": 7806,
      "ĠeyÃ°ileg": 7807,
      "Ġforsend": 7808,
      "Ġminsta": 7809,
      "ĠstÃ½ri": 7810,
      "Ġfullyrt": 7811,
      "gleik": 7812,
      "Ġreynist": 7813,
      "ĠkvÃ³t": 7814,
      "ĠFyrirspyrjandi": 7815,
      "Ã¡her": 7816,
      "Ġlaggir": 7817,
      "ĠKvenn": 7818,
      "Ġ1975": 7819,
      "ĠveiÃ°arf": 7820,
      "Ġframangrein": 7821,
      "ĠfullyrÃ°i": 7822,
      "ÃºÃ°vÃŃk": 7823,
      "flugvelli": 7824,
      "kob": 7825,
      "Ġtalinn": 7826,
      "ĠBretlandi": 7827,
      "Ġhagur": 7828,
      "Ġreyndi": 7829,
      "Ġlagafrv": 7830,
      "ĠakkÃºrat": 7831,
      "ĠlÃ¦knar": 7832,
      "Ġtilkynnt": 7833,
      "ĠendurgreiÃ°slu": 7834,
      "ĠdÃ³mara": 7835,
      "ĠafleiÃ°ingum": 7836,
      "ĠnÃ½tur": 7837,
      "prÃ³f": 7838,
      "ĠSvavar": 7839,
      "rÃ³ma": 7840,
      "indin": 7841,
      "ĠvÃ¶rugjald": 7842,
      "Ġforustumenn": 7843,
      "atthÃŃas": 7844,
      "Ã¦kkanir": 7845,
      "ĠfÃ³Ã°ur": 7846,
      "arfyrir": 7847,
      "kis": 7848,
      "Ġgilt": 7849,
      "Ġskattleggja": 7850,
      "ĠÃ¾ingskÃ¶pum": 7851,
      "ĠHÃ¦starÃ©ttar": 7852,
      "ĠDal": 7853,
      "ĠframkvÃ¦mt": 7854,
      "Ġvildum": 7855,
      "vanda": 7856,
      "Ġ700": 7857,
      "mÃ¦tt": 7858,
      "ĠlÃ¡nsfÃ©": 7859,
      "Ġbankar": 7860,
      "Ġlauk": 7861,
      "pen": 7862,
      "ĠhÃ¡ar": 7863,
      "Ġfyrirmyndar": 7864,
      "Ġeini": 7865,
      "ĠinnlÃ¡n": 7866,
      "Ġrekur": 7867,
      "starfi": 7868,
      "ĠbyrÃ°ar": 7869,
      "bÃºiÃ°": 7870,
      "ĠFrumvarpiÃ°": 7871,
      "ĠlÃ½Ã°": 7872,
      "ĠrÃŃkisreikning": 7873,
      "ĠtÃ¡": 7874,
      "ĠFor": 7875,
      "Ġtaldar": 7876,
      "Ġkrafti": 7877,
      "ĠNokk": 7878,
      "ĠSeÃ°labankanum": 7879,
      "ĠHermannsson": 7880,
      "gÃ¶ngur": 7881,
      "Ġmisnot": 7882,
      "Ġnaum": 7883,
      "ĠEngu": 7884,
      "ĠÃ¶rstu": 7885,
      "luÃ°": 7886,
      "Ġskildist": 7887,
      "Ġ39": 7888,
      "shrepp": 7889,
      "ĠÃ¾yki": 7890,
      "ĠdÃ½rt": 7891,
      "stÃ³r": 7892,
      "Ġ1000": 7893,
      "ĠskÃ³gr": 7894,
      "ĠskÃ½rari": 7895,
      "ĠNorÃ°urlÃ¶ndunum": 7896,
      "Ġ1971": 7897,
      "Ġy": 7898,
      "Ġgeys": 7899,
      "ĠÃºthlutaÃ°": 7900,
      "ĠÃ¡hyggjuefni": 7901,
      "ĠhagaÃ°": 7902,
      "Ġtrn": 7903,
      "ĠFramsÃ³knarflokkurinn": 7904,
      "hlÃ©": 7905,
      "ĠtiltekiÃ°": 7906,
      "Ãįsf": 7907,
      "ĠgreinargerÃ°inni": 7908,
      "ĠValdimar": 7909,
      "manni": 7910,
      "ĠtÃ©": 7911,
      "Ġskipin": 7912,
      "aÃ°ili": 7913,
      "ĠÃ¡skil": 7914,
      "Ġ1986": 7915,
      "ĠrÃ¶kstudd": 7916,
      "ĠfÃ¡menn": 7917,
      "Ġbreytingin": 7918,
      "ĠrÃ©ttinda": 7919,
      "odd": 7920,
      "sÃ¦tt": 7921,
      "ĠtÃ¦kju": 7922,
      "Ġmisskilning": 7923,
      "Ġfengin": 7924,
      "Ã½slu": 7925,
      "ĠsvipuÃ°um": 7926,
      "minn": 7927,
      "Ġ2003": 7928,
      "ĠEkkert": 7929,
      "ĠÃ¡kÃ¦r": 7930,
      "ĠSÃ¶muleiÃ°is": 7931,
      "ĠjafnaÃ°i": 7932,
      "leiÃ°slu": 7933,
      "afslÃ¡tt": 7934,
      "estum": 7935,
      "ĠÃ¾ingum": 7936,
      "Ġbreytist": 7937,
      "Ġgreiddar": 7938,
      "ĠVÃ¦ri": 7939,
      "ĠÃ¾urf": 7940,
      "Ġfynd": 7941,
      "Ġberast": 7942,
      "ĠdÃ½rari": 7943,
      "ĠtÃ¶luver": 7944,
      "Ġhugur": 7945,
      "Ġtilhneig": 7946,
      "ĠhÃ©raÃ°s": 7947,
      "nÃ¡mi": 7948,
      "Ġhi": 7949,
      "ĠfÃ©lÃ¶gum": 7950,
      "ĠBrtt": 7951,
      "verslun": 7952,
      "ĠÃ¡kveÃ°nu": 7953,
      "ĠveiÃ°igjald": 7954,
      "ĠmikilvÃ¦gur": 7955,
      "Ġheimilum": 7956,
      "ĠgjaldÃ¾rota": 7957,
      "skild": 7958,
      "ĠleiÃ°arljÃ³": 7959,
      "nauÃ°syn": 7960,
      "ĠÃ¡hyggjum": 7961,
      "ĠskÃ½rslum": 7962,
      "Ġinnkaup": 7963,
      "ÃŃrtein": 7964,
      "ĠHiÃ°": 7965,
      "vet": 7966,
      "Ġykkur": 7967,
      "Ġ1982": 7968,
      "Ġskj": 7969,
      "ĠpÃ³litÃŃskt": 7970,
      "Ġauga": 7971,
      "ĠFjmrh": 7972,
      "ĠhÃ¦kkuÃ°": 7973,
      "13": 7974,
      "Ġkafl": 7975,
      "skra": 7976,
      "Ġafnot": 7977,
      "imskip": 7978,
      "ĠvÃŃsitÃ¶l": 7979,
      "ĠnÃ½tingar": 7980,
      "ĠdÃ³msmÃ¡larÃ¡Ã°herra": 7981,
      "Ġopinberu": 7982,
      "smÃ¡lin": 7983,
      "degi": 7984,
      "ĠÃ¾Ã¡tttak": 7985,
      "ĠÃŀÃ³rar": 7986,
      "onur": 7987,
      "ĠmeginatriÃ°um": 7988,
      "Ġmenntunar": 7989,
      "ĠfÃ©lmrn": 7990,
      "ĠvÃ©lar": 7991,
      "ĠskÃ¶mmu": 7992,
      "ĠkostnaÃ°inn": 7993,
      "bjÃ³Ã°": 7994,
      "sstÃ¶Ã°": 7995,
      "gurum": 7996,
      "ĠkallaÃ°i": 7997,
      "ĠlÃŃkam": 7998,
      "ÃºÃ°ar": 7999,
      "Ġflutningi": 8000,
      "ĠfjÃ¶lskyldur": 8001,
      "Ġ1987": 8002,
      "ĠÃ¾rÃ½st": 8003,
      "ĠÃĸssur": 8004,
      "ĠfÃ¦kkaÃ°": 8005,
      "Ġlent": 8006,
      "Ġ43": 8007,
      "ĠÃŀorlÃ¡": 8008,
      "Ġlengst": 8009,
      "ĠnefndarÃ¡litinu": 8010,
      "Ġmengunar": 8011,
      "smanni": 8012,
      "Ġnefnda": 8013,
      "Ġmyndast": 8014,
      "Ã¡kvÃ¦Ã°um": 8015,
      "dur": 8016,
      "rast": 8017,
      "Ġflokkanna": 8018,
      "amarkaÃ°": 8019,
      "firÃ°inga": 8020,
      "SR": 8021,
      "ĠsparnaÃ°ur": 8022,
      "ĠheilbrigÃ°isÃ¾jÃ³nust": 8023,
      "ĠbifreiÃ°ar": 8024,
      "ĠHoll": 8025,
      "ĠframlÃ¶gum": 8026,
      "Ġnemi": 8027,
      "ĠtÃ¦kjum": 8028,
      "70": 8029,
      "rÃ¡Ã°s": 8030,
      "ĠlÃŃfr": 8031,
      "ĠÃ¡lyktar": 8032,
      "Ġev": 8033,
      "hÃ¡l": 8034,
      "alaganna": 8035,
      "ib": 8036,
      "Ġgist": 8037,
      "ĠstundaÃ°": 8038,
      "Ġlandsf": 8039,
      "ĠdrÃ¶g": 8040,
      "hÃ¦tti": 8041,
      "ĠfjÃ¡rmÃ¡lum": 8042,
      "Ġtilnef": 8043,
      "Ġflokkurinn": 8044,
      "ĠbankarÃ¡Ã°": 8045,
      "ĠrÃ¡Ã°gjafar": 8046,
      "Ġ2012": 8047,
      "Ġskamms": 8048,
      "skir": 8049,
      "Ġbarst": 8050,
      "Ġerl": 8051,
      "ĠhÃ¦gri": 8052,
      "ĠrÃŃkt": 8053,
      "ĠrÃŃkisborgar": 8054,
      "Ġgreiddi": 8055,
      "ĠfÃ³lksf": 8056,
      "ĠfiskveiÃ°il": 8057,
      "ĠnÃºtÃŃm": 8058,
      "ĠÃŀorlÃ¡k": 8059,
      "ĠbÃ¶nkum": 8060,
      "ferÃ°is": 8061,
      "ĠumrÃ¦Ã°uefni": 8062,
      "Ġatvinnurekstri": 8063,
      "sstefnu": 8064,
      "Ġskapar": 8065,
      "Ã¶ndin": 8066,
      "ĠrÃ¦ktunar": 8067,
      "Ġlandhelg": 8068,
      "Ġreyndist": 8069,
      "ĠniÃ°urgreiÃ°": 8070,
      "samningi": 8071,
      "ĠSuÃ°urnesjum": 8072,
      "Ġlaggirnar": 8073,
      "ĠveiÃ°um": 8074,
      "Ġbekk": 8075,
      "ĠhagsbÃ³ta": 8076,
      "afli": 8077,
      "ĠandvÃŃgur": 8078,
      "bifreiÃ°": 8079,
      "afjarÃ°ar": 8080,
      "ĠnÃŃu": 8081,
      "Ġvitnesk": 8082,
      "Ġkynnu": 8083,
      "fund": 8084,
      "ĠÃŃslenskan": 8085,
      "Ġtor": 8086,
      "verz": 8087,
      "Ġfundinum": 8088,
      "lausa": 8089,
      "ĠtilbÃºnir": 8090,
      "Ġeinfalda": 8091,
      "eyk": 8092,
      "ĠeinrÃ³ma": 8093,
      "Ġatvinnurekenda": 8094,
      "ĠumsÃ¶gnum": 8095,
      "ĠÃ¾Ã¶rfin": 8096,
      "ÃŀaÃ°": 8097,
      "ĠBjÃ¶rgv": 8098,
      "ĠnÃ¡Ã°ist": 8099,
      "varnar": 8100,
      "Ġraforkum": 8101,
      "ĠÃ¦vin": 8102,
      "ĠumsÃ¦k": 8103,
      "atna": 8104,
      "vexti": 8105,
      "ĠsÃ¡l": 8106,
      "Ġhvat": 8107,
      "Ġfullgild": 8108,
      "ĠÃ½tar": 8109,
      "ĠvÃ¶rÃ°": 8110,
      "Ã¾rÃ³unar": 8111,
      "Ġrakti": 8112,
      "ĠgjÃ¶ldum": 8113,
      "Ġbyg": 8114,
      "ĠstjÃ³rnmÃ¡lum": 8115,
      "ĠÃĸg": 8116,
      "Ġinnlendum": 8117,
      "reikningi": 8118,
      "skapur": 8119,
      "ĠfjÃ¡rfesting": 8120,
      "ĠÃ³lÃŃkindum": 8121,
      "Ġundantekningar": 8122,
      "Ġstandast": 8123,
      "Ġalmennra": 8124,
      "Ġalvarleg": 8125,
      "Ġgefnar": 8126,
      "jelag": 8127,
      "ĠstjÃ³rnina": 8128,
      "Ġ1976": 8129,
      "Ġkvar": 8130,
      "ĠÃŀrÃ³": 8131,
      "Ġmissirum": 8132,
      "Ġodd": 8133,
      "Ġhly": 8134,
      "veitenda": 8135,
      "jel": 8136,
      "ĠlÃ¶greglum": 8137,
      "uppbÃ³t": 8138,
      "iley": 8139,
      "ĠviÃ°skiptal": 8140,
      "Ġlyfj": 8141,
      "stÃ¶f": 8142,
      "ĠÃ¡litiÃ°": 8143,
      "ĠrÃŃf": 8144,
      "ĠÃºtskÃ½r": 8145,
      "Ġam": 8146,
      "Ġsa": 8147,
      "ĠfyrirgreiÃ°slu": 8148,
      "ĠlandbÃºnaÃ°arafur": 8149,
      "Ġgagna": 8150,
      "sstjÃ³rnar": 8151,
      "ĠEimskip": 8152,
      "ĠslegiÃ°": 8153,
      "ĠstjÃ³rnlaga": 8154,
      "lÃ½singar": 8155,
      "ĠjarÃ°ar": 8156,
      "Ġvind": 8157,
      "byggja": 8158,
      "Ġeinstaklingur": 8159,
      "ĠBÃºnaÃ°arfÃ©lag": 8160,
      "Ġdagsins": 8161,
      "skostnaÃ°": 8162,
      "ĠSeg": 8163,
      "ĠÃģkv": 8164,
      "Ġ1959": 8165,
      "ĠviÃ°rÃ¦Ã°": 8166,
      "ugjÃ¶ld": 8167,
      "ĠMeÃ°al": 8168,
      "bÃ¡t": 8169,
      "ĠstÃ³l": 8170,
      "ĠsÃ¦ta": 8171,
      "ĠVo": 8172,
      "ĠReykjavÃŃkurborg": 8173,
      "byggÃ°": 8174,
      "Ġhlaupa": 8175,
      "ĠÃŃbÃºar": 8176,
      "Ġopinberar": 8177,
      "Ġloksins": 8178,
      "Ġtekjustofn": 8179,
      "anefndin": 8180,
      "veiÃ°a": 8181,
      "ĠHlut": 8182,
      "Ġbornar": 8183,
      "Ġtillits": 8184,
      "ĠmannrÃ©ttindi": 8185,
      "jÃ¶rÃ°ur": 8186,
      "Ġsetji": 8187,
      "ĠstÃ¶Ã°una": 8188,
      "ĠMennt": 8189,
      "anefndarinnar": 8190,
      "ĠlangaÃ°i": 8191,
      "ĠmÃ¡lflutningur": 8192,
      "14": 8193,
      "Ġsaga": 8194,
      "laug": 8195,
      "Ġharma": 8196,
      "Ġframleng": 8197,
      "ĠsÃ½slunefnd": 8198,
      "gjÃ¶rÃ°": 8199,
      "ĠVegagerÃ°": 8200,
      "ĠtÃ¶lvu": 8201,
      "aÃ°stoÃ°": 8202,
      "jef": 8203,
      "Ġlandam": 8204,
      "ĠhÃºsnÃ¦Ã°is": 8205,
      "Ġveltu": 8206,
      "ĠskerÃ°ingu": 8207,
      "ĠBÃºnaÃ°arbank": 8208,
      "ĠbÃºvÃ¶ru": 8209,
      "ĠknÃº": 8210,
      "ĠsamhljÃ³Ã°a": 8211,
      "ĠferÃ°amenn": 8212,
      "ĠÂ»": 8213,
      "hlÃŃ": 8214,
      "Ġstarfsmann": 8215,
      "Ġkunn": 8216,
      "ĠskerÃ°ingar": 8217,
      "Ġfyrirspyrjanda": 8218,
      "ĠviÃ°eigandi": 8219,
      "Ġmeina": 8220,
      "ĠGuÃ°jÃ³n": 8221,
      "Ġ1993": 8222,
      "skyni": 8223,
      "Ġhreyft": 8224,
      "ĠnÃ½rrar": 8225,
      "ĠhÃ¡skÃ³lans": 8226,
      "vopn": 8227,
      "ĠdÃ³mstÃ³la": 8228,
      "esson": 8229,
      "Ġsameinast": 8230,
      "ĠdreifbÃ½li": 8231,
      "ĠaÃ°skil": 8232,
      "Ġafskrif": 8233,
      "Ġafli": 8234,
      "Ġvaxa": 8235,
      "ĠLandhelgis": 8236,
      "ĠÃ³vissa": 8237,
      "ĠnÃ¡um": 8238,
      "aleyfi": 8239,
      "ĠStaÃ°reynd": 8240,
      "Ġfug": 8241,
      "Ġmyndu": 8242,
      "ĠviÃ°miÃ°unar": 8243,
      "18": 8244,
      "Â«": 8245,
      "jara": 8246,
      "Ġmak": 8247,
      "lausir": 8248,
      "orÃ°um": 8249,
      "ĠfjÃ¡rmagnst": 8250,
      "ĠVÃŃ": 8251,
      "Ġ1972": 8252,
      "eygja": 8253,
      "farir": 8254,
      "ĠW": 8255,
      "ĠÃ¶fl": 8256,
      "ĠviÃ°skmrh": 8257,
      "ĠÃ¡rÃ©tta": 8258,
      "ĠsvÃ¶rum": 8259,
      "sÃŃn": 8260,
      "fÃ©lÃ¶gum": 8261,
      "ĠfÃ©lagsmÃ¡l": 8262,
      "Ġfundist": 8263,
      "fandi": 8264,
      "ĠvonbrigÃ°um": 8265,
      "ĠrÃ¡Ã°stafaÃ°": 8266,
      "ĠDag": 8267,
      "Ġvi": 8268,
      "Ġeinb": 8269,
      "heimilda": 8270,
      "svÃ¦Ã°isins": 8271,
      "ĠstÃ³ran": 8272,
      "ĠÃ¾dm": 8273,
      "anlegu": 8274,
      "ĠgÃ¶mul": 8275,
      "geirsson": 8276,
      "Ġgetu": 8277,
      "Ġsess": 8278,
      "ĠlandsframleiÃ°slu": 8279,
      "Ġplagg": 8280,
      "Ġminnzt": 8281,
      "ĠRÃºss": 8282,
      "Ġgerzt": 8283,
      "Ã³ka": 8284,
      "Ġnemendum": 8285,
      "ĠtilhÃ¶gun": 8286,
      "bert": 8287,
      "ĠÃ³breyttu": 8288,
      "Ġbirta": 8289,
      "Ġkall": 8290,
      "ĠhÃ¦st": 8291,
      "ĠkostaÃ°": 8292,
      "Ã¾inginu": 8293,
      "endinga": 8294,
      "ĠsamningaviÃ°": 8295,
      "Ġtrygginga": 8296,
      "ĠgrÃ³Ã°a": 8297,
      "Ġsveigjan": 8298,
      "meti": 8299,
      "Ġfresti": 8300,
      "Ġsko": 8301,
      "ĠnÃ¡mskeiÃ°": 8302,
      "Ġstefn": 8303,
      "Ġheimilin": 8304,
      "ĠÃįs": 8305,
      "ĠjarÃ°r": 8306,
      "Ġgri": 8307,
      "ĠRannsÃ³k": 8308,
      "Ġspenn": 8309,
      "ĠannarsstaÃ°ar": 8310,
      "ĠÃŃvil": 8311,
      "ĠRafmagnsveit": 8312,
      "sneyti": 8313,
      "ĠgengislÃ¦kkun": 8314,
      "Ġfleirum": 8315,
      "Ġri": 8316,
      "Ġframfylgja": 8317,
      "vÃŃsun": 8318,
      "ĠJÃ³nas": 8319,
      "ĠrÃ¡Ã°stafana": 8320,
      "ĠmÃ¶rkuÃ°um": 8321,
      "bÃºnaÃ°i": 8322,
      "ĠÃ¾jÃ³Ã°gar": 8323,
      "upphÃ¦Ã°": 8324,
      "ĠSann": 8325,
      "Ġbili": 8326,
      "ĠvarnarliÃ°": 8327,
      "ĠundirbÃºningur": 8328,
      "Ġtilgangurinn": 8329,
      "svÃ¦Ã°iÃ°": 8330,
      "flutnings": 8331,
      "Ġvetri": 8332,
      "ĠSjÃ³": 8333,
      "virkja": 8334,
      "Ġorkupa": 8335,
      "ĠÃ¾ingflokki": 8336,
      "trygginga": 8337,
      "ĠgrÃ¦ns": 8338,
      "Ã¡hrifum": 8339,
      "merk": 8340,
      "Ġskilvirk": 8341,
      "ĠMargir": 8342,
      "Ã°aust": 8343,
      "Ġalgert": 8344,
      "ĠrÃŃkjandi": 8345,
      "Ġframfara": 8346,
      "sagnar": 8347,
      "ĠstrÃŃÃ°s": 8348,
      "Ã¾ekkingu": 8349,
      "Ġsitji": 8350,
      "ĠskrÃ½": 8351,
      "Ġtexta": 8352,
      "ĠlÃ½Ã°veldis": 8353,
      "ĠfyrirtÃ¦kinu": 8354,
      "ĠLax": 8355,
      "Ġsegjast": 8356,
      "bjÃ¶r": 8357,
      "alegu": 8358,
      "Ġkort": 8359,
      "fry": 8360,
      "Ġskif": 8361,
      "ĠvegagerÃ°": 8362,
      "ĠsjÃ³nvarps": 8363,
      "agreiÃ°slur": 8364,
      "ĠJakob": 8365,
      "kvÃ¶ld": 8366,
      "Ġgjaldeyr": 8367,
      "fyrirtÃ¦kja": 8368,
      "Ġ44": 8369,
      "ĠVilhjÃ¡l": 8370,
      "ĠfÃ³stur": 8371,
      "Ġpa": 8372,
      "llustu": 8373,
      "laganna": 8374,
      "Ġskilur": 8375,
      "Ġdreift": 8376,
      "mennt": 8377,
      "ĠeÃ°lilegast": 8378,
      "ĠmiÃ°ast": 8379,
      "ĠgjaldskrÃ¡": 8380,
      "ĠrÃ¦ddum": 8381,
      "sÃ¡ttmÃ¡la": 8382,
      "rakk": 8383,
      "Ã¶tur": 8384,
      "spr": 8385,
      "eitanlega": 8386,
      "ĠÃ³Ã¾Ã¶rf": 8387,
      "ĠpÃ³litÃŃskum": 8388,
      "Ġhlaut": 8389,
      "ĠLjÃ³st": 8390,
      "alof": 8391,
      "ĠorÃ°aÃ°i": 8392,
      "ĠÃįslandsbanka": 8393,
      "Ġsumt": 8394,
      "Ġmannvirki": 8395,
      "Ġhindra": 8396,
      "eftirlitsins": 8397,
      "ĠvÃŃÃ°ast": 8398,
      "ĠÃ¾rÃ¡": 8399,
      "slÃ¶gum": 8400,
      "ĠvantaÃ°i": 8401,
      "Ġrennur": 8402,
      "ĠeignarrÃ©tt": 8403,
      "skipa": 8404,
      "Ġmarkviss": 8405,
      "ĠKjartan": 8406,
      "uliÃ°": 8407,
      "Ġhorfi": 8408,
      "kosti": 8409,
      "ĠkommÃºnist": 8410,
      "ĠSkagf": 8411,
      "ĠNiÃ°urstaÃ°an": 8412,
      "ĠmÃ¦last": 8413,
      "ĠundanÃ¾Ã¡gur": 8414,
      "ĠhagsmunamÃ¡l": 8415,
      "ĠalÃ¾ingismenn": 8416,
      "ĠafurÃ°ir": 8417,
      "Ġreynast": 8418,
      "ĠskÃ¡l": 8419,
      "ĠReyn": 8420,
      "aleik": 8421,
      "Ġbankanum": 8422,
      "einka": 8423,
      "ĠÃŃslensks": 8424,
      "Ġskorti": 8425,
      "hverfis": 8426,
      "ĠMiÃ°aÃ°": 8427,
      "ĠLÃºÃ°vÃŃk": 8428,
      "Ġgefnu": 8429,
      "ĠaÃ°stÃ¦Ã°na": 8430,
      "Ġstjfrv": 8431,
      "bÃ¡l": 8432,
      "ĠmÃ¡lsgr": 8433,
      "ĠKat": 8434,
      "Ġ1998": 8435,
      "sskip": 8436,
      "ĠrÃ¡Ã°sins": 8437,
      "Ġskipasm": 8438,
      "ĠfullnÃ¦gt": 8439,
      "Ġtiltekin": 8440,
      "Ġminnar": 8441,
      "Ġ1961": 8442,
      "ĠÃŃslenzkra": 8443,
      "ĠÃŀvert": 8444,
      "Ġpl": 8445,
      "Ġ1973": 8446,
      "ĠBretar": 8447,
      "ĠÃ¾ola": 8448,
      "Ġdreng": 8449,
      "Ġsamkomulags": 8450,
      "mÃ¡lunum": 8451,
      "ĠstjÃ³rnarmeirihlut": 8452,
      "ĠÃºrslit": 8453,
      "Ġatvmrh": 8454,
      "Ġstutta": 8455,
      "ĠÃ³fyrir": 8456,
      "net": 8457,
      "ĠdÃ¶n": 8458,
      "ĠsÃ¶lum": 8459,
      "Ġrenni": 8460,
      "Ã¶fnum": 8461,
      "ĠsvipuÃ°": 8462,
      "Ġveitti": 8463,
      "Ġgreiddu": 8464,
      "ĠlandbÃºnaÃ°arrÃ¡Ã°herra": 8465,
      "ĠlaunakjÃ¶r": 8466,
      "Ã¦nt": 8467,
      "Ġvop": 8468,
      "afÃ©lags": 8469,
      "ĠhafnaÃ°": 8470,
      "tust": 8471,
      "ĠSkÃº": 8472,
      "ĠkjÃ¶lfariÃ°": 8473,
      "ĠÃ¾rÃ³unin": 8474,
      "Ġskortur": 8475,
      "Ġgreiddur": 8476,
      "ĠÃ³trÃºlega": 8477,
      "ĠaÃ°ferÃ°ir": 8478,
      "ĠÃ³skar": 8479,
      "Ġsameiginlegu": 8480,
      "ĠfullorÃ°": 8481,
      "Ã³tta": 8482,
      "ĠlÃŃtt": 8483,
      "ĠlÃ¡nast": 8484,
      "embÃ¦tt": 8485,
      "Ġmengun": 8486,
      "ĠÃ³heppilegt": 8487,
      "Ġ1999": 8488,
      "ĠÃ¾jÃ³na": 8489,
      "ĠgÃ³Ã°ra": 8490,
      "Ġmisskilningi": 8491,
      "ĠforgangsrÃ¶Ã°un": 8492,
      "Ġlandhelgi": 8493,
      "fÃ©laganna": 8494,
      "mÃ¶rkun": 8495,
      "ĠnÃ½ir": 8496,
      "Ġhlutar": 8497,
      "ba": 8498,
      "Ã¾n": 8499,
      "ĠBald": 8500,
      "samningum": 8501,
      "Ġ1994": 8502,
      "sli": 8503,
      "ĠÃ³dÃ½rari": 8504,
      "fÃ¦rt": 8505,
      "ĠfÃ¦tur": 8506,
      "ĠÃºtlanda": 8507,
      "ĠstÃ¦kka": 8508,
      "ĠsnÃºist": 8509,
      "lausnar": 8510,
      "igur": 8511,
      "isst": 8512,
      "ĠhagnaÃ°": 8513,
      "Ġstakk": 8514,
      "Ġsamsvar": 8515,
      "ndum": 8516,
      "ĠfrÃ©ttum": 8517,
      "ĠrÃ³tt": 8518,
      "sakir": 8519,
      "ĠumsÃ³kn": 8520,
      "Ġhreyfingarinnar": 8521,
      "Ġ2004": 8522,
      "ĠsjÃ³Ã°inn": 8523,
      "Ã¶gunum": 8524,
      "eiÃ°i": 8525,
      "ĠhÃ¦kkaÃ°i": 8526,
      "Ġholl": 8527,
      "ĠkÃ½s": 8528,
      "ĠmÃ¡lsh": 8529,
      "16": 8530,
      "ĠPÃ³st": 8531,
      "ĠdÃ½ralÃ¦k": 8532,
      "ĠmÃŃnÃºt": 8533,
      "ĠmarkmiÃ°iÃ°": 8534,
      "ĠnÃ¡granna": 8535,
      "ĠJÃ³ns": 8536,
      "ĠlÃŃfeyrissjÃ³Ã°a": 8537,
      "Ã°ra": 8538,
      "ĠstjÃ³rnarflokkarnir": 8539,
      "SRB": 8540,
      "Ġgull": 8541,
      "ĠforstjÃ³ra": 8542,
      "ĠDanir": 8543,
      "ĠfjÃ¡rmÃ¡lafyrir": 8544,
      "ĠsjÃ¡varÃºtvegurinn": 8545,
      "Ġfullviss": 8546,
      "ĠfjÃ¡rlagagerÃ°": 8547,
      "Ġbari": 8548,
      "ĠfÃ©llu": 8549,
      "ĠrÃ©ttum": 8550,
      "Ġumtalsver": 8551,
      "ĠÃ¡skorun": 8552,
      "Ġkaupi": 8553,
      "Ġ120": 8554,
      "Ġneins": 8555,
      "ĠÃ³viÃ°unandi": 8556,
      "ĠhÃ¶ldum": 8557,
      "ĠlÃŃtinn": 8558,
      "ĠÃĨtl": 8559,
      "herrann": 8560,
      "ĠGyl": 8561,
      "Ġvafasamt": 8562,
      "skapa": 8563,
      "ĠlÃ¦kkunar": 8564,
      "lÃŃnu": 8565,
      "snÃº": 8566,
      "rÃ¶k": 8567,
      "to": 8568,
      "ĠdÃ³mur": 8569,
      "dÃ³ms": 8570,
      "halla": 8571,
      "Ġlangs": 8572,
      "Ġ67": 8573,
      "ĠÃģsgeir": 8574,
      "ĠeyÃ°i": 8575,
      "ĠforrÃ¦Ã°i": 8576,
      "aflÃ³a": 8577,
      "ĠÃ¾jÃ³Ã°aratkvÃ¦Ã°agreiÃ°": 8578,
      "sturinn": 8579,
      "kl": 8580,
      "ĠbensÃŃn": 8581,
      "Ġversl": 8582,
      "Ġlofa": 8583,
      "ĠBSRB": 8584,
      "ĠSÃ³l": 8585,
      "ĠFjÃ¶l": 8586,
      "ĠsamtÃŃmis": 8587,
      "stjÃ³rinn": 8588,
      "Ġstundir": 8589,
      "ĠatvinnumÃ¡lum": 8590,
      "tÃ¦ka": 8591,
      "ĠrÃŃsa": 8592,
      "Ġhross": 8593,
      "ĠstÃ½r": 8594,
      "ĠlÃ¶gÃ°um": 8595,
      "ĠjÃ¶fnu": 8596,
      "skerfinu": 8597,
      "Ġafhenda": 8598,
      "ĠlaunafÃ³lks": 8599,
      "Ġsumu": 8600,
      "nor": 8601,
      "Ġflot": 8602,
      "ĠrÃŃkari": 8603,
      "slÃ¡na": 8604,
      "ĠverÃ°bÃ³lgan": 8605,
      "ĠBjarna": 8606,
      "Ġvitanlegt": 8607,
      "Ġfinnast": 8608,
      "ĠorÃ°nar": 8609,
      "ĠOl": 8610,
      "afna": 8611,
      "ĠJÃ³sef": 8612,
      "saÃ°": 8613,
      "Ã¾Ã¦tti": 8614,
      "ĠHjer": 8615,
      "Ġtryggingu": 8616,
      "iskup": 8617,
      "ĠÃŃÃ¾yn": 8618,
      "Ġnefnir": 8619,
      "Ġleigja": 8620,
      "Ġhreinu": 8621,
      "Ġvori": 8622,
      "Ġmikillar": 8623,
      "ekjum": 8624,
      "ĠrÃŃka": 8625,
      "ĠRÃŃk": 8626,
      "ĠsÃ©rstakrar": 8627,
      "ĠhÃ¡ttur": 8628,
      "Ġtelst": 8629,
      "ĠafdrÃ¡ttar": 8630,
      "ĠKvennalist": 8631,
      "ĠhÃºsm": 8632,
      "ĠstjÃ³rnlag": 8633,
      "ÃºtgÃ¡": 8634,
      "ĠÃ¡heyr": 8635,
      "ĠfyrirtÃ¦kjanna": 8636,
      "ĠhljÃ³Ã°andi": 8637,
      "ĠÃºtskÃ½ra": 8638,
      "ĠgÃ¦Ã°i": 8639,
      "Ġskynd": 8640,
      "eldu": 8641,
      "ĠSkÃ½r": 8642,
      "ĠÃ³neitanlega": 8643,
      "ĠnotaÃ°ar": 8644,
      "ĠPÃ¡lsson": 8645,
      "Ġverulegt": 8646,
      "vop": 8647,
      "ĠÃºtgjald": 8648,
      "fjÃ¶rÃ°": 8649,
      "hlutfall": 8650,
      "ĠsÃ³kn": 8651,
      "ĠMinni": 8652,
      "ĠSpurningin": 8653,
      "ĠII": 8654,
      "ĠsÃ¶gunni": 8655,
      "Ġlagasetning": 8656,
      "ĠneÃ°an": 8657,
      "Ġbei": 8658,
      "ĠsamÃ¾ykktum": 8659,
      "ĠPÃ¡lmason": 8660,
      "ĠAllar": 8661,
      "sÃ¦i": 8662,
      "ĠstÃ½ra": 8663,
      "Ġkrefst": 8664,
      "Ġkrist": 8665,
      "ĠÃºtvegsmanna": 8666,
      "ĠreiÃ°ubÃºinn": 8667,
      "Ġ1970": 8668,
      "anlegri": 8669,
      "sstjÃ³ra": 8670,
      "tekju": 8671,
      "lagiÃ°": 8672,
      "efnan": 8673,
      "ĠlifaÃ°": 8674,
      "Ġlosun": 8675,
      "Ã¶guleik": 8676,
      "ĠFljÃ³": 8677,
      "Ġlakari": 8678,
      "ĠGunn": 8679,
      "Ġsunn": 8680,
      "ĠminnkaÃ°": 8681,
      "Ġ2005": 8682,
      "ĠhafÃ°ur": 8683,
      "mÃ¡linu": 8684,
      "ĠfjÃ¡rlÃ¶gunum": 8685,
      "ĠtjÃ³ni": 8686,
      "jÃ³s": 8687,
      "ĠgÃ¦fi": 8688,
      "ĠStÃ³r": 8689,
      "otkun": 8690,
      "Ġhir": 8691,
      "Ġhapp": 8692,
      "Ġsveitir": 8693,
      "Ġ48": 8694,
      "ĠblÃ¶Ã°": 8695,
      "nara": 8696,
      "ĠhÃ©ldu": 8697,
      "ĠskotiÃ°": 8698,
      "ĠlagaÃ¡kvÃ¦Ã°i": 8699,
      "grip": 8700,
      "Ġeinkennilegt": 8701,
      "ĠfrystihÃºs": 8702,
      "varandi": 8703,
      "ĠbÃ¡Ã°ar": 8704,
      "grÃ¦Ã°slu": 8705,
      "ĠsannaÃ°": 8706,
      "Ġinnflutnings": 8707,
      "Ġ2006": 8708,
      "Ġstandist": 8709,
      "Ġhorfur": 8710,
      "ĠgÃ¶t": 8711,
      "ĠfjarlÃ¦g": 8712,
      "stirÃ©ttur": 8713,
      "ĠsjÃ³Ã°a": 8714,
      "ĠHinn": 8715,
      "ĠÃĨtli": 8716,
      "ĠstjÃ³rnmÃ¡laflokka": 8717,
      "Ġfelist": 8718,
      "alÃŃf": 8719,
      "ĠbÃ¡tar": 8720,
      "ĠMÃ¶ll": 8721,
      "Ġfyrirspurnum": 8722,
      "ĠrÃŃkisskatt": 8723,
      "astjÃ³rnar": 8724,
      "maÃ°urinn": 8725,
      "ĠumboÃ°smanns": 8726,
      "ĠfyrirmÃ¦li": 8727,
      "ĠhÃ¦ttulegt": 8728,
      "Ġhegningar": 8729,
      "Ġhorn": 8730,
      "skerfiÃ°": 8731,
      "ĠÃ¾jÃ³Ã°k": 8732,
      "Ġdetta": 8733,
      "ĠÃºtsvÃ¶r": 8734,
      "ĠiÃ°naÃ°i": 8735,
      "Ġborizt": 8736,
      "ĠfrjÃ¡lsa": 8737,
      "inganna": 8738,
      "ĠrÃ¡Ã°gjÃ¶f": 8739,
      "Ġaltaf": 8740,
      "ĠÃ¦Ã°i": 8741,
      "Ġminnkandi": 8742,
      "ĠÃ¡lyktanir": 8743,
      "ĠverÃ°jÃ¶fnunar": 8744,
      "Ġ47": 8745,
      "ĠvoriÃ°": 8746,
      "ĠpappÃŃr": 8747,
      "stÃ¶Ã°una": 8748,
      "ĠHinsvegar": 8749,
      "ĠrÃ¶kin": 8750,
      "ĠstyÃ°jast": 8751,
      "ĠafsÃ¶kunar": 8752,
      "ĠÃ¾ingskj": 8753,
      "ĠlÃŃti": 8754,
      "ĠhÃ©ruÃ°": 8755,
      "Ġframsal": 8756,
      "ĠiÃ°naÃ°arins": 8757,
      "ĠsÃ¡tta": 8758,
      "ĠtÃŃmabilinu": 8759,
      "ĠAtvinnuleys": 8760,
      "ĠÃ³heimilt": 8761,
      "Ġnam": 8762,
      "ĠÃ¦tÃŃÃ°": 8763,
      "Ġsamanber": 8764,
      "ĠkÃŃl": 8765,
      "ĠmiÃ°uÃ°": 8766,
      "Ġerlendir": 8767,
      "ĠKatrÃŃ": 8768,
      "ĠhÃ©rlendis": 8769,
      "Ġskug": 8770,
      "ĠjarÃ°a": 8771,
      "merÃŃku": 8772,
      "ĠÃ¾Ã½Ã°ingarmikiÃ°": 8773,
      "ĠfyrirhugaÃ°": 8774,
      "ĠBryn": 8775,
      "ĠX": 8776,
      "dÃ½ra": 8777,
      "Ġskilgreiningu": 8778,
      "ĠforÃ°ast": 8779,
      "Ġmeirihluta": 8780,
      "ĠsagÃ°ist": 8781,
      "slumÃ¡l": 8782,
      "ĠskÃ³lar": 8783,
      "ĠÃ³lÃŃklegt": 8784,
      "ĠfundarstjÃ³rn": 8785,
      "orÃ°ur": 8786,
      "ĠmÃ¶guleikum": 8787,
      "Ġsla": 8788,
      "Ġframlengja": 8789,
      "ĠEinhver": 8790,
      "aleysi": 8791,
      "Ġhalli": 8792,
      "ĠÃ¾ekkt": 8793,
      "Ġundirskrif": 8794,
      "ĠlÃ¶ggjafarÃ¾ingi": 8795,
      "ĠframleiÃ°endur": 8796,
      "ĠbrjÃ³sti": 8797,
      "EC": 8798,
      "ĠÃ¾ekkingar": 8799,
      "ĠÃ¡vÃ¶x": 8800,
      "brÃº": 8801,
      "Ġtilnefnd": 8802,
      "ĠgÃ³Ã°ir": 8803,
      "ĠstÃ³rmÃ¡l": 8804,
      "Ġtakt": 8805,
      "Ã¦tta": 8806,
      "Ġaukinnar": 8807,
      "Ġ1996": 8808,
      "Ġgalla": 8809,
      "Ġgengu": 8810,
      "ĠdÃ½p": 8811,
      "sprÃ³": 8812,
      "ĠLandhelgisgÃ¦": 8813,
      "fÃ¶llum": 8814,
      "ĠÃ¾ingskapa": 8815,
      "hÃºsum": 8816,
      "Ġmyndar": 8817,
      "Ġlosna": 8818,
      "ĠÃ¶rorkulÃŃf": 8819,
      "dÃ³mstÃ³l": 8820,
      "ĠsÃ¶gunnar": 8821,
      "ĠskÃ³linn": 8822,
      "part": 8823,
      "ĠvandamÃ¡lum": 8824,
[...]
